<pad>	0
<unk>	0
<s>	0
</s>	0
▁.	-2.99501
▁,	-3.23821
▁bir	-3.77851
▁ve	-3.94228
▁bu	-4.14763
▁	-4.47563
▁''	-4.52683
n	-4.77877
'	-4.95902
a	-5.02372
`	-5.13876
▁`	-5.16365
k	-5.18094
▁için	-5.21754
lar	-5.23076
e	-5.25538
m	-5.25597
▁çok	-5.37174
i	-5.37607
▁da	-5.42158
ler	-5.48142
▁?	-5.48709
▁daha	-5.48933
▁de	-5.53185
da	-5.55679
▁ki	-5.75411
▁o	-5.78801
de	-5.81538
▁var	-5.82327
ları	-5.82799
▁)	-5.84736
(	-5.84841
▁ama	-5.8594
▁:	-5.89561
▁gibi	-5.93645
ya	-5.95668
in	-5.97112
▁şey	-5.97725
leri	-5.9775
▁olarak	-5.97924
▁ne	-5.98621
la	-6.02791
▁...	-6.0684
ı	-6.07598
▁olan	-6.09216
nin	-6.10356
▁her	-6.1052
den	-6.11421
nın	-6.12877
▁en	-6.15521
r	-6.16163
li	-6.16341
dan	-6.17154
le	-6.1753
si	-6.18319
▁kadar	-6.20985
z	-6.21171
ye	-6.22949
▁bunu	-6.22978
▁—	-6.29441
▁ya	-6.31461
s	-6.3258
l	-6.33263
t	-6.34709
▁değil	-6.35164
na	-6.36286
▁ile	-6.37943
▁sonra	-6.38118
ın	-6.39751
▁çünkü	-6.40077
▁iyi	-6.41198
p	-6.42421
▁zaman	-6.42428
▁büyük	-6.44808
▁sadece	-6.48129
▁olduğunu	-6.49769
sı	-6.5027
▁ben	-6.50714
yi	-6.52417
▁nasıl	-6.53447
▁şimdi	-6.58596
ma	-6.59353
dir	-6.60014
▁şu	-6.60114
an	-6.60461
▁yani	-6.61627
lı	-6.6324
ların	-6.64247
di	-6.64311
-	-6.6532
ki	-6.66705
u	-6.67459
▁eğer	-6.68867
ne	-6.6999
▁iki	-6.7142
▁önce	-6.73063
y	-6.74286
lerin	-6.74949
▁aynı	-6.75459
▁aslında	-6.76112
dır	-6.76853
▁biz	-6.78324
▁bunun	-6.78354
▁şekilde	-6.78567
▁yeni	-6.78605
▁burada	-6.79977
▁benim	-6.80421
▁yıl	-6.81023
▁gerçekten	-6.8147
lerini	-6.82217
▁fazla	-6.82709
ş	-6.8286
larını	-6.82974
ta	-6.83148
yı	-6.83399
▁fakat	-6.84729
▁ilk	-6.85324
▁mi	-6.8597
lik	-6.86502
▁tüm	-6.8786
▁insan	-6.89952
▁;	-6.91497
en	-6.92298
te	-6.93983
ni	-6.95061
▁kendi	-6.95656
▁insanlar	-6.95656
▁diğer	-6.95703
▁hakkında	-6.98972
ca	-7.00698
me	-7.01469
ti	-7.0318
▁başka	-7.04144
▁olduğu	-7.04626
daki	-7.05528
▁farklı	-7.05669
ü	-7.05795
▁size	-7.07925
▁son	-7.08846
ce	-7.10158
▁doğru	-7.11845
▁bizim	-7.12339
▁küçük	-7.127
▁dünya	-7.12749
▁içinde	-7.12915
▁ilgili	-7.13345
lara	-7.13733
▁bana	-7.13748
▁bütün	-7.13961
▁işte	-7.14216
▁yok	-7.14299
b	-7.1452
▁sahip	-7.15643
un	-7.15886
▁bile	-7.18542
dı	-7.18937
▁neden	-7.19124
lere	-7.20476
d	-7.20725
sa	-7.22211
▁gülüşmeler	-7.22693
▁veya	-7.24656
um	-7.25334
▁biri	-7.25718
▁an	-7.25908
▁gün	-7.26531
lık	-7.26568
▁iş	-7.26708
▁tek	-7.27191
▁biraz	-7.28029
▁önemli	-7.28594
f	-7.28686
▁ise	-7.28896
ini	-7.29261
tı	-7.2994
▁bunlar	-7.30031
uz	-7.31034
▁yer	-7.31056
mak	-7.3151
▁şeyler	-7.31958
im	-7.32108
tan	-7.3242
miz	-7.32845
▁insanların	-7.33052
du	-7.33476
▁hiç	-7.3355
▁oldu	-7.3429
▁♫	-7.34583
ə	-7.34954
▁geri	-7.35208
▁al	-7.35726
o	-7.36722
▁ancak	-7.38179
▁az	-7.3961
▁onu	-7.40288
deki	-7.40769
▁su	-7.40834
yla	-7.41041
▁bazı	-7.41612
▁böyle	-7.42296
▁üzerinde	-7.42588
▁onlar	-7.43056
mi	-7.43488
.	-7.43723
▁gerçek	-7.44055
▁bilgi	-7.44392
▁tam	-7.45142
lu	-7.4574
ydi	-7.46157
nda	-7.46561
h	-7.47145
▁üç	-7.4757
yle	-7.48451
ken	-7.49041
▁karşı	-7.49738
mış	-7.49823
▁göre	-7.50098
niz	-7.51218
▁vardı	-7.51432
▁-	-7.51963
ra	-7.52335
g	-7.52341
▁böylece	-7.53628
se	-7.53656
▁və	-7.5438
nı	-7.54916
▁yüzden	-7.551
ten	-7.55382
▁zamanda	-7.56228
▁diye	-7.568
nde	-7.5713
▁bugün	-7.57137
▁birkaç	-7.5753
sine	-7.57878
▁yapmak	-7.58338
▁belki	-7.58379
c	-7.6008
q	-7.60491
ir	-7.60796
lardan	-7.60869
▁onun	-7.61053
sini	-7.61392
ır	-7.61546
▁onları	-7.6163
▁olması	-7.62108
▁soru	-7.62134
miş	-7.62403
▁bize	-7.62672
▁tarafından	-7.62764
▁beni	-7.63124
▁evet	-7.6336
arak	-7.63455
sel	-7.63492
▁olacak	-7.63749
ım	-7.64312
▁peki	-7.64451
▁teknoloji	-7.64981
▁hareket	-7.6521
▁buna	-7.65339
ar	-7.65455
larına	-7.65491
ydı	-7.65536
▁istiyorum	-7.66048
▁oldukça	-7.66365
lerine	-7.66751
larda	-7.67137
▁olmak	-7.67389
▁güzel	-7.67523
lerden	-7.67725
▁ortaya	-7.68317
▁uzun	-7.68469
siniz	-7.68819
▁tekrar	-7.68852
larının	-7.68953
▁mı	-7.69329
▁'	-7.69399
▁zor	-7.69583
tir	-7.69743
er	-7.70282
▁para	-7.70464
ri	-7.70664
acak	-7.71111
mız	-7.71146
▁oluyor	-7.71707
dim	-7.72155
▁kişi	-7.72563
▁birçok	-7.72711
ını	-7.73132
▁orada	-7.73976
▁tür	-7.74234
▁karar	-7.74626
lerde	-7.75468
—	-7.75477
▁siz	-7.75479
▁şeyi	-7.75719
mek	-7.76381
▁etmek	-7.76504
▁alkış	-7.76855
▁fark	-7.76935
▁kötü	-7.77281
▁açık	-7.77364
▁hayal	-7.7776
ci	-7.77842
sını	-7.78235
▁olabilir	-7.78318
▁artık	-7.78611
yu	-7.79395
▁konu	-7.79636
tır	-7.80564
▁anda	-7.80647
▁bence	-7.80683
lerle	-7.81405
ıp	-7.81466
▁tamam	-7.81626
ine	-7.81806
re	-7.81997
▁yol	-7.82108
▁devam	-7.82119
il	-7.82169
▁alkışlar	-7.83078
ıyor	-7.83296
lerinin	-7.83418
▁yüzde	-7.83737
maya	-7.84108
▁boyunca	-7.84154
ik	-7.84889
▁öyle	-7.85001
▁yüksek	-7.85187
larında	-7.85458
▁milyon	-7.85893
▁geliyor	-7.85934
▁harika	-7.85963
▁dünyanın	-7.86097
sına	-7.86928
▁hikaye	-7.87575
▁bak	-7.87586
ip	-7.87905
ecek	-7.88558
▁10	-7.8858
▁çıkar	-7.88795
lama	-7.89387
nız	-7.89472
larla	-7.89575
v	-7.89671
iz	-7.89761
inde	-7.90079
▁tamamen	-7.90204
▁yakın	-7.90751
lan	-7.91276
▁şöyle	-7.91462
nun	-7.91943
▁mu	-7.92088
▁arasında	-7.92253
▁pek	-7.92281
▁dedi	-7.92437
sin	-7.92601
▁göz	-7.92798
▁ülke	-7.93464
▁kaç	-7.9358
▁b	-7.94182
▁ay	-7.9442
▁herkes	-7.9478
▁basit	-7.94823
▁birlikte	-7.94939
erek	-7.95096
sanız	-7.95111
▁hiçbir	-7.95116
▁at	-7.95205
▁i	-7.95496
▁kat	-7.95536
▁olur	-7.95777
▁süre	-7.95844
▁durum	-7.96012
et	-7.96028
▁çocuk	-7.96054
▁kahkahalar	-7.96125
▁adam	-7.9617
abilir	-7.96365
▁enerji	-7.96817
▁ev	-7.97011
▁onların	-7.97306
▁çoğu	-7.98265
▁gelen	-7.9858
▁fikir	-7.99178
▁etme	-7.99784
▁teşekkürler	-8.00126
▁afrika	-8.00498
lardı	-8.00527
▁kadın	-8.00567
▁alan	-8.00892
▁a	-8.01188
ndan	-8.01282
▁olma	-8.01283
dım	-8.01968
▁aile	-8.02133
▁hava	-8.02292
▁ona	-8.02458
siz	-8.02479
lığı	-8.02605
▁sonunda	-8.0268
lü	-8.03054
▁onlara	-8.03401
▁yardım	-8.03494
▁sizin	-8.0397
▁yerine	-8.04051
▁sorun	-8.0416
dur	-8.042
▁araba	-8.04351
▁bilim	-8.04548
▁gereken	-8.04868
liği	-8.05134
ba	-8.05357
▁ma	-8.05788
▁demek	-8.06116
ına	-8.06189
▁üzerine	-8.06317
▁hatta	-8.06793
də	-8.06995
▁bilgisayar	-8.07072
ç	-8.07213
▁ses	-8.07623
▁temel	-8.07735
▁el	-8.07873
▁genç	-8.08168
▁bizi	-8.08217
▁konuşma	-8.08295
▁çalışma	-8.08561
▁yaklaşık	-8.08646
▁nokta	-8.08772
▁hayat	-8.0911
su	-8.093
▁e	-8.09631
▁veri	-8.09905
▁sene	-8.10244
▁eski	-8.10418
▁saat	-8.10951
lər	-8.10964
▁teşekkür	-8.11184
▁ayrıca	-8.1134
▁ilginç	-8.11468
▁parça	-8.11511
iyor	-8.1165
▁ederim	-8.11758
▁proje	-8.11858
▁örnek	-8.11996
cı	-8.12113
▁sosyal	-8.12259
▁yüz	-8.12261
▁amerika	-8.12297
▁eden	-8.12299
ün	-8.12319
sız	-8.13345
al	-8.13614
▁20	-8.13786
larından	-8.13974
lerinden	-8.14295
▁ediyor	-8.14318
▁zorunda	-8.14326
sunuz	-8.14647
▁yapı	-8.15141
▁yaşam	-8.15259
▁çevre	-8.15388
▁yapma	-8.15508
▁vardır	-8.15512
el	-8.15666
▁beyin	-8.15849
▁inanılmaz	-8.15946
▁video	-8.15946
ur	-8.15957
▁geldi	-8.16112
▁dört	-8.16154
▁işe	-8.16166
▁yine	-8.16319
▁konusunda	-8.16382
lerinde	-8.16424
▁sağ	-8.16744
▁3	-8.17222
x	-8.17307
▁hem	-8.17363
▁gelir	-8.17396
▁eğitim	-8.17828
▁yeniden	-8.17908
▁hala	-8.17999
ması	-8.18127
▁herhangi	-8.18443
inin	-8.18517
▁araştırma	-8.18769
▁hemen	-8.19091
▁yalnız	-8.19442
▁kız	-8.19761
▁hepsi	-8.19918
▁tane	-8.20295
▁s	-8.20614
▁dünyada	-8.21329
▁yerde	-8.21355
dik	-8.21706
at	-8.21731
▁insanları	-8.22078
▁savaş	-8.22298
▁hale	-8.22414
sun	-8.22564
lo	-8.22602
ro	-8.23693
▁bunları	-8.23695
dum	-8.23919
▁g	-8.24434
tik	-8.24627
▁özel	-8.25148
▁gördüğünüz	-8.25169
▁toplum	-8.25233
▁elde	-8.25459
▁kontrol	-8.2551
bi	-8.2552
▁olmayan	-8.25679
▁kimse	-8.25997
▁istediğim	-8.26099
▁cevap	-8.26135
mı	-8.26245
▁milyar	-8.26618
▁dolar	-8.26847
▁bundan	-8.26864
sal	-8.26987
ebilir	-8.27188
▁şunu	-8.27402
sinde	-8.27459
▁birşey	-8.27512
▁hızlı	-8.27564
▁c	-8.27599
▁söz	-8.27691
▁yolu	-8.27972
▁ikinci	-8.28272
▁ta	-8.28504
▁güç	-8.28559
sinin	-8.28637
▁çalışan	-8.29417
▁kolay	-8.29516
▁altında	-8.30101
imiz	-8.30112
nden	-8.30364
mizi	-8.30416
▁benzer	-8.30536
▁beş	-8.30584
▁kal	-8.30692
▁geçen	-8.30721
▁in	-8.31352
▁izin	-8.31558
on	-8.31944
▁sürü	-8.32218
▁güçlü	-8.32312
▁hasta	-8.32487
▁tahmin	-8.32683
▁müzik	-8.32788
▁2	-8.32814
▁durumda	-8.32828
▁ca	-8.33018
▁f	-8.33103
be	-8.3326
sınız	-8.33273
▁ver	-8.33537
▁kim	-8.3385
▁şeyleri	-8.33909
▁hafta	-8.34113
▁aşağı	-8.34257
▁1	-8.3436
▁sizi	-8.34655
▁parçası	-8.34747
▁ka	-8.35014
▁geç	-8.35021
sak	-8.35117
▁bunların	-8.35333
▁doğa	-8.35585
meye	-8.35655
dığı	-8.35668
▁internet	-8.36349
▁də	-8.36932
▁hazır	-8.37082
us	-8.37202
▁he	-8.37396
▁inşa	-8.37556
▁neredeyse	-8.37718
▁başladı	-8.37766
▁özellikle	-8.37933
▁film	-8.38227
0	-8.38481
▁dair	-8.38912
▁edin	-8.38955
▁göster	-8.39087
▁gerek	-8.39149
st	-8.39158
▁bakın	-8.3917
to	-8.3921
▁etti	-8.39502
▁insanlara	-8.40172
▁mümkün	-8.40351
▁görme	-8.40421
çi	-8.40473
▁sen	-8.4065
ğı	-8.40665
ında	-8.4094
▁inan	-8.41152
▁ara	-8.41226
sının	-8.41359
▁ağ	-8.41844
▁birisi	-8.42118
▁ha	-8.42208
▁hayır	-8.42255
▁genel	-8.42365
▁orta	-8.42692
▁güneş	-8.42869
▁ak	-8.42951
▁kısa	-8.43276
▁bazen	-8.43353
dü	-8.43701
abiliriz	-8.43777
▁yap	-8.44071
yiz	-8.44148
▁altı	-8.44251
ha	-8.44253
▁yanlış	-8.4426
tu	-8.44654
▁baş	-8.44854
▁iç	-8.44879
▁deniz	-8.44921
▁4	-8.44982
▁dedim	-8.45276
▁anlama	-8.45365
▁yaptığı	-8.45403
▁kabul	-8.45669
▁grup	-8.45765
▁gösteriyor	-8.45921
▁va	-8.4605
▁hepimiz	-8.46153
larımız	-8.46315
muş	-8.46337
▁gece	-8.46361
▁ana	-8.46432
▁olsa	-8.46448
▁anne	-8.46512
▁idi	-8.46655
kı	-8.46773
cu	-8.47027
▁tabii	-8.47162
▁örneğin	-8.47557
liğin	-8.47592
▁gelecek	-8.47681
▁k	-8.48062
▁yarat	-8.48437
▁uzay	-8.48439
min	-8.48555
▁ted	-8.48571
▁araya	-8.48882
▁sağlık	-8.48971
▁çin	-8.49316
▁kan	-8.49358
▁yaptığımız	-8.49539
▁verme	-8.49615
sek	-8.49725
ça	-8.50004
▁kullan	-8.50009
▁hindistan	-8.50035
▁problem	-8.50066
luk	-8.50304
▁30	-8.50547
tü	-8.50695
▁co	-8.50778
dığını	-8.51041
▁değildir	-8.51287
va	-8.51347
▁doğal	-8.51381
▁sonuç	-8.51545
▁kez	-8.52044
it	-8.52104
ve	-8.52109
lə	-8.52166
ğa	-8.52305
▁gir	-8.52443
▁yapmaya	-8.52556
vi	-8.52638
▁yaz	-8.52778
▁değer	-8.53154
▁do	-8.53279
leme	-8.53296
▁tedavi	-8.53308
▁mü	-8.5333
▁bağlı	-8.53521
▁çox	-8.53564
▁derin	-8.53585
▁olay	-8.53656
ch	-8.53693
nu	-8.53705
dık	-8.53802
seniz	-8.53809
▁neler	-8.53877
▁oyun	-8.53977
▁düşünün	-8.54002
nizi	-8.54029
gi	-8.54198
▁50	-8.5421
▁sistem	-8.54278
▁çocuklar	-8.54305
▁sanırım	-8.54336
▁sistemi	-8.54625
▁kelime	-8.54637
unu	-8.54854
▁çıktı	-8.54963
▁değildi	-8.54976
ge	-8.55014
▁san	-8.55153
▁kar	-8.552
mızı	-8.5522
▁new	-8.55234
▁5	-8.5562
▁te	-8.5577
▁derece	-8.55829
yim	-8.56109
2	-8.56124
▁alma	-8.56213
▁yapıyor	-8.56348
▁bin	-8.56402
▁getir	-8.56458
▁ek	-8.56552
▁iletişim	-8.56823
▁olduğuna	-8.56853
▁değiştir	-8.56925
▁düşünce	-8.57124
▁tabi	-8.5713
▁yapan	-8.57257
▁yere	-8.57436
▁sanat	-8.57512
ız	-8.5763
▁tasarım	-8.5773
▁gerekiyor	-8.57818
▁iste	-8.57849
▁ifade	-8.57889
▁görüyorsunuz	-8.57904
nüz	-8.57932
ebiliriz	-8.57934
man	-8.5806
▁adı	-8.58297
sın	-8.58365
▁yan	-8.58485
nızı	-8.58739
▁üzere	-8.58831
▁sonraki	-8.59089
▁muhtemelen	-8.59115
▁ölüm	-8.5912
▁öğren	-8.59193
tim	-8.59336
▁çalış	-8.59362
ıl	-8.59883
▁ışık	-8.60062
w	-8.60183
▁ekonomi	-8.60226
▁haber	-8.6024
sında	-8.60258
▁re	-8.60276
▁yara	-8.60412
ılmış	-8.60521
▁geniş	-8.60531
▁ilişki	-8.60548
▁karmaşık	-8.60794
▁mesela	-8.60881
▁kesinlikle	-8.61051
ö	-8.61187
▁olmadığı	-8.61339
elim	-8.61395
ıcı	-8.6148
▁bağ	-8.61856
or	-8.61886
▁güven	-8.61898
▁telefon	-8.62044
▁plan	-8.62097
yız	-8.62115
▁as	-8.6212
▁ön	-8.62123
▁verici	-8.62137
▁et	-8.62389
diği	-8.62443
muz	-8.6263
▁başladım	-8.6268
▁canlı	-8.62688
▁küresel	-8.62689
▁bas	-8.62708
▁hücre	-8.62725
▁bil	-8.62816
▁100	-8.62836
▁erkek	-8.62843
abilirsiniz	-8.63183
▁biliyoruz	-8.632
▁dakika	-8.63329
▁biliyor	-8.63441
1	-8.63659
▁la	-8.64009
▁bağlantı	-8.64035
▁düşün	-8.64202
▁dil	-8.64323
▁olmadığını	-8.64509
▁aç	-8.64595
iyoruz	-8.64614
▁ar	-8.64703
▁asla	-8.64734
▁bina	-8.65085
▁ba	-8.65395
▁kullanarak	-8.65453
▁olduğumuz	-8.65529
▁şeyin	-8.6559
▁15	-8.65701
▁ortak	-8.65721
ter	-8.66029
▁p	-8.6605
▁kahkaha	-8.66112
▁bırak	-8.66193
▁deney	-8.66258
▁sebep	-8.66492
mesi	-8.66627
▁ihtiyacımız	-8.66681
▁bilirsiniz	-8.6673
▁yoktu	-8.66743
ğ	-8.67014
▁bölge	-8.67186
lerimiz	-8.67197
▁kap	-8.67261
ünü	-8.67311
▁yanı	-8.6738
▁çeşit	-8.6749
▁buradaki	-8.67582
dən	-8.67737
▁arasındaki	-8.67907
▁işi	-8.67992
▁beraber	-8.68097
▁insanın	-8.68112
▁söyle	-8.68175
▁hep	-8.68224
▁ele	-8.68243
▁dikkat	-8.68324
ley	-8.68389
▁on	-8.68774
ımız	-8.68915
▁dünyayı	-8.69641
▁düşünüyorum	-8.69722
▁yapılan	-8.69769
▁kafa	-8.69945
▁uygulama	-8.69961
▁madde	-8.69978
▁yılda	-8.70038
cə	-8.70336
▁yaptık	-8.70347
▁yukarı	-8.70432
▁orman	-8.70449
▁tak	-8.70499
▁ileri	-8.70691
rken	-8.70763
▁ulaş	-8.70881
▁görmek	-8.71266
▁tıp	-8.71396
▁etki	-8.7154
▁fikri	-8.71695
▁içine	-8.71775
▁sürekli	-8.71811
▁bakış	-8.71824
ləri	-8.71905
acağım	-8.71928
▁dolayı	-8.71953
▁rağmen	-8.71963
▁dünyadaki	-8.72067
▁nedir	-8.72222
▁sayı	-8.72282
▁ister	-8.72342
▁alıp	-8.72429
▁görebilirsiniz	-8.72441
ının	-8.72555
▁model	-8.72577
▁hayvan	-8.72735
mayı	-8.72778
bo	-8.72902
inden	-8.72922
▁koy	-8.72938
▁düşündüm	-8.72952
▁üçün	-8.72963
▁kendini	-8.7299
▁gitme	-8.7304
çe	-8.73046
▁meydan	-8.73048
▁adım	-8.7307
▁kır	-8.7322
▁çizgi	-8.73684
00	-8.73989
dığımız	-8.74045
â	-8.7413
▁okul	-8.74228
▁sev	-8.74287
▁test	-8.74291
ydu	-8.74444
diğini	-8.7474
▁deneyim	-8.74833
▁yedi	-8.74845
▁kas	-8.74866
▁ekonomik	-8.75135
▁sa	-8.75159
do	-8.75361
▁yazı	-8.75403
▁hayatta	-8.75549
▁olsun	-8.75594
8	-8.75631
fi	-8.7568
▁se	-8.75789
▁büyü	-8.75866
▁hedef	-8.75896
▁york	-8.75948
yım	-8.75991
▁asıl	-8.76109
▁yaşayan	-8.7611
ul	-8.76121
▁yardımcı	-8.76122
sinden	-8.76439
▁bazıları	-8.76479
ol	-8.76491
▁hangi	-8.76491
▁değişim	-8.7657
▁eder	-8.76732
▁oda	-8.76865
▁şehir	-8.77012
▁avrupa	-8.77023
▁mutlu	-8.77055
▁ettim	-8.77116
▁h	-8.7735
▁ed	-8.77447
▁başına	-8.77459
▁binlerce	-8.77511
▁fotoğraf	-8.77516
▁sıra	-8.77644
ilmiş	-8.77817
ebilirsiniz	-8.77998
5	-8.78177
▁ciddi	-8.7833
▁etmeye	-8.7836
zi	-8.78391
▁korku	-8.78986
▁alanı	-8.79207
lığın	-8.79272
▁kazan	-8.79336
▁sebebi	-8.79429
▁me	-8.79688
▁olup	-8.79901
ng	-8.80045
taki	-8.80074
▁kendisi	-8.80131
▁di	-8.80256
▁yemek	-8.80288
▁19	-8.80399
▁kadınlar	-8.80414
ll	-8.80639
imi	-8.80693
▁ç	-8.80922
alım	-8.81007
▁içerisinde	-8.81057
▁batı	-8.81138
▁yılında	-8.81165
▁arka	-8.81173
▁gezegen	-8.81188
▁acı	-8.81229
▁gel	-8.81407
▁resim	-8.81418
▁dışında	-8.8142
▁biliyorum	-8.81579
▁verir	-8.8179
▁takip	-8.81887
▁güney	-8.82132
4	-8.82183
▁yavaş	-8.82249
acağız	-8.82302
▁mən	-8.82334
▁defa	-8.82346
▁yaptığım	-8.82364
▁kısmı	-8.82496
▁sor	-8.82523
iş	-8.8253
▁anlat	-8.82669
▁merak	-8.82768
▁uygun	-8.8287
▁sık	-8.82985
▁seç	-8.82995
▁mükemmel	-8.8304
▁bununla	-8.83055
▁t	-8.83111
lamak	-8.83204
son	-8.83237
▁ders	-8.83428
▁kuzey	-8.83558
▁aşı	-8.83794
▁kaldır	-8.83907
▁arada	-8.83917
çı	-8.83927
▁başarı	-8.8395
mıştı	-8.83981
▁pe	-8.83988
▁mar	-8.84083
▁başarılı	-8.84109
▁işin	-8.84156
leriyle	-8.84265
▁yaşında	-8.84296
▁görüyoruz	-8.84298
▁muhteşem	-8.84428
▁beri	-8.845
▁nə	-8.84605
▁uzak	-8.84693
▁şarkı	-8.84778
▁6	-8.8503
▁ihtiyaç	-8.85055
▁nerede	-8.85132
▁ö	-8.85163
▁üst	-8.85334
▁vermek	-8.85439
▁elbette	-8.85481
▁almak	-8.85561
▁elektrik	-8.85658
▁olurdu	-8.85798
▁ko	-8.85814
▁alt	-8.85844
▁normal	-8.85851
▁biliyorsunuz	-8.8589
▁dolu	-8.86167
▁çek	-8.86328
▁gerekli	-8.86374
▁buraya	-8.86383
lanmış	-8.86498
▁il	-8.86724
▁ilgi	-8.86859
▁w	-8.86934
▁burası	-8.86951
▁mo	-8.87151
▁na	-8.87164
▁konuda	-8.87212
▁gerektiğini	-8.87214
▁40	-8.87341
▁sol	-8.87389
ımı	-8.87391
▁açı	-8.87462
▁gidip	-8.87468
9	-8.87503
▁destek	-8.87654
ga	-8.87714
▁kendimi	-8.87801
▁be	-8.87902
ebilecek	-8.88025
▁mavi	-8.88213
▁yaptı	-8.88339
layan	-8.88354
▁çözüm	-8.88409
▁gidiyor	-8.88425
▁haline	-8.88432
▁zengin	-8.88528
▁beyaz	-8.88529
▁kara	-8.88553
▁risk	-8.88585
▁ait	-8.8859
leşme	-8.88745
▁düşük	-8.88893
ck	-8.88906
▁ke	-8.89038
j	-8.89172
▁doğu	-8.89181
▁kapı	-8.89325
yə	-8.89444
6	-8.89484
▁oray	-8.89489
▁u	-8.89504
ici	-8.89532
larıyla	-8.89548
ıyoruz	-8.89677
▁bulunan	-8.89734
▁eş	-8.90106
▁görüntü	-8.90153
▁alır	-8.90182
▁nedenle	-8.90259
▁olmalı	-8.9031
▁işaret	-8.90365
mo	-8.90794
▁seçim	-8.91037
▁mevcut	-8.91109
▁tanım	-8.91202
▁çık	-8.91254
▁sesi	-8.91513
▁kitap	-8.91599
▁vi	-8.91672
mişti	-8.9174
sə	-8.91825
▁kalma	-8.92062
ən	-8.92168
kar	-8.92239
▁yaptım	-8.92315
▁ediyorum	-8.92407
ıldı	-8.92422
▁varsa	-8.92484
▁verdi	-8.92505
▁lazım	-8.92614
▁gönder	-8.92628
▁düzen	-8.92657
▁ortalama	-8.92712
▁yatırım	-8.92774
ko	-8.92827
▁9	-8.92971
▁başladık	-8.93031
mda	-8.93051
▁kur	-8.9324
ton	-8.93268
▁söylüyor	-8.93303
▁resmi	-8.93307
hi	-8.93348
▁tanrı	-8.93387
▁ettik	-8.93428
▁hoş	-8.93496
▁sinir	-8.93584
▁araç	-8.93784
diğimiz	-8.93876
ktan	-8.93925
▁metre	-8.93934
▁edecek	-8.93942
▁kes	-8.94279
ver	-8.94292
▁anlamın	-8.94361
▁ayrı	-8.94582
▁kanser	-8.94683
ey	-8.94733
▁kalan	-8.94835
▁herkesin	-8.94854
▁sayesinde	-8.94925
▁dur	-8.9501
▁kişisel	-8.9508
duk	-8.95087
▁yüzey	-8.95187
▁gücü	-8.95253
▁büyüme	-8.95296
▁söyledi	-8.95552
▁robot	-8.95555
is	-8.95576
▁tut	-8.95718
▁çift	-8.95823
▁hata	-8.95887
▁dna	-8.9607
▁pazar	-8.96083
▁x	-8.96238
bu	-8.96294
▁musunuz	-8.9659
nü	-8.9663
▁makine	-8.96649
mın	-8.96774
▁yöntem	-8.96788
▁olmadan	-8.96834
eceğim	-8.96891
tur	-8.96981
▁gerekir	-8.97008
▁kimi	-8.97093
▁18	-8.97131
▁düşünme	-8.97181
ilen	-8.972
larımızı	-8.97212
▁zamanlar	-8.97352
san	-8.97444
iyle	-8.97505
▁hâl	-8.97538
▁abd	-8.97539
bir	-8.97614
asyon	-8.9762
▁dahil	-8.9767
▁öz	-8.97914
yken	-8.98025
iyorlar	-8.9814
▁bo	-8.98272
▁yaş	-8.98272
kten	-8.9832
▁diyor	-8.9836
mize	-8.98475
▁gen	-8.98545
ist	-8.98625
▁öğret	-8.98702
ed	-8.98745
.000	-8.98749
▁görev	-8.98797
▁geliştir	-8.98873
▁çal	-8.98877
▁sayfa	-8.9888
▁çocukların	-8.98899
▁heyecan	-8.9892
miyor	-8.98923
▁olduğum	-8.99007
▁görüş	-8.99041
mde	-8.99077
▁veren	-8.99256
▁zaten	-8.99305
▁der	-8.99336
▁engel	-8.99382
▁üniversite	-8.99441
▁koruma	-8.99501
▁sanki	-8.99689
▁art	-8.99723
tım	-8.99771
▁oluştur	-8.99782
▁mesaj	-8.99992
abilecek	-9.00054
▁medya	-9.00091
ür	-9.00091
▁konuş	-9.00242
▁başlıyor	-9.00288
▁algı	-9.00291
▁yeşil	-9.00295
ebiliyor	-9.00554
▁emin	-9.00772
▁bunlardan	-9.00905
▁yıldır	-9.00918
▁ho	-9.0092
▁şeye	-9.00962
▁anlamı	-9.01093
▁bar	-9.01297
▁sahibi	-9.01339
▁merkezi	-9.01465
▁anlamak	-9.01479
▁dizi	-9.01518
▁kamera	-9.01531
▁iklim	-9.01531
▁petrol	-9.01531
▁yasa	-9.01557
▁8	-9.01612
ama	-9.01662
sam	-9.01821
▁devlet	-9.0187
dığım	-9.01873
no	-9.02029
▁ilaç	-9.02095
▁sat	-9.02124
▁sınır	-9.02186
sem	-9.02241
meyi	-9.0225
▁tanı	-9.02414
▁belli	-9.02594
▁sar	-9.0267
th	-9.02727
▁tepki	-9.02782
uyor	-9.02817
▁kültür	-9.02851
▁uç	-9.02966
▁d	-9.03092
▁12	-9.03153
▁aldı	-9.03415
lıyor	-9.03419
▁başlar	-9.0344
▁bakalım	-9.03461
▁aracı	-9.03488
▁görünüyor	-9.03553
▁hastalık	-9.03553
▁göstermek	-9.03568
dür	-9.03678
▁günde	-9.03793
▁fakir	-9.03838
acağını	-9.03899
▁olacağını	-9.03937
▁birinin	-9.03957
▁kalp	-9.0396
abiliyor	-9.04071
▁program	-9.04108
▁çalışıyor	-9.04243
ıyorlar	-9.04519
▁fa	-9.04695
lerimizi	-9.04787
masını	-9.04854
▁harita	-9.0493
lanma	-9.0522
▁veriyor	-9.05223
▁çıkan	-9.05272
▁şirket	-9.05324
▁kanıt	-9.0536
▁zamanı	-9.05536
▁kullanma	-9.05549
ru	-9.05578
fa	-9.05603
▁fırsat	-9.05612
▁kol	-9.05616
▁fiziksel	-9.05791
▁bulmak	-9.05833
co	-9.05842
▁şekli	-9.06023
▁başar	-9.06067
▁söylemek	-9.06071
▁yaşlı	-9.06075
▁200	-9.06077
▁li	-9.06081
▁ni	-9.0611
▁temiz	-9.06122
▁içeri	-9.06123
▁öğrenme	-9.06136
▁yanında	-9.06319
▁yerel	-9.06535
▁masa	-9.06567
▁po	-9.06632
▁nedeni	-9.06647
▁gördük	-9.06798
▁tarih	-9.06822
▁mikro	-9.07072
▁dolayısıyla	-9.07085
ər	-9.07114
▁dünyaya	-9.07136
lük	-9.07144
▁em	-9.07156
▁so	-9.07206
landı	-9.07296
▁bizler	-9.07544
▁sınıf	-9.07591
▁bilme	-9.07723
es	-9.0799
▁kuş	-9.08092
▁üçüncü	-9.08108
▁birleşik	-9.08273
▁gelişme	-9.08302
▁bulma	-9.0832
liğe	-9.08359
▁dijital	-9.08393
▁oldukları	-9.08599
▁fe	-9.08648
▁oluşan	-9.08681
▁yiyecek	-9.08703
▁sağlıyor	-9.08755
▁kök	-9.08776
ıyordu	-9.08874
▁alın	-9.08888
▁yayın	-9.09045
sh	-9.09048
▁amerikan	-9.09216
▁tartışma	-9.09234
▁kaynak	-9.0928
▁tip	-9.09321
▁duy	-9.09478
▁olsaydı	-9.09494
▁kon	-9.09569
lerdi	-9.09579
▁ufak	-9.09734
▁je	-9.09766
▁yeterli	-9.09839
▁ol	-9.09993
iniz	-9.10052
,000	-9.10147
▁yapacak	-9.10212
▁tarafta	-9.10212
yorum	-9.1023
▁kurtar	-9.10236
0'	-9.10366
▁yıllar	-9.10374
▁görsel	-9.10449
▁erkekler	-9.10515
as	-9.10657
▁yapabilir	-9.10772
mıza	-9.10861
iyet	-9.11276
meyen	-9.11301
der	-9.11313
▁dağ	-9.11429
▁evrim	-9.11475
▁sabah	-9.1155
▁kırmızı	-9.11579
▁çöz	-9.11616
▁senin	-9.11658
▁tutu	-9.11751
▁hal	-9.11921
▁lo	-9.11996
▁boş	-9.12024
▁duvar	-9.12093
mızda	-9.12098
▁paylaş	-9.1218
▁gelip	-9.12292
▁gider	-9.12373
▁verdim	-9.12534
▁beynin	-9.12668
▁suç	-9.12707
▁yerlerde	-9.12788
▁kutu	-9.12842
▁mücadele	-9.12934
ku	-9.12946
▁olmaya	-9.13014
▁baskı	-9.13035
▁hastane	-9.13225
▁yıllık	-9.13421
▁hayatın	-9.13471
▁ad	-9.13508
▁mars	-9.13676
▁politika	-9.13713
▁aşırı	-9.13775
▁temsil	-9.13868
▁olursa	-9.13868
▁şekil	-9.13869
▁aldım	-9.13945
mizde	-9.13982
▁bulun	-9.14034
mizin	-9.14113
▁ra	-9.14204
▁ayır	-9.14262
▁can	-9.14504
▁to	-9.14569
dılar	-9.14607
▁şiddet	-9.14667
▁gördüm	-9.14671
▁düşünüyor	-9.14676
▁ayak	-9.14698
mıyor	-9.14779
▁şaşırtıcı	-9.14816
▁ci	-9.14996
▁yoksa	-9.15096
▁icin	-9.15134
▁altın	-9.15138
rt	-9.15176
▁şeylerden	-9.1521
▁ge	-9.15237
▁yaşıyor	-9.15293
▁gerçekte	-9.15326
▁ihtiyacı	-9.15398
▁deneme	-9.15441
▁google	-9.15522
▁cep	-9.15539
▁ince	-9.1559
▁alıyor	-9.15644
▁milyonlarca	-9.15787
▁sahne	-9.15795
▁takım	-9.15807
nızda	-9.15995
▁baba	-9.16055
sından	-9.16098
▁birini	-9.16328
ladı	-9.16354
go	-9.16373
▁üstünde	-9.16427
▁işler	-9.1646
▁hükümet	-9.16564
▁gizli	-9.1664
tık	-9.16807
suz	-9.16983
▁gerektiği	-9.17039
lenmiş	-9.17078
ından	-9.17085
mə	-9.17152
sıyla	-9.17236
▁belir	-9.1729
▁yaşama	-9.17392
▁mal	-9.17441
ot	-9.17447
▁balık	-9.17512
▁sayıda	-9.17545
▁olmasını	-9.17583
teki	-9.17593
▁tanesi	-9.17619
▁çıkıyor	-9.17733
▁iz	-9.17783
ət	-9.17812
▁j	-9.17876
▁hak	-9.17877
sunu	-9.18034
▁yerinde	-9.18065
▁neyse	-9.18148
▁bakım	-9.18158
▁derecede	-9.18313
▁bi	-9.18508
▁silah	-9.18797
ılan	-9.18861
eceği	-9.18901
▁inanıyorum	-9.18962
ing	-9.19063
▁dışı	-9.19164
nuz	-9.19197
ildi	-9.19234
▁konusu	-9.19288
▁katı	-9.19299
op	-9.19363
▁biçimde	-9.19391
▁gözü	-9.19405
▁eve	-9.19405
▁ürün	-9.19431
▁noktada	-9.19479
▁dış	-9.19549
mu	-9.19606
▁ediyoruz	-9.19639
▁merkez	-9.19694
▁giy	-9.19733
kan	-9.1977
ış	-9.19772
iyorum	-9.19824
▁yapıyoruz	-9.19843
▁gittim	-9.19858
▁gördüğümüz	-9.19914
meliyiz	-9.19915
▁bakarsanız	-9.1993
eceğiz	-9.19944
▁etkileşim	-9.19967
▁geçti	-9.2014
▁çalışmak	-9.2017
ğe	-9.20232
oloji	-9.2034
▁evren	-9.20389
malıyız	-9.20508
▁halde	-9.20529
3	-9.20576
▁numara	-9.20658
▁gid	-9.21036
▁hizmet	-9.21069
▁kendine	-9.21129
▁babam	-9.2136
▁it	-9.21368
▁yaratmak	-9.21565
▁demokrasi	-9.21667
▁yön	-9.21719
▁yapılmış	-9.21789
▁yarı	-9.21803
▁esas	-9.2184
▁zarar	-9.21844
▁yaratıcı	-9.21915
▁taraf	-9.21918
▁bitki	-9.21935
▁etkili	-9.21957
▁top	-9.21961
▁şeylerin	-9.21975
▁sonrasında	-9.21994
▁arkadaşım	-9.22155
▁herşey	-9.22415
▁yaptıkları	-9.22668
▁süper	-9.22693
up	-9.22754
eceğini	-9.22779
unun	-9.22878
▁dayan	-9.22903
lemek	-9.22926
ran	-9.23134
▁br	-9.23272
▁saniye	-9.23357
▁günü	-9.23387
▁dönüş	-9.23422
cık	-9.23427
▁ateş	-9.23509
ıyorum	-9.23657
▁yüzü	-9.23724
▁öte	-9.23786
▁bilmiyorum	-9.23797
▁durumu	-9.23808
▁site	-9.23826
po	-9.23839
▁bit	-9.23867
▁annem	-9.23907
▁olacaktır	-9.24027
▁mil	-9.24046
▁olduklarını	-9.24134
▁sonucu	-9.24141
▁geçir	-9.24145
▁insanlarla	-9.24146
▁ilham	-9.2424
▁açıkça	-9.24332
▁yaklaş	-9.24367
▁genellikle	-9.24506
▁burda	-9.24532
▁r	-9.24536
▁etkisi	-9.24537
▁kişiler	-9.24548
▁kaynağı	-9.24563
▁ortada	-9.24618
▁okuma	-9.24654
▁bilimsel	-9.24656
▁kişinin	-9.24757
▁kendimizi	-9.24767
▁geleneksel	-9.25033
maz	-9.25289
▁gerçekleştir	-9.2529
▁amaç	-9.25311
▁25	-9.2537
▁gelme	-9.25385
mez	-9.25404
yor	-9.25476
▁edebilir	-9.25518
▁har	-9.25526
▁olmuş	-9.25529
▁karanlık	-9.25808
▁av	-9.2585
▁edil	-9.25871
▁zamanlarda	-9.25921
▁tə	-9.25984
▁modern	-9.26072
▁edilmiş	-9.26079
▁geçmiş	-9.26155
nıza	-9.26174
müş	-9.26227
▁teknik	-9.26348
▁bilər	-9.26452
▁kendilerini	-9.26489
▁yüzlerce	-9.26604
▁başında	-9.26756
▁sayısı	-9.26788
acağı	-9.2684
▁gösteren	-9.26841
▁karbon	-9.26871
abilmek	-9.26878
▁sağlayan	-9.27007
yo	-9.27101
▁hadi	-9.27178
mamız	-9.27216
▁11	-9.27233
▁hayvanlar	-9.27329
▁akıl	-9.27393
▁uçak	-9.27414
▁pa	-9.27422
▁azında	-9.27433
▁istedim	-9.27515
▁ülkeler	-9.27737
▁çeşitli	-9.27934
▁açısından	-9.2798
▁dışarı	-9.28073
▁öğrenci	-9.28076
▁er	-9.28325
▁önceki	-9.28363
▁istiyor	-9.28378
diğim	-9.2851
▁sanatçı	-9.28515
▁verdik	-9.28654
▁am	-9.2868
ebileceği	-9.28708
▁nerey	-9.28731
▁umut	-9.28748
▁hikâye	-9.28756
▁garip	-9.2877
▁adında	-9.28824
▁aşama	-9.28827
▁yapar	-9.28868
▁dalga	-9.28921
▁kesin	-9.28961
▁arı	-9.28976
ılır	-9.29011
▁yüzünden	-9.29058
▁bilmiyor	-9.29478
ılması	-9.29555
lt	-9.29826
nize	-9.29837
dıkları	-9.29954
os	-9.29957
▁hesap	-9.30142
lanan	-9.3042
▁mesele	-9.30453
▁sana	-9.3053
▁oranı	-9.30643
▁hər	-9.30647
▁tur	-9.30745
▁davranış	-9.30833
▁tercih	-9.30957
▁sonsuz	-9.31056
▁hücreleri	-9.31102
liyor	-9.31139
▁önünde	-9.31159
▁yeri	-9.31198
▁ro	-9.31371
dikleri	-9.31385
▁git	-9.31537
▁ucuz	-9.31606
met	-9.31681
▁tepe	-9.31682
▁değilim	-9.31712
▁ettiği	-9.31771
▁ton	-9.31813
▁günlük	-9.31888
lardır	-9.31902
▁beceri	-9.3192
▁korkunç	-9.32077
▁kullanmak	-9.32182
▁anlamda	-9.32207
▁sun	-9.32269
▁sağlıklı	-9.32328
▁denge	-9.32378
siyle	-9.32445
▁yapabiliriz	-9.3246
▁dön	-9.32629
▁çaba	-9.32642
▁dolaş	-9.32845
▁onunla	-9.32854
▁olun	-9.32897
▁okyanus	-9.32921
ay	-9.32922
▁süreç	-9.32947
▁teori	-9.32995
▁istiyoruz	-9.33
▁ada	-9.33044
▁ardından	-9.33086
▁din	-9.33124
▁bulduk	-9.33256
▁hayatı	-9.33266
▁amacı	-9.33269
▁pat	-9.33269
tör	-9.33309
▁rol	-9.33406
▁ondan	-9.33443
una	-9.33477
▁döndü	-9.33487
▁eylem	-9.33507
kleri	-9.33535
kçe	-9.33582
▁edə	-9.336
▁aldık	-9.33609
▁görüyor	-9.33648
lanıyor	-9.33671
▁si	-9.33689
▁sekiz	-9.33781
▁göstereceğim	-9.33897
▁satın	-9.34021
▁siyah	-9.3405
▁gösteri	-9.34089
▁sonu	-9.34315
▁gözlem	-9.34348
▁cevabı	-9.34352
yoruz	-9.34416
▁konuşmak	-9.34459
▁fi	-9.34461
▁is	-9.34594
▁sal	-9.34708
▁ısı	-9.3487
kları	-9.35015
▁çocukları	-9.35039
▁anlam	-9.35056
larımızın	-9.35072
▁oran	-9.35148
▁don	-9.35157
bilme	-9.35157
▁içindeki	-9.35369
▁hepiniz	-9.35503
▁pekala	-9.35518
▁yaşan	-9.35553
ste	-9.35651
▁görün	-9.35658
▁adlandır	-9.35729
▁ah	-9.3575
yü	-9.35801
▁söylediği	-9.35829
▁üret	-9.35998
he	-9.36043
▁organ	-9.36051
▁polis	-9.36125
yıp	-9.36125
▁zeki	-9.36171
▁getirmek	-9.36212
yon	-9.36253
▁belirli	-9.36294
▁pi	-9.36304
▁çiz	-9.36368
ah	-9.36445
▁güvenli	-9.36445
▁olanlar	-9.36612
▁dev	-9.36615
lerdir	-9.36622
▁renk	-9.36625
▁değişik	-9.36637
▁bebek	-9.36693
▁doku	-9.3676
mektedir	-9.36773
▁güvenlik	-9.36796
▁öğretmen	-9.36919
▁rahat	-9.36921
▁köpek	-9.36977
▁farkında	-9.36979
▁ulusal	-9.37002
üm	-9.37029
maktadır	-9.37083
yse	-9.37226
▁park	-9.37431
▁bilir	-9.37493
▁duygu	-9.3756
ndeki	-9.37579
▁seviyorum	-9.37621
▁budur	-9.37622
▁kere	-9.37779
▁ölç	-9.37791
▁olduğundan	-9.37838
▁genetik	-9.37876
▁doktor	-9.37984
▁yapıyorlar	-9.38065
▁piyasa	-9.38165
▁öyleyse	-9.38205
▁fare	-9.3823
▁arkadaş	-9.38231
▁par	-9.38248
▁ilerleme	-9.38266
ber	-9.38277
▁söyleme	-9.38344
▁fikirler	-9.38405
▁gitmek	-9.38507
▁uyan	-9.38562
ğu	-9.3858
▁çocuğu	-9.38596
▁duruyor	-9.3863
mızın	-9.38675
▁harca	-9.38877
▁hepsini	-9.38887
▁telefonu	-9.38951
▁köy	-9.3904
▁gör	-9.39044
▁sorunu	-9.39153
▁nesil	-9.39266
▁anlaşıl	-9.39289
▁geriye	-9.39386
▁kitabı	-9.39392
▁açıklama	-9.39396
▁ter	-9.39398
laşma	-9.39402
ydım	-9.39415
▁parmak	-9.39437
▁kullanıl	-9.39575
▁çıkma	-9.39584
lenme	-9.39612
▁anı	-9.39618
▁yapmamız	-9.3963
▁ikisi	-9.39711
mesini	-9.39729
▁gitti	-9.39746
▁indir	-9.39775
▁kilo	-9.39788
▁tarz	-9.39794
▁kaya	-9.39796
▁giden	-9.39805
leyen	-9.39845
id	-9.39854
▁dans	-9.4004
sen	-9.4012
▁man	-9.40163
▁say	-9.40216
▁yoktur	-9.40232
▁dönem	-9.40248
▁gösterdi	-9.40257
▁olağanüstü	-9.4028
▁yağmur	-9.40281
gu	-9.40348
▁istediğimiz	-9.40467
əm	-9.40544
▁endişe	-9.40604
gen	-9.40617
ndaki	-9.4065
▁fo	-9.40653
mekte	-9.40804
iliyor	-9.40845
▁geldiği	-9.40867
ebil	-9.40881
▁kayıt	-9.40895
ysa	-9.40962
▁hastalığı	-9.40969
ışı	-9.41009
▁virüs	-9.41068
▁bekle	-9.41103
▁oldum	-9.41127
ad	-9.41198
laştır	-9.41274
ği	-9.41322
▁ila	-9.41336
▁vücut	-9.41509
▁hakkı	-9.41689
▁programı	-9.4169
▁cam	-9.4181
diler	-9.41811
▁tarafı	-9.41873
▁ku	-9.4188
▁ata	-9.41893
▁es	-9.41926
▁alakalı	-9.42129
▁gaz	-9.42165
▁16	-9.42169
▁üzerindeki	-9.42176
▁açıdan	-9.42183
▁hepimizin	-9.42194
mayan	-9.42292
▁toprak	-9.42451
miştim	-9.42545
▁parti	-9.42602
▁politik	-9.4262
▁dönü	-9.42631
▁duyu	-9.42652
▁şirketler	-9.42727
▁televizyon	-9.42753
▁cihaz	-9.42774
▁olmayacak	-9.42785
▁gerçeği	-9.42804
umuz	-9.42963
▁etrafında	-9.43036
▁akıllı	-9.43047
▁ruh	-9.43065
▁gıda	-9.4307
▁verimli	-9.43074
▁başlama	-9.43099
▁biyo	-9.43157
▁hi	-9.43206
▁hissed	-9.43219
▁pro	-9.4326
▁etrafı	-9.43337
▁icat	-9.43382
▁ri	-9.43402
makta	-9.43422
▁türlü	-9.43423
▁buldum	-9.43479
▁edilen	-9.43534
▁st	-9.43593
▁düz	-9.43604
▁taş	-9.43625
▁sıfır	-9.43696
▁karakter	-9.43715
▁yeterin	-9.43738
▁yay	-9.43849
▁otur	-9.43905
dığınız	-9.43907
▁bay	-9.43914
▁yazar	-9.43943
▁çalışır	-9.43969
▁sefer	-9.43986
▁deri	-9.44042
▁keşfed	-9.44059
▁davran	-9.44249
▁insanı	-9.44374
▁yük	-9.44416
▁sıcak	-9.44427
▁sorular	-9.44464
▁yağ	-9.44553
▁şehrin	-9.44561
▁olduğunda	-9.44613
▁qa	-9.44618
landır	-9.44631
▁anlay	-9.44637
ğü	-9.4466
▁dile	-9.44668
sü	-9.44702
▁deyil	-9.44711
▁60	-9.44726
▁sp	-9.44771
ıyorsunuz	-9.44826
▁önemlisi	-9.44852
▁düş	-9.44865
▁oy	-9.44899
▁modeli	-9.44927
lendi	-9.44961
▁web	-9.44971
unda	-9.44986
▁eşit	-9.45001
▁the	-9.45017
imizi	-9.45092
maq	-9.45115
▁işlem	-9.4517
▁sür	-9.45372
▁girdi	-9.45399
▁gemi	-9.45403
cü	-9.4541
▁verin	-9.4542
▁götür	-9.45479
▁ja	-9.45561
▁nefes	-9.45612
▁söyley	-9.45618
▁aktar	-9.45629
kal	-9.45666
▁yapmayı	-9.4584
▁ziyaret	-9.45933
▁zihin	-9.45933
▁sağladı	-9.4599
▁dahi	-9.46062
▁anlamaya	-9.4611
liğini	-9.46159
▁uzman	-9.46186
▁bölüm	-9.46236
▁go	-9.46254
▁teşvik	-9.46257
lığ	-9.4628
▁hu	-9.46299
▁duyma	-9.46482
▁çevir	-9.46542
▁dr	-9.46581
▁çocuğun	-9.46601
▁sanal	-9.46657
▁jo	-9.46703
nün	-9.46713
▁toplam	-9.46769
▁süreci	-9.46986
▁sağlamak	-9.47022
▁kadınların	-9.47069
madı	-9.472
▁bahçe	-9.47244
▁yıldız	-9.47277
▁isteme	-9.4729
▁cok	-9.47305
dığında	-9.47308
▁yabancı	-9.47311
nə	-9.47387
▁fil	-9.47551
▁olmaz	-9.47554
▁rüzgar	-9.47562
▁yaparken	-9.4763
▁örneği	-9.47645
▁yüzyıl	-9.47697
▁erken	-9.47711
▁düşündük	-9.47732
▁ortasında	-9.47759
▁ceza	-9.47891
▁düşünmeye	-9.47909
▁kısım	-9.48002
▁bildiğimiz	-9.48016
▁ülkede	-9.4808
▁uydu	-9.48226
▁dili	-9.48245
▁kurtul	-9.48285
▁geldiğini	-9.483
▁yoğun	-9.48315
▁ediyorlar	-9.48385
ger	-9.48405
▁başta	-9.4844
yum	-9.48451
▁yarısı	-9.48462
▁kimyasal	-9.48569
▁hız	-9.48603
ly	-9.48767
▁onlarla	-9.48868
▁tarım	-9.48893
▁isim	-9.49107
▁vur	-9.49114
▁devletler	-9.49167
▁değiştirmek	-9.49175
▁önümüzde	-9.49224
▁odaklan	-9.49246
▁kod	-9.49286
eri	-9.49344
▁çalışıyoruz	-9.4936
mıştım	-9.49408
▁günümüzde	-9.49412
▁seyahat	-9.49552
▁tecrübe	-9.49552
▁öldür	-9.49599
▁belə	-9.49624
▁geçme	-9.49665
▁tarihi	-9.49774
▁sırada	-9.49808
▁sergi	-9.49905
▁lider	-9.49918
▁sonuçlar	-9.4995
▁yönet	-9.50022
▁değiş	-9.50038
▁sey	-9.50044
▁kenar	-9.50064
adlı	-9.50078
▁işçi	-9.501
▁sahibiz	-9.50213
▁dal	-9.50219
▁kendime	-9.50309
▁ağır	-9.50312
▁kalbi	-9.50376
▁topluluk	-9.50451
ınız	-9.50463
▁uluslararası	-9.50562
▁davet	-9.50581
ho	-9.50599
nizde	-9.50629
▁fazlası	-9.50631
ırken	-9.5071
▁halinde	-9.50733
▁sırasında	-9.50745
luğu	-9.50754
▁buz	-9.50799
▁halk	-9.50816
bil	-9.50832
miyorum	-9.50836
▁şa	-9.50868
▁yorum	-9.50909
▁199	-9.50918
▁arazi	-9.50958
ğini	-9.50979
▁taşı	-9.5099
▁ölçü	-9.51124
▁zeka	-9.51244
ümüz	-9.51245
üz	-9.51252
▁arama	-9.51257
▁soğuk	-9.51289
▁adını	-9.51331
ss	-9.51344
▁ekran	-9.51404
▁getirdi	-9.51528
üs	-9.51536
▁seks	-9.51559
▁ikna	-9.51599
▁ettiğimiz	-9.51623
▁gay	-9.51763
▁yana	-9.51937
eği	-9.51956
▁benziyor	-9.51995
▁katkı	-9.52064
▁okuy	-9.52163
▁ışığı	-9.52193
▁muazzam	-9.52268
▁laboratuvar	-9.52278
▁birşeyler	-9.52289
▁taşın	-9.52306
▁başa	-9.52396
▁y	-9.52468
▁barış	-9.52486
▁liste	-9.52503
▁hayatını	-9.52571
▁seviye	-9.52577
▁strateji	-9.52613
▁yaygın	-9.52613
▁john	-9.52625
iyorsunuz	-9.52678
▁çekici	-9.52713
mü	-9.52841
▁okula	-9.52848
▁saldırı	-9.52884
▁akşam	-9.5296
▁problemi	-9.52965
▁herşeyi	-9.52981
▁yönlendir	-9.53003
wa	-9.53017
▁tutku	-9.53057
▁olmayı	-9.53086
▁yaparak	-9.53105
▁unut	-9.53135
yordu	-9.53142
▁kare	-9.53161
şa	-9.5331
▁sizlere	-9.53435
muyor	-9.53438
▁nöron	-9.53562
▁indi	-9.5362
▁demektir	-9.53653
▁lütfen	-9.53655
tor	-9.53734
▁belirt	-9.53748
▁hücreler	-9.5384
▁suyu	-9.53864
amıyor	-9.53893
▁şans	-9.53946
per	-9.53973
▁seni	-9.5398
▁aş	-9.5399
▁fabrika	-9.54005
▁gu	-9.54014
▁yüksel	-9.54067
▁14	-9.54088
tif	-9.54124
▁ayı	-9.54403
▁benimle	-9.54435
emez	-9.54504
▁sevgi	-9.54537
▁bisiklet	-9.54708
▁kaybol	-9.54711
▁olduğunuz	-9.54722
tt	-9.5484
▁sizinle	-9.54955
▁noktası	-9.55026
▁hissetme	-9.55063
▁araçlar	-9.5509
▁aklım	-9.551
▁yürü	-9.55132
▁çalışıyorum	-9.55205
▁ofis	-9.55277
▁edildi	-9.55381
▁görürsünüz	-9.55418
ünün	-9.55422
▁kendimiz	-9.5547
▁birinci	-9.55534
mayacak	-9.55709
▁müthiş	-9.55771
▁tehdit	-9.55771
▁mimari	-9.55778
ğım	-9.55824
▁imkansız	-9.5585
▁çalışmaya	-9.55883
▁görünen	-9.55911
▁çalıştığım	-9.55994
▁kuru	-9.55995
▁tasarruf	-9.56129
▁bağımsız	-9.56129
▁bulunma	-9.56168
▁getiriyor	-9.56188
larınız	-9.56209
▁görür	-9.56222
▁ortam	-9.56257
lığını	-9.56266
ren	-9.56269
luyor	-9.56322
▁kullanıyor	-9.56341
▁olmamız	-9.56344
ılıyor	-9.56459
▁boyutlu	-9.56533
▁sistemin	-9.5679
ebileceğimiz	-9.56839
▁pahalı	-9.56847
▁kağıt	-9.56847
▁işbirliği	-9.56847
imizin	-9.56878
▁olduğumu	-9.5693
▁görə	-9.57039
▁edir	-9.57055
▁kural	-9.57135
amaz	-9.57137
▁adamı	-9.57156
▁şimdiye	-9.57162
▁fiyat	-9.57187
▁duydu	-9.57187
▁makale	-9.57208
▁spor	-9.57229
nca	-9.5723
▁malzeme	-9.57255
▁devre	-9.57325
lamaya	-9.57399
▁eğlenceli	-9.57402
▁biyolojik	-9.57404
▁katıl	-9.57406
▁tehlikeli	-9.57437
acaktır	-9.57467
▁bulunduğu	-9.57565
▁ağaç	-9.57566
▁bomba	-9.57572
▁analiz	-9.57576
▁dokun	-9.57647
▁kay	-9.5768
▁girme	-9.57752
abileceği	-9.57762
ör	-9.57767
▁yeme	-9.57792
▁üretim	-9.57951
▁hızla	-9.57964
▁biyoloji	-9.581
miştir	-9.58101
medi	-9.58232
▁beyni	-9.58275
▁tuhaf	-9.58299
▁qu	-9.58331
▁kurma	-9.58367
▁adına	-9.58477
▁ölü	-9.58519
▁eriş	-9.58572
▁yazma	-9.58624
▁çöp	-9.58665
▁saygı	-9.58667
seydi	-9.58705
layıcı	-9.58792
▁13	-9.58829
▁amma	-9.5887
▁yaratma	-9.5895
▁matematik	-9.58961
umu	-9.59021
▁düşür	-9.59048
▁verileri	-9.59165
▁saç	-9.59206
▁uyum	-9.59353
▁diş	-9.5939
gun	-9.59527
▁olduk	-9.59546
▁kaza	-9.59577
▁kum	-9.59599
▁kapat	-9.59756
ırlar	-9.59765
▁sorunları	-9.59979
▁söyler	-9.59982
▁ülkelerde	-9.59993
▁patlama	-9.60009
ayım	-9.6005
üyor	-9.60092
▁umarım	-9.60144
memiz	-9.60158
▁kaldı	-9.60217
▁benze	-9.60242
▁dönüştür	-9.60264
rak	-9.60267
muştu	-9.60338
▁anlatmak	-9.60344
▁bol	-9.60366
▁motor	-9.60369
ry	-9.60388
▁miktarda	-9.60437
▁kart	-9.60458
▁azalt	-9.60543
diğinde	-9.60567
▁edici	-9.60577
▁gücünü	-9.60655
▁sıradan	-9.60774
işi	-9.60882
▁reklam	-9.60895
▁çapında	-9.60917
▁gelecekte	-9.60922
lərin	-9.60975
▁gördü	-9.61049
leştirme	-9.61066
▁sap	-9.61082
mək	-9.61108
birine	-9.61191
▁beden	-9.61237
▁sürdürülebilir	-9.61267
▁mahalle	-9.61268
ev	-9.61311
▁ingilizce	-9.61333
▁düşünmek	-9.61347
▁kuvvet	-9.61395
landırma	-9.61487
▁öncelikle	-9.61507
▁ürünü	-9.61588
diniz	-9.61592
▁ilgilen	-9.61685
▁kamu	-9.61693
▁devrim	-9.61709
▁başarısız	-9.61914
▁birincisi	-9.61951
▁şüphe	-9.6199
▁chris	-9.62024
▁makina	-9.62025
▁bakteri	-9.62035
▁uçuş	-9.62051
▁yaklaşım	-9.62142
▁sağlığı	-9.62225
larca	-9.62249
▁geçerli	-9.62271
▁yaşadı	-9.62312
▁sıkı	-9.62325
leşmiş	-9.6234
▁veriler	-9.62366
▁yaşındaki	-9.6237
ize	-9.62384
▁maymun	-9.62404
▁his	-9.62458
▁tehlike	-9.62544
sidir	-9.6257
▁öğrendim	-9.62697
ırdı	-9.62783
▁plastik	-9.62785
▁kopya	-9.62788
tür	-9.62795
..	-9.62805
▁oyuncu	-9.6285
▁boya	-9.62856
▁kanun	-9.62877
▁gerekiyordu	-9.6311
▁gösterme	-9.63152
▁imkan	-9.632
ince	-9.63246
▁arkadaşlarım	-9.63316
▁sessiz	-9.63372
▁yapay	-9.63449
▁eyalet	-9.63553
▁gazete	-9.63772
▁yapmış	-9.63813
▁olduğumuzu	-9.63859
▁rahatsız	-9.63876
▁obje	-9.63939
▁kanseri	-9.64021
▁kör	-9.64139
▁q	-9.64148
▁doğum	-9.6416
tri	-9.642
▁alanda	-9.64276
▁net	-9.64302
▁konuşuyor	-9.64317
▁standart	-9.64327
▁suyun	-9.64339
van	-9.64415
▁olmaları	-9.64433
▁za	-9.64474
▁şirketi	-9.64503
▁ettiler	-9.64614
▁düşünür	-9.6465
▁gözleri	-9.64699
▁ingiltere	-9.64716
▁sağlay	-9.64763
▁değişikliği	-9.64772
▁kullanıcı	-9.64773
▁öğrenmek	-9.64797
▁ederek	-9.648
▁evrenin	-9.64828
▁çoğunlukla	-9.64904
▁bes	-9.64921
▁radyo	-9.64938
▁kaçır	-9.6499
▁geçiş	-9.64999
▁anahtar	-9.65106
▁iddia	-9.65106
▁grafik	-9.65107
▁bulunuyor	-9.65132
▁parçaları	-9.65143
madan	-9.65165
▁çalıştık	-9.65231
malı	-9.65254
▁yak	-9.65306
mıştır	-9.65325
ladık	-9.65344
nizin	-9.6541
▁geleceği	-9.65414
▁tablo	-9.65499
▁kamp	-9.65501
▁yetiştir	-9.65565
▁şansı	-9.65608
▁saf	-9.65641
lerimizin	-9.65727
▁not	-9.65762
▁gö	-9.65782
▁boyu	-9.6581
▁hə	-9.65831
▁ilə	-9.65849
▁müşteri	-9.65892
▁çatışma	-9.65896
▁bitir	-9.65965
▁isteyen	-9.65987
▁kısmını	-9.66027
▁yık	-9.66057
▁fizik	-9.66218
▁keşif	-9.66288
▁zayıf	-9.66288
▁sarı	-9.66335
▁etmiş	-9.66335
▁istediğiniz	-9.66425
▁sağlayacak	-9.66474
▁alet	-9.66507
▁sürdür	-9.66586
▁yemeği	-9.66595
▁göreceksiniz	-9.66701
▁ödül	-9.66748
▁eminim	-9.66817
▁hesaplama	-9.6706
▁seçenek	-9.67083
▁protein	-9.67086
▁mimar	-9.67099
▁bakar	-9.6712
lerim	-9.67206
▁olmadı	-9.67211
▁almaya	-9.673
▁çıkart	-9.67309
▁qədər	-9.67483
▁kü	-9.67511
cak	-9.6752
▁sorumlu	-9.67521
lma	-9.67563
▁ismi	-9.67731
▁dönüşüm	-9.67739
▁bildiğiniz	-9.67757
▁hayatımı	-9.67759
▁yazılım	-9.67795
▁hü	-9.67875
▁ameliyat	-9.67884
▁hafif	-9.67885
▁nesne	-9.67892
▁yakıt	-9.67911
▁geliştirme	-9.67922
▁km	-9.68072
▁arası	-9.68094
▁çekti	-9.68096
tra	-9.681
▁sordu	-9.68155
▁diğeri	-9.68216
nızın	-9.6822
▁ünlü	-9.68295
▁uzan	-9.68306
lanır	-9.68342
▁yenilik	-9.68394
▁ikincisi	-9.68426
▁sinyal	-9.68476
▁rakam	-9.68543
▁mesafe	-9.68693
▁kilometre	-9.68695
▁mısır	-9.68696
▁düşündü	-9.68719
▁duygusal	-9.68728
▁evde	-9.68749
▁verilen	-9.68831
▁yaşay	-9.68928
▁sır	-9.68987
▁kitle	-9.68995
▁sonuçta	-9.69018
▁nefret	-9.69099
▁buçuk	-9.69106
▁ödeme	-9.69112
▁ettiğim	-9.69126
▁bulut	-9.69167
▁giriş	-9.69207
▁önem	-9.69217
▁dik	-9.69235
meyecek	-9.69258
▁savaşı	-9.69312
▁benzeri	-9.69319
▁işleri	-9.69337
▁değiştirme	-9.69372
▁uyar	-9.69381
▁kullanımı	-9.69433
tal	-9.69536
▁bakma	-9.69573
▁geçiyor	-9.69585
▁birine	-9.69695
diğiniz	-9.69711
▁gelişmiş	-9.69845
▁hissi	-9.69884
▁niye	-9.69942
indeki	-9.70113
leyici	-9.70147
ebilmek	-9.70188
▁buldu	-9.70222
ebilirim	-9.70299
▁çalıştım	-9.70302
▁görmeye	-9.70328
ster	-9.70348
▁yo	-9.70365
▁şiir	-9.70371
▁toplumun	-9.70389
▁bakıyor	-9.70438
▁farklılık	-9.7049
lardaki	-9.70512
▁bende	-9.70561
▁sabit	-9.70742
▁yeteneği	-9.70788
▁ab	-9.70826
▁dokuz	-9.71025
▁yerleştir	-9.71026
▁yarım	-9.71042
▁galaksi	-9.71157
▁amerikalı	-9.71161
▁gelişmekte	-9.71174
▁etiket	-9.71182
▁hiv	-9.71208
▁toplantı	-9.71234
tığını	-9.71247
▁birleştir	-9.71282
▁dediler	-9.71303
▁filmi	-9.7131
▁alanlar	-9.71405
▁deli	-9.71492
▁çoğunu	-9.71541
▁kahraman	-9.71573
▁yaxşı	-9.71573
lanması	-9.71702
ral	-9.71752
▁ayrıl	-9.71764
▁kullanılan	-9.71795
▁yönetim	-9.71943
▁sonuçları	-9.7199
▁şeklinde	-9.72021
iyordu	-9.72034
▁giderek	-9.72054
▁uygulan	-9.72079
▁üstüne	-9.72096
▁ən	-9.72175
lerimi	-9.72226
ram	-9.72248
▁buydu	-9.72473
ib	-9.72494
▁pr	-9.72527
ırsınız	-9.72562
tar	-9.72583
▁oku	-9.72588
▁önemlidir	-9.72719
▁hikayeler	-9.72763
▁değerli	-9.72798
▁servis	-9.72838
▁karınca	-9.72853
▁sevdiğim	-9.72868
▁dediği	-9.7291
▁dost	-9.7297
▁sordum	-9.7303
▁balığı	-9.73076
▁bakmak	-9.73089
▁çarp	-9.7311
▁denedi	-9.73111
▁elimizde	-9.73197
süz	-9.7325
▁yargı	-9.73258
▁siyasi	-9.73259
▁alanında	-9.73286
lat	-9.7332
▁verdiği	-9.73403
▁kullanır	-9.7341
▁araştır	-9.73528
▁hay	-9.73539
▁hey	-9.73565
▁değiller	-9.73769
▁24	-9.73774
▁ham	-9.73816
▁şe	-9.73834
▁yapabilirsiniz	-9.73835
▁öğrenciler	-9.73892
ji	-9.73914
cek	-9.7395
▁detay	-9.73953
▁ger	-9.73962
imin	-9.74024
▁olabileceği	-9.74032
▁besin	-9.74093
▁öğrendik	-9.74118
saydı	-9.74296
ilmesi	-9.74341
▁nüfus	-9.74419
lerinizi	-9.7446
dy	-9.74515
abilirim	-9.74516
▁yetişkin	-9.74583
▁değiştirdi	-9.74616
stik	-9.74617
▁zorundayız	-9.7463
▁boz	-9.74706
▁bıraktı	-9.74728
▁bal	-9.74821
▁sığ	-9.74836
▁sesleri	-9.74841
▁dedik	-9.74871
▁miktar	-9.74885
ic	-9.74908
▁or	-9.74924
▁molekül	-9.74934
▁yolculuk	-9.74978
sən	-9.75033
▁önün	-9.75036
▁terk	-9.7514
acaksınız	-9.75178
ımızı	-9.752
▁başı	-9.75217
▁asya	-9.75346
▁sokak	-9.75359
▁adalet	-9.75419
▁arzu	-9.75431
▁bağlan	-9.75432
layacak	-9.75465
ydim	-9.75468
ğin	-9.75487
▁köşe	-9.75538
▁endüstri	-9.7554
▁tutar	-9.7557
▁yılın	-9.75607
▁şehirler	-9.75671
▁boyut	-9.75708
▁değiliz	-9.75712
▁kemik	-9.75842
▁wi	-9.75859
larınızı	-9.75935
▁inanç	-9.76004
▁gülüş	-9.76038
▁adamın	-9.7607
abileceğimiz	-9.761
▁yolunu	-9.76131
for	-9.76137
▁sorunlar	-9.76159
▁olanı	-9.76162
▁kesi	-9.76195
sti	-9.76264
▁aktivite	-9.76275
▁bağış	-9.76302
▁hatırlıyorum	-9.76302
,	-9.76354
▁böyük	-9.76363
▁dışarıda	-9.76528
▁yapıldı	-9.76533
▁delik	-9.76535
▁oyunu	-9.76646
▁kral	-9.76692
▁zihni	-9.76706
▁afganistan	-9.76714
▁ayakkabı	-9.76714
▁mekanizma	-9.76715
▁hakları	-9.7677
▁neyin	-9.76771
▁yaşamak	-9.76771
▁koku	-9.76797
ınca	-9.76801
▁mantıklı	-9.76818
▁isə	-9.7691
▁koru	-9.76974
dıklarını	-9.77015
▁fikirleri	-9.77083
arı	-9.7712
▁paylaşmak	-9.77122
▁bekliyor	-9.77129
▁nükleer	-9.77154
▁parlak	-9.77156
izm	-9.77207
ində	-9.77236
▁yapacağı	-9.77261
▁diy	-9.77321
tme	-9.77334
▁fotoğrafı	-9.77471
▁yapıyorum	-9.77487
▁dikkatli	-9.77494
▁altyapı	-9.77597
▁şifre	-9.77597
▁hukuk	-9.77598
▁sağlar	-9.77602
▁görünür	-9.77617
▁kalk	-9.77617
larındaki	-9.77622
▁robotlar	-9.77638
▁istediği	-9.77656
▁girişimci	-9.77667
▁bax	-9.77686
▁boy	-9.77751
lılar	-9.77821
gü	-9.77822
▁oluşturuyor	-9.77831
ğim	-9.77879
▁geldik	-9.77927
▁yayıl	-9.77975
▁epey	-9.78041
▁itibar	-9.78041
▁komik	-9.78076
▁sağlama	-9.7814
▁birer	-9.78181
▁kaynakları	-9.78361
▁ayar	-9.78418
▁türü	-9.78465
▁izley	-9.7847
▁görevi	-9.78472
▁nevi	-9.78492
▁yaptığınız	-9.78674
▁yollar	-9.78767
ilebilir	-9.78809
▁hareketi	-9.78869
▁gerçeklik	-9.78898
▁kıl	-9.78944
▁açtı	-9.79001
kça	-9.79033
▁gra	-9.79041
land	-9.79082
▁diyorum	-9.79154
▁günün	-9.79158
▁kendinizi	-9.79168
▁işletme	-9.79182
lıyız	-9.792
▁etmeyi	-9.79272
▁ez	-9.79296
▁nereden	-9.79316
▁mor	-9.79327
▁yerler	-9.79335
▁hali	-9.79363
▁yola	-9.79428
▁ölme	-9.79527
manız	-9.79542
▁oluş	-9.79591
▁çeki	-9.79601
▁80	-9.79609
mis	-9.79648
leniyor	-9.79744
▁buradan	-9.79753
▁eşi	-9.79788
eyim	-9.79839
▁cinsel	-9.79853
▁bilinen	-9.79926
▁oluşturmak	-9.79981
leşti	-9.80057
▁edip	-9.80059
ıyla	-9.80079
▁500	-9.8013
▁yanıt	-9.8014
▁etkilen	-9.80162
▁bilmek	-9.80172
▁çılgın	-9.80202
▁karşılaştır	-9.80211
▁tap	-9.80255
▁çiçek	-9.80294
▁olasılık	-9.80322
▁yaptığını	-9.80341
▁olabileceğini	-9.80348
▁yaşadığı	-9.80521
▁şeyden	-9.8056
ırız	-9.80586
▁birbirleri	-9.80612
5'	-9.80639
▁yılı	-9.80649
▁daire	-9.80745
▁dizayn	-9.80751
▁gurur	-9.80751
▁kıyı	-9.80767
mıyorum	-9.80781
▁mutluluk	-9.80809
▁destekle	-9.80823
▁dava	-9.80844
▁tıbbi	-9.80885
▁karış	-9.80886
▁pan	-9.80928
▁olmuştu	-9.81061
▁ölçek	-9.81084
▁içer	-9.81184
lerdeki	-9.81198
▁cinsiyet	-9.81214
▁şeker	-9.81215
▁kulak	-9.81217
▁maliyet	-9.81324
▁araçları	-9.81334
▁tık	-9.81339
▁kullandık	-9.81373
▁başkan	-9.81404
▁bü	-9.81443
▁kaba	-9.81471
▁arkadaşları	-9.8148
tro	-9.81586
▁hissettiği	-9.81669
▁öykü	-9.81694
▁üniversitesi	-9.81758
▁uğraş	-9.81829
▁geçer	-9.81838
▁toplu	-9.81848
▁buluş	-9.81914
▁seçme	-9.81967
▁potansiyel	-9.81993
▁yaşa	-9.81998
uldu	-9.82015
▁olabilecek	-9.82031
▁ettir	-9.82107
▁varlık	-9.82135
▁vatandaş	-9.82137
▁kapalı	-9.82139
▁atom	-9.8215
▁insanlardan	-9.82172
▁şeydir	-9.82189
▁başla	-9.82327
▁özgür	-9.82341
▁depo	-9.82402
▁verecek	-9.82487
▁bölümü	-9.8251
▁koyu	-9.82556
ebilen	-9.82572
▁sü	-9.82575
▁dürüst	-9.82598
▁düşündüğümüz	-9.82609
▁karıştır	-9.82641
▁anlattı	-9.82707
▁sistemleri	-9.82793
▁1.	-9.82817
▁bilgisayarlar	-9.82859
▁öner	-9.82888
if	-9.82915
▁geldiğinde	-9.82933
gan	-9.82998
▁haklı	-9.83059
▁sivil	-9.83065
▁şefkat	-9.83067
larımı	-9.8309
▁öldü	-9.8317
lari	-9.83179
▁heç	-9.83201
▁getirme	-9.83305
▁car	-9.83353
▁söylediğim	-9.8352
▁halka	-9.83524
▁istiyorlar	-9.83528
ron	-9.83544
▁anlaşma	-9.83623
▁dek	-9.83635
ff	-9.8366
▁çalışmaları	-9.83687
▁karşılaş	-9.83737
inizi	-9.83774
▁olanak	-9.83776
▁ingiliz	-9.83923
▁cümle	-9.84006
▁tırman	-9.84008
▁aktif	-9.84035
liydi	-9.84057
▁organizasyon	-9.84074
▁ser	-9.84086
▁atı	-9.84117
▁edebilirsiniz	-9.8413
▁alış	-9.84153
▁toplama	-9.84258
▁kriz	-9.84381
ladım	-9.84387
▁açısı	-9.84434
▁ulus	-9.84453
▁ters	-9.84497
par	-9.84559
▁düşündüğüm	-9.84649
▁ailem	-9.84651
▁tu	-9.84703
▁kalıyor	-9.84752
▁ip	-9.84757
▁ediyordu	-9.84773
▁mer	-9.84842
▁kavram	-9.84849
▁mit	-9.84875
▁doğrudan	-9.84884
▁gittiği	-9.84978
muzu	-9.85008
▁dinle	-9.85076
▁eğitimi	-9.85145
diklerini	-9.85163
▁durma	-9.85227
▁edilme	-9.85299
▁fazlasını	-9.85364
▁yolla	-9.85383
mer	-9.854
▁çekme	-9.85405
▁gəl	-9.85442
▁dediğimiz	-9.85456
▁yönel	-9.85515
▁evrensel	-9.85527
▁toplan	-9.85563
▁değişimi	-9.85568
▁per	-9.85601
▁yen	-9.85617
▁gittik	-9.85628
ilir	-9.85708
unuz	-9.85731
▁yaka	-9.85762
▁artış	-9.85784
▁eli	-9.85788
▁dağıt	-9.85819
▁bahsetmek	-9.85876
ulmuş	-9.85882
▁insanlık	-9.85898
▁uzakta	-9.85941
yseniz	-9.85954
▁balon	-9.85957
▁ağı	-9.85961
▁olacağı	-9.86003
▁kimin	-9.86042
▁gördüğü	-9.86056
▁dö	-9.86147
▁şehri	-9.86154
meli	-9.86156
▁biçim	-9.86234
▁afrikalı	-9.86246
▁girişim	-9.86274
▁birbirin	-9.86306
▁kablo	-9.86388
▁londra	-9.86399
▁balina	-9.86403
▁gittikç	-9.86454
▁arkasında	-9.86618
ladığı	-9.86624
▁alacak	-9.86653
▁yüzyılda	-9.86657
▁arkadaşı	-9.86672
maları	-9.86744
▁duyar	-9.86939
▁bunlara	-9.8697
▁ulaşma	-9.86998
▁engelli	-9.87079
▁gez	-9.87121
larsa	-9.87135
▁kor	-9.87157
▁kullandığı	-9.87176
əcək	-9.87187
▁izle	-9.87254
▁yolda	-9.87285
▁olabilirsiniz	-9.87304
▁sorunun	-9.87308
▁başladılar	-9.87331
▁korumak	-9.8734
▁berbat	-9.87372
▁sandalye	-9.87372
▁serbest	-9.87372
▁rapor	-9.87372
▁kıta	-9.87379
▁marka	-9.87385
▁salgın	-9.87414
▁deniyor	-9.87443
▁inceleme	-9.87454
▁ötesinde	-9.87456
ğimiz	-9.87544
lüğü	-9.87552
syon	-9.87599
amazsınız	-9.87663
▁bey	-9.87688
abilen	-9.87803
▁tespit	-9.87862
▁taklit	-9.87864
iği	-9.8787
▁içi	-9.87947
▁artır	-9.88023
▁aksine	-9.88081
▁kullandığımız	-9.88131
▁karşısında	-9.88142
▁af	-9.88143
lıq	-9.88193
▁ju	-9.88226
▁sıtma	-9.88357
▁ekibi	-9.8836
▁ölçüde	-9.88391
lenen	-9.88419
▁performans	-9.88473
▁teknolojiyi	-9.88498
▁doldur	-9.88573
liyim	-9.88578
▁suçlu	-9.88648
▁yaptılar	-9.88664
▁david	-9.88851
▁mercan	-9.88861
▁sembol	-9.88892
▁gerekirse	-9.88986
▁uğra	-9.88999
▁kurallar	-9.89007
▁adamları	-9.89039
▁istey	-9.89044
▁aşk	-9.89066
sizlik	-9.89082
▁domuz	-9.89141
▁harf	-9.89158
▁necə	-9.89186
▁üstün	-9.89205
▁benden	-9.89257
▁kedi	-9.8926
▁dediğim	-9.89262
▁kısaca	-9.89294
▁pencere	-9.89347
▁hayata	-9.8935
▁değişme	-9.89359
▁vaka	-9.89389
▁300	-9.89399
▁saha	-9.8943
▁şanslı	-9.89547
▁döv	-9.89555
▁grubu	-9.8961
▁yapacağım	-9.89682
▁adet	-9.89797
▁yansıt	-9.89831
▁tuvalet	-9.89855
fer	-9.8986
▁tarafında	-9.89902
▁ediliyor	-9.89937
▁ihtiyacınız	-9.90022
▁değeri	-9.90062
▁bağımlı	-9.9011
▁sert	-9.90153
▁kendileri	-9.90157
▁projesi	-9.90164
▁ürünleri	-9.90186
▁alanları	-9.90196
▁çıkarmak	-9.90313
▁kredi	-9.9035
▁mağara	-9.9035
▁anladı	-9.90355
▁sizler	-9.9037
▁çalıştığımız	-9.90404
▁kayıp	-9.90446
▁gruplar	-9.90462
▁atık	-9.90523
▁çalıştır	-9.90551
▁gelişim	-9.90728
▁mantar	-9.90867
▁diyelim	-9.90888
▁koyar	-9.9092
▁bilinç	-9.9093
▁ze	-9.90981
▁insana	-9.90996
▁kullanıyoruz	-9.91008
▁deneyimi	-9.91014
▁mənim	-9.91067
▁başlangıç	-9.9109
▁konum	-9.91102
▁dol	-9.91134
ecektir	-9.91164
▁bağlam	-9.9119
▁sürece	-9.91256
▁düzey	-9.9127
▁dişi	-9.9129
▁uça	-9.91326
▁gü	-9.91424
▁üste	-9.91549
▁şekillendir	-9.91558
▁isterim	-9.91586
▁çağ	-9.91718
▁olmaktan	-9.91779
▁yalan	-9.91787
▁yaratıyor	-9.91788
lıkla	-9.91831
▁etkin	-9.91832
▁ticari	-9.91873
▁tel	-9.91903
▁ülkelerin	-9.92027
▁yapılması	-9.92037
▁vücudu	-9.92088
▁farkı	-9.92153
▁gelmiş	-9.92208
▁baz	-9.92224
▁işim	-9.92391
▁yönetici	-9.9241
▁yapabileceği	-9.92514
▁bulur	-9.92538
res	-9.92548
▁vermeye	-9.92549
▁saye	-9.92592
▁sok	-9.92628
lenmesi	-9.92647
▁kimya	-9.927
▁internette	-9.92778
▁olabil	-9.92824
▁nadir	-9.92847
acağınız	-9.92853
▁kampanya	-9.92901
▁çök	-9.92902
▁elektronik	-9.92928
▁istedi	-9.93088
▁eğilim	-9.93154
▁diyoruz	-9.93154
▁kok	-9.93166
kür	-9.93241
▁kuralları	-9.93278
▁parçalar	-9.93413
▁istedik	-9.93414
▁kaybetti	-9.93418
▁oksijen	-9.93419
▁rekabet	-9.93419
▁sermaye	-9.93419
▁karışık	-9.93421
▁şaşır	-9.93427
▁okulda	-9.93457
▁düşman	-9.93473
▁bahsed	-9.93611
▁yaşıyoruz	-9.93613
▁katman	-9.93664
▁mə	-9.93682
▁değişiklik	-9.93735
var	-9.9377
▁soy	-9.93803
▁oradaki	-9.93846
▁yavru	-9.93943
▁beklenti	-9.93943
▁tüketici	-9.93954
▁yaşamın	-9.93982
▁düzenleme	-9.93995
▁arttır	-9.94002
layabilir	-9.94018
▁harcama	-9.94018
ket	-9.94149
▁tanıma	-9.94197
amayacak	-9.94219
▁hikayesi	-9.94399
▁israil	-9.94464
▁nihayet	-9.94464
hu	-9.94502
▁firma	-9.94505
▁boşluk	-9.94512
ladığımız	-9.94543
▁isterseniz	-9.94586
▁görüyorum	-9.94605
▁kullanım	-9.94608
▁karşılık	-9.94625
▁anlamıyla	-9.94634
malısınız	-9.94687
▁çizim	-9.94782
örü	-9.94805
▁çalıştığı	-9.94828
▁bireyler	-9.94946
▁yumurta	-9.9499
▁acil	-9.95031
▁yerden	-9.95043
▁irak	-9.9505
▁sorma	-9.95067
▁gördüğüm	-9.95115
▁edebiliriz	-9.95125
▁yaşamı	-9.95191
▁kişiye	-9.95245
▁paylaşma	-9.95296
▁musun	-9.95331
▁şeydi	-9.95415
▁istatistik	-9.95519
▁cesaret	-9.95579
abilirler	-9.95658
▁toplumsal	-9.9566
düğünü	-9.95668
▁çağı	-9.95808
▁hissediyor	-9.95831
▁istemiyor	-9.95932
▁kıs	-9.95958
▁askeri	-9.95976
cılar	-9.95995
mıyoruz	-9.96017
▁ücret	-9.96018
▁gürültü	-9.96051
▁müslüman	-9.96051
▁sıvı	-9.96051
layarak	-9.96148
▁koca	-9.96295
0.000	-9.96318
mayın	-9.96327
ümüzü	-9.96336
▁duru	-9.96386
▁dolarlık	-9.96441
▁çoğunuz	-9.96473
▁kelimeler	-9.9648
▁elinde	-9.96494
▁diğerleri	-9.96508
▁kendisini	-9.96522
▁kahve	-9.96586
▁bulmaya	-9.96591
ner	-9.96642
▁böylelikle	-9.96661
eceğiniz	-9.96689
▁çocuklara	-9.96734
cik	-9.9678
▁çalışmalar	-9.96801
▁denen	-9.96806
▁gor	-9.96931
▁duyuyor	-9.96934
▁görüşü	-9.97081
▁tanıştı	-9.97155
▁istə	-9.97167
▁degil	-9.97167
▁kullanan	-9.97179
▁bilgileri	-9.97182
▁düşünüyoruz	-9.97283
▁no	-9.97307
▁tren	-9.97342
yorlar	-9.97351
▁ulaşmak	-9.97363
ydü	-9.97407
lerse	-9.97463
▁büyüt	-9.97478
▁ihtimalle	-9.97483
▁özelliği	-9.97525
rseniz	-9.97563
▁finans	-9.97634
▁tavsiye	-9.97664
▁zevk	-9.97665
▁bizimle	-9.97679
abildiği	-9.97719
▁tr	-9.97784
▁basitçe	-9.97789
▁olamaz	-9.97812
▁2000	-9.97833
▁bah	-9.97843
▁görüşme	-9.97891
▁seri	-9.98026
▁yarar	-9.98077
▁başlangıcı	-9.98207
▁gönüllü	-9.98209
▁kurmak	-9.98222
▁izleyici	-9.9824
lərdə	-9.98247
so	-9.9828
likten	-9.98375
▁oh	-9.98401
▁kazandı	-9.98412
▁yakında	-9.98423
▁yaşı	-9.98444
▁banka	-9.9851
▁kültüre	-9.9854
▁hükümeti	-9.98581
▁bekleme	-9.9864
▁olmaması	-9.9874
▁oluşturma	-9.98746
▁hafıza	-9.98754
▁bebeği	-9.98755
har	-9.988
▁şi	-9.988
▁atmosfer	-9.98805
▁tartış	-9.98878
▁buzul	-9.98892
rik	-9.9892
▁ihtiyaçları	-9.98983
bar	-9.99027
▁gösterir	-9.99125
▁haberler	-9.99231
▁ihtiyacım	-9.99251
▁hassas	-9.99293
▁facebook	-9.99303
▁talep	-9.99305
▁yönde	-9.99313
▁gerçekleş	-9.9933
▁finansal	-9.99334
▁misin	-9.99367
hane	-9.99416
▁iran	-9.99419
emedi	-9.99456
▁edersiniz	-9.99464
2'	-9.99616
▁etmək	-9.99772
▁sevme	-9.99825
miyoruz	-9.99853
▁olaraq	-9.99859
▁kıyasla	-9.999
▁merkezinde	-9.99954
▁yerlere	-9.99966
▁küçü	-9.99989
gel	-10.0007
likle	-10.0015
▁uyu	-10.0018
▁üretme	-10.0025
▁olursak	-10.0027
▁mantık	-10.003
▁sö	-10.0031
stan	-10.0034
▁olacaktı	-10.0034
dınız	-10.004
▁bütçe	-10.0041
acağımız	-10.0043
▁başlayan	-10.0049
▁fikrini	-10.0057
▁bitkiler	-10.0057
▁çağır	-10.0057
▁gelin	-10.0061
▁diz	-10.0063
▁gazeteci	-10.0065
▁zamanla	-10.0067
▁basın	-10.0074
▁tarzı	-10.0075
▁tanımlama	-10.0077
▁kadının	-10.0085
▁bildiği	-10.0087
lüyor	-10.0088
▁başlat	-10.0091
▁brezilya	-10.0097
▁müdahale	-10.0097
▁gözüküyor	-10.0097
▁kütle	-10.0098
▁devasa	-10.0098
▁bugünkü	-10.0104
▁anlatıyor	-10.0104
▁krizi	-10.0109
▁veril	-10.0109
▁toplay	-10.0112
ciler	-10.0114
▁miydi	-10.0119
▁takımı	-10.012
▁fon	-10.0124
▁yaptır	-10.013
▁wa	-10.0137
ğın	-10.0139
▁üzeri	-10.0145
▁geçmişte	-10.0148
▁saçma	-10.015
▁yeti	-10.0152
▁alternatif	-10.0153
▁rastgele	-10.0153
▁heykel	-10.0153
qu	-10.0154
▁mekan	-10.0155
▁çalıştığını	-10.0156
▁anladım	-10.0163
▁meme	-10.0163
▁yatak	-10.0166
ımda	-10.0173
▁oğlum	-10.0175
▁geçtiğimiz	-10.0177
▁yöntemi	-10.0178
ğında	-10.0181
les	-10.0187
▁durdur	-10.0198
üne	-10.02
▁gibiydi	-10.0205
▁yerini	-10.0209
▁kıyafet	-10.021
▁əvvəl	-10.021
▁yürüy	-10.0214
▁istiyorsanız	-10.0217
▁genom	-10.0218
▁çoğunluğu	-10.0219
▁döner	-10.0225
▁elleri	-10.0226
▁kızlar	-10.0233
▁ilki	-10.0238
▁azal	-10.0242
▁kurul	-10.025
▁karşıya	-10.0252
▁lise	-10.0259
▁koyma	-10.0261
emeyiz	-10.0266
▁klinik	-10.0266
▁materyal	-10.0266
▁profesyonel	-10.0266
▁kesim	-10.0267
▁özgürlük	-10.0268
▁dayalı	-10.027
▁uyku	-10.0272
▁hastalıklar	-10.0273
net	-10.0274
▁sözü	-10.028
ecekler	-10.0283
fet	-10.0312
▁bahsettiğim	-10.0312
rek	-10.032
▁yetenek	-10.032
▁bakteriler	-10.0322
▁bilin	-10.0323
ysanız	-10.0324
▁düzgün	-10.0324
▁ancaq	-10.0324
▁fonksiyon	-10.0324
form	-10.033
▁ilacı	-10.033
▁eğit	-10.0332
▁kom	-10.0345
▁hatırla	-10.0345
▁dönme	-10.0351
▁yazık	-10.0357
▁salon	-10.0357
▁hayatım	-10.0358
▁oyna	-10.0358
▁yaşadığımız	-10.0359
▁ebeveyn	-10.0362
diğinizde	-10.037
▁aldığı	-10.0371
irken	-10.0374
landığı	-10.0376
▁hızlıca	-10.0377
▁bilimi	-10.0381
▁ekosistem	-10.0381
▁profesör	-10.0381
▁beğen	-10.0381
▁fosil	-10.0382
▁bileşen	-10.0382
▁tasarımcı	-10.0387
eceksiniz	-10.0388
▁kaybed	-10.0391
▁kendiniz	-10.0395
▁kore	-10.0395
▁köle	-10.0396
▁evin	-10.0398
▁komşu	-10.0405
▁sim	-10.0407
▁edilebilir	-10.0422
▁dünyasında	-10.0423
▁yöne	-10.0427
▁takdir	-10.0434
▁çıkış	-10.0438
▁radikal	-10.0439
▁ibaret	-10.0439
▁tutma	-10.0439
▁manzara	-10.0439
▁başqa	-10.0439
▁fayda	-10.0441
▁başkanı	-10.0441
lıyoruz	-10.0444
▁yetiş	-10.0445
▁vergi	-10.0452
let	-10.0454
▁bulundu	-10.0466
▁ticaret	-10.0466
baba	-10.0467
▁edebiliyor	-10.0472
▁ettiğini	-10.0474
▁sahiptir	-10.048
▁izleme	-10.0483
▁olmanız	-10.0489
▁trilyon	-10.0497
▁öğle	-10.0497
▁imza	-10.0497
▁popüler	-10.0497
▁blog	-10.0497
ımızın	-10.0498
▁olaylar	-10.0499
likte	-10.05
▁mezun	-10.0502
▁tatlı	-10.0507
larımızda	-10.0508
▁2.	-10.0509
▁dün	-10.0511
▁tamamı	-10.0515
▁yet	-10.0516
▁tüket	-10.0519
▁tesis	-10.052
ja	-10.0524
ow	-10.0527
▁eksik	-10.053
▁yoluyla	-10.0533
▁yapabil	-10.0536
ker	-10.0536
▁olduğunuzu	-10.0537
▁sağlam	-10.0545
▁türden	-10.0547
▁okulu	-10.055
çu	-10.0551
▁kitabın	-10.0555
▁psikoloji	-10.0556
▁öfke	-10.0556
▁acaba	-10.0556
▁başlattı	-10.0556
lerindeki	-10.0556
▁yapabiliyor	-10.0561
▁yapılma	-10.0572
melisiniz	-10.0577
ayet	-10.0592
▁oluşturan	-10.0595
düğü	-10.0604
abileceğini	-10.0605
▁uygula	-10.061
▁almış	-10.0611
▁belge	-10.0613
▁vahşi	-10.0614
▁zemin	-10.062
▁değişti	-10.0632
▁durumun	-10.0641
▁sistemler	-10.0645
▁farkın	-10.0646
▁hastalar	-10.0649
▁dergi	-10.0652
▁durumunda	-10.0655
▁çalışması	-10.0665
▁hissettir	-10.0666
▁etmemiz	-10.0673
▁merhamet	-10.0674
▁teşhis	-10.0674
▁paket	-10.0675
▁islam	-10.0675
▁milyarlarca	-10.0678
▁kenya	-10.0678
▁gelebilir	-10.0685
▁dönüştü	-10.0688
▁heyecanlı	-10.0689
▁koyuyor	-10.069
▁japonya	-10.0692
ut	-10.0694
▁aklın	-10.0694
▁uzaklaş	-10.0694
kül	-10.0695
▁almanya	-10.0696
▁düşünül	-10.0708
▁küre	-10.0714
▁imkanı	-10.0715
▁örnekler	-10.0718
▁çiftçi	-10.0721
han	-10.0724
▁tuz	-10.0727
▁bölgede	-10.0731
▁çıkardı	-10.0732
▁kütüphane	-10.0733
▁platform	-10.0733
▁yörünge	-10.0733
▁faktör	-10.0733
ard	-10.0733
▁nano	-10.0738
▁edilmesi	-10.0747
▁kalite	-10.0748
▁çatı	-10.0751
▁lif	-10.0751
▁savunma	-10.0752
▁dönemde	-10.0761
▁oranda	-10.0772
▁şudur	-10.0778
▁doğdu	-10.078
▁düştü	-10.0791
▁mülteci	-10.0793
zo	-10.0794
▁kanada	-10.0795
▁kilit	-10.0796
▁özgü	-10.0797
▁tümör	-10.08
▁metal	-10.0801
uru	-10.0804
▁birbirlerin	-10.0808
▁bırakma	-10.0809
abildi	-10.0812
▁ayn	-10.0814
sıdır	-10.0815
▁oluşuyor	-10.0828
▁bat	-10.0831
▁dolara	-10.0831
gin	-10.0831
▁etrafta	-10.0834
leştirmek	-10.0834
▁fırsatı	-10.0835
▁varlığı	-10.0837
▁içerik	-10.0838
▁toz	-10.0845
▁konuşmaya	-10.0852
mizden	-10.0853
▁vakit	-10.0853
▁kurban	-10.0854
▁kocaman	-10.0856
▁maden	-10.0861
▁değerlendir	-10.0862
▁alarak	-10.0867
▁baktığınızda	-10.0869
▁bilmiyoruz	-10.087
▁müze	-10.0873
▁ulaştı	-10.0874
▁alabilir	-10.0881
rey	-10.0883
▁şurada	-10.0895
▁sınırları	-10.0896
irdi	-10.0898
▁satış	-10.0901
▁sonrası	-10.0906
▁etmesi	-10.0909
▁biçimi	-10.091
▁kutsal	-10.0915
▁deyişle	-10.0916
▁boyutu	-10.0917
▁çözümler	-10.0924
▁yapabilecek	-10.0928
▁men	-10.0929
mühendis	-10.0929
▁görünüş	-10.0935
▁ederken	-10.0936
▁devrimi	-10.0936
▁ahlaki	-10.0942
▁sürdü	-10.0943
▁eğri	-10.0943
▁zar	-10.0947
▁yaptıklarını	-10.0948
iyordum	-10.0952
▁ailesi	-10.0953
▁zi	-10.0953
▁yapmıyor	-10.0955
▁bayan	-10.0955
▁kutup	-10.0957
▁dinley	-10.0963
amayacağı	-10.0966
▁birliği	-10.0968
▁ac	-10.0974
▁uyuşturucu	-10.0975
▁depresyon	-10.0975
▁karikatür	-10.0975
▁güvenilir	-10.0977
duğunu	-10.0977
▁yenilikçi	-10.0978
▁oyuncak	-10.0978
▁moda	-10.0984
▁çıkı	-10.0986
▁uy	-10.0988
▁havada	-10.0994
▁zamanlı	-10.1002
▁anlamlı	-10.1002
ildiği	-10.1003
▁parayı	-10.1004
▁gri	-10.1006
▁katılma	-10.1007
▁oluşturur	-10.1008
▁çağrı	-10.1012
▁yığın	-10.1014
▁nedeniyle	-10.1014
▁400	-10.1019
▁sonucunda	-10.1023
▁göze	-10.1024
▁etmiyor	-10.1029
▁yapabileceğimiz	-10.1029
▁hiçbiri	-10.1035
▁patent	-10.1037
▁demokratik	-10.1037
kâr	-10.1039
▁kanal	-10.1039
▁olası	-10.104
▁cha	-10.1042
▁neyi	-10.1042
▁hatırlat	-10.1045
▁hissediyorum	-10.1046
posta	-10.1047
▁söylüyorum	-10.1059
▁babası	-10.1065
▁oynama	-10.1067
▁isimli	-10.1067
▁vo	-10.1072
▁üçte	-10.1073
▁ihtimali	-10.1078
▁fikrim	-10.108
▁çünk	-10.1092
mızdan	-10.1095
▁küme	-10.1097
▁tohum	-10.1098
▁fransız	-10.1099
▁resimler	-10.1102
tığımız	-10.1106
▁odada	-10.111
bilirsin	-10.1113
▁alalım	-10.1121
▁çevresinde	-10.1123
▁yuva	-10.1123
▁karşılaştı	-10.1124
▁gerekti	-10.1128
▁seyirci	-10.1128
▁bağır	-10.1132
acaklar	-10.1133
▁çözümü	-10.1142
▁tutmak	-10.1143
leyecek	-10.1144
nuzu	-10.1145
▁getiren	-10.1148
▁asker	-10.115
▁önemi	-10.1152
▁çerçeve	-10.116
▁idare	-10.116
▁istedikleri	-10.1162
▁oturuyor	-10.1163
▁koloni	-10.1169
▁yürüme	-10.1174
▁konuya	-10.1174
▁tabaka	-10.1175
▁ordu	-10.1175
▁koruy	-10.1175
▁çıkarma	-10.118
▁çözmek	-10.1183
▁edebil	-10.1186
▁yor	-10.1187
▁far	-10.1189
▁çalıştı	-10.1189
▁biliyordu	-10.1189
▁şehirde	-10.1189
▁ağrı	-10.119
▁doğrusu	-10.119
▁bel	-10.1191
▁maliyeti	-10.1193
▁türleri	-10.1201
▁yazdı	-10.1202
▁makinesi	-10.121
▁sıklıkla	-10.1211
▁temelde	-10.1212
8'	-10.1217
▁çap	-10.122
▁kulağa	-10.1222
▁tarif	-10.1223
▁nehir	-10.1224
▁kişilik	-10.1226
meleri	-10.1226
▁90	-10.1233
▁ekip	-10.1238
▁dönüyor	-10.1238
▁yönetme	-10.124
lidir	-10.124
▁baktı	-10.1242
▁kişiyi	-10.1243
▁sınırlı	-10.1246
▁adamlar	-10.125
▁alıcı	-10.1251
▁şişe	-10.1252
▁özellikleri	-10.1255
▁kavra	-10.1262
▁yapması	-10.1266
▁çoğumuz	-10.1269
və	-10.1276
rat	-10.1283
▁faaliyet	-10.1285
▁zirve	-10.1285
▁vaxt	-10.1286
▁yiy	-10.1287
▁rengi	-10.1287
▁mobil	-10.1288
meden	-10.1304
▁konferans	-10.1305
▁ağzı	-10.1307
▁koş	-10.1308
leyebilir	-10.1315
▁öğretti	-10.1319
▁dünyası	-10.1322
▁bahsetti	-10.1334
▁öngörü	-10.1334
▁gönderme	-10.1335
▁kalmış	-10.1336
▁hayvanların	-10.134
▁tək	-10.1342
▁hayatlarını	-10.1342
▁verdiler	-10.1345
▁teklif	-10.135
▁aniden	-10.1351
▁yolculuğu	-10.1354
▁başlamak	-10.1355
▁çekmek	-10.1359
▁sakin	-10.136
▁şah	-10.1361
▁götürdü	-10.1364
▁ederiz	-10.1364
lendirme	-10.1365
▁geliyordu	-10.1366
▁ederse	-10.1366
▁yönelik	-10.1366
▁terim	-10.1369
▁problemleri	-10.1374
ebildiği	-10.1376
▁sunum	-10.1376
▁kontrolü	-10.1376
abileceğiniz	-10.1378
▁normalde	-10.1379
▁bulabil	-10.1382
▁ahlak	-10.1385
▁80'	-10.1388
▁akım	-10.1396
▁olmama	-10.1398
▁diyorlar	-10.1403
▁hâle	-10.1404
▁anlatı	-10.1405
▁dördüncü	-10.1412
▁cesur	-10.1412
▁vakti	-10.1414
▁hayran	-10.1415
▁çekiyor	-10.142
▁grubun	-10.1422
ıldığı	-10.1428
her	-10.1432
▁kurumlar	-10.1433
▁elektro	-10.1436
▁çektiği	-10.1436
▁hayatımız	-10.1437
▁yoksul	-10.1437
dığınızda	-10.1445
▁eğlence	-10.1449
▁çocukken	-10.1463
▁sistemimiz	-10.1475
▁trafik	-10.1476
▁avukat	-10.1476
▁takıl	-10.1477
▁sorumluluk	-10.148
▁koşu	-10.149
▁zorundaydı	-10.149
▁yapmanız	-10.1499
▁belirsiz	-10.1502
▁getirir	-10.152
lemeye	-10.1522
mah	-10.1525
▁olmasa	-10.1532
▁arabalar	-10.1533
▁milli	-10.1538
▁avantaj	-10.1541
▁iyimser	-10.1541
▁aids	-10.1541
▁şok	-10.1541
▁bireysel	-10.1541
▁düzenli	-10.1548
▁kapan	-10.155
▁içeren	-10.1556
▁baktığımızda	-10.1556
▁kanat	-10.1558
▁soyut	-10.1558
▁sırt	-10.1565
yalım	-10.1568
▁fikrin	-10.1574
▁büyüdü	-10.1575
▁çöl	-10.1577
▁başlayalı	-10.1578
▁bilmə	-10.1581
ılabilir	-10.1586
▁edi	-10.1586
▁görmüş	-10.159
▁onay	-10.1592
mayacağım	-10.1593
▁beslenme	-10.1597
▁verdiğimiz	-10.16
▁kendim	-10.1601
▁görü	-10.1602
▁dini	-10.1603
▁göstər	-10.1606
▁hapishane	-10.1606
▁esnek	-10.1606
▁sürede	-10.1609
ebileceğiniz	-10.1609
▁hamile	-10.161
▁sil	-10.161
▁organik	-10.1615
▁olgu	-10.1622
▁yüzyılın	-10.1628
▁yarattı	-10.1632
▁teknolojileri	-10.1635
▁olayı	-10.1635
▁isti	-10.1642
▁sanayi	-10.1642
ebileceğini	-10.1646
▁işleme	-10.1658
ft	-10.1664
cılık	-10.1665
▁twitter	-10.1671
▁sıkıntı	-10.1671
▁blok	-10.1671
▁anlatacağım	-10.1673
▁etkileyici	-10.1674
▁ölçüm	-10.1679
▁kurdu	-10.1681
▁kapasite	-10.1683
▁rus	-10.1684
▁çalışırken	-10.1687
dışı	-10.1697
lması	-10.1705
▁organizma	-10.1709
▁hastalığın	-10.1716
▁doktorlar	-10.1726
▁birçoğu	-10.1726
▁sorar	-10.1735
▁felaket	-10.1737
▁isveç	-10.1737
▁köprü	-10.1737
▁tahta	-10.1737
▁allah	-10.1737
▁şaka	-10.1738
▁kilise	-10.174
▁35	-10.1746
inə	-10.1748
aj	-10.1751
▁yapılıyor	-10.1751
▁kazandır	-10.1755
▁seviyor	-10.1756
▁söyleyen	-10.1759
▁başlıyoruz	-10.1762
▁bazılarını	-10.1763
▁sebeple	-10.1768
▁olmuştur	-10.1771
▁150	-10.1774
▁həm	-10.1783
▁tom	-10.1787
larımıza	-10.1797
▁algoritma	-10.1803
▁meksika	-10.1803
▁otomatik	-10.1803
▁iğne	-10.1803
▁sahte	-10.1803
▁simetri	-10.1803
▁rüya	-10.1803
▁liderlik	-10.1804
▁düşme	-10.1805
▁siyahi	-10.1807
▁giriyor	-10.1809
▁paul	-10.181
▁civarında	-10.1812
▁kitaplar	-10.1816
▁cihazı	-10.1825
▁yıllarda	-10.1826
ıldığında	-10.1842
▁yarışma	-10.1844
ğını	-10.1845
♫	-10.1848
▁inanma	-10.1849
▁oynay	-10.1849
▁ilaçlar	-10.1854
▁kızı	-10.1862
▁tanrım	-10.1866
▁olabilirdi	-10.187
▁ideal	-10.1871
▁bulduğumuz	-10.1877
▁geçirme	-10.188
▁keşfetme	-10.1883
▁çar	-10.1895
müştü	-10.1901
▁fu	-10.1901
ğiniz	-10.1905
▁zorla	-10.1916
▁çıkarıyor	-10.1918
▁anlatma	-10.1921
▁öğretme	-10.1924
▁kainat	-10.1937
▁olmuyor	-10.1939
▁yolunda	-10.1941
▁eşim	-10.1948
▁gelince	-10.195
▁hücrelerin	-10.1951
▁tasarla	-10.1952
▁sürecin	-10.1952
▁gelmek	-10.1954
50	-10.1955
lerimizde	-10.1956
ris	-10.1958
▁erkeklerin	-10.1968
▁yarış	-10.1968
▁kaydı	-10.1978
▁seviyede	-10.1978
▁alıyoruz	-10.1984
▁bölün	-10.199
lakin	-10.199
▁zinciri	-10.1994
▁inceledi	-10.1999
▁dinleme	-10.2
▁eylül	-10.2005
▁resme	-10.2007
▁yaşındayken	-10.2009
▁bilinci	-10.2011
abiliyoruz	-10.2016
ğine	-10.2022
sch	-10.2023
▁inancı	-10.2028
yorsunuz	-10.2039
▁zordur	-10.2044
▁kardeşim	-10.2045
▁arttı	-10.2053
▁mühendisler	-10.2054
▁duran	-10.2055
▁vereceğim	-10.2061
▁annesi	-10.2064
▁hakim	-10.2068
▁mahkeme	-10.2073
▁düşüş	-10.2073
▁yunus	-10.2073
▁meslek	-10.2073
▁kullanmaya	-10.2075
▁etraf	-10.2079
▁yapılar	-10.2081
▁yarattığı	-10.2081
▁kitapları	-10.2082
umun	-10.2083
▁evi	-10.209
asyonu	-10.2092
▁zorlu	-10.2092
▁döngü	-10.2094
▁hasar	-10.2094
nizle	-10.2104
▁canlandır	-10.2105
fo	-10.2106
▁ekmek	-10.211
düm	-10.211
▁seçti	-10.2111
dd	-10.2112
▁geleceğin	-10.2119
▁daim	-10.2125
▁gezegenin	-10.2126
▁ağaçlar	-10.2129
▁görünmez	-10.2135
gal	-10.2139
▁hayret	-10.2141
▁roman	-10.2142
▁yapama	-10.2142
▁arayüz	-10.2143
▁polen	-10.2146
▁müdür	-10.2148
▁ilgisi	-10.2149
▁planı	-10.2152
▁değişken	-10.2153
▁bahsedeceğim	-10.2156
kat	-10.2157
▁tasarımı	-10.2158
miyordu	-10.2163
▁böcek	-10.2169
▁saatte	-10.217
▁tersine	-10.2171
▁olmam	-10.2175
▁damar	-10.2177
▁çeken	-10.2182
▁kayded	-10.2185
▁ag	-10.2187
▁kaynaklar	-10.219
ədə	-10.2194
▁beynimiz	-10.2198
▁geliştirmek	-10.22
▁başlayı	-10.2203
▁varsayım	-10.2204
▁ulaşım	-10.2209
▁ziyade	-10.221
▁mühendislik	-10.2211
▁stres	-10.2212
duğu	-10.2213
▁çözme	-10.2217
▁miktarı	-10.2218
▁sıkıcı	-10.2224
ebilirler	-10.223
▁rast	-10.2234
▁sormak	-10.2237
▁ürünler	-10.2239
▁falan	-10.2239
▁zorluk	-10.224
olog	-10.2241
▁göç	-10.2248
▁pas	-10.2248
▁değişiklikler	-10.2249
▁konuşmayı	-10.2259
▁gerçekliği	-10.2259
▁elle	-10.226
▁ederler	-10.2263
▁içeriği	-10.2267
▁taban	-10.2268
▁gezi	-10.2271
▁zamanında	-10.2275
▁kariyer	-10.2279
▁slayt	-10.228
▁italya	-10.228
▁büyükanne	-10.228
▁organize	-10.2281
▁oturup	-10.2282
▁hızı	-10.2285
▁dilim	-10.2286
▁söyleyebilirim	-10.2286
▁yazdım	-10.2287
▁çıktığı	-10.2292
▁noktalar	-10.2292
▁binalar	-10.2294
lduğu	-10.2299
▁mc	-10.2311
▁aldığım	-10.2314
▁oluşturu	-10.2317
▁hareketleri	-10.2322
ligi	-10.2322
▁taşıma	-10.2322
▁şirketlerin	-10.2325
▁aldığımız	-10.2331
▁çalışıyorlar	-10.2341
▁çay	-10.2342
▁işlev	-10.2349
▁otobüs	-10.2349
▁pozisyon	-10.2349
▁çoğal	-10.2349
▁kritik	-10.2349
▁olumlu	-10.2349
▁kaybetme	-10.235
▁steve	-10.235
▁cadde	-10.235
▁göçmen	-10.235
▁sıradışı	-10.2351
▁sevdiği	-10.2352
▁biliyordum	-10.2354
▁özü	-10.2357
▁90'	-10.2362
graf	-10.2371
▁sahil	-10.2371
layabiliriz	-10.2372
▁savaşın	-10.2384
▁etmə	-10.2388
ılacak	-10.2388
▁biriydi	-10.2388
we	-10.2395
▁45	-10.2402
▁şiş	-10.2402
▁pis	-10.2405
▁yapmam	-10.2408
▁teknolojisi	-10.2413
mezsiniz	-10.2413
▁aracılığıyla	-10.242
▁denilen	-10.2422
▁195	-10.2431
▁tipik	-10.2433
▁yapıyordu	-10.2434
▁sinek	-10.2438
▁testi	-10.2441
▁öne	-10.2461
▁renkli	-10.2463
▁anlayış	-10.2469
emiyor	-10.248
▁ödülü	-10.249
oo	-10.2491
▁kuantum	-10.2491
▁merhaba	-10.2491
▁kabile	-10.2491
▁aylık	-10.2491
▁bill	-10.2492
▁planlama	-10.2494
▁nesli	-10.2494
▁dağı	-10.2494
▁196	-10.2495
ksiyon	-10.2503
▁ayında	-10.2508
▁değiştirebilir	-10.2522
▁üretmek	-10.2526
▁haz	-10.2532
▁20.	-10.2539
▁köken	-10.2539
▁etdi	-10.254
▁taşıyor	-10.2544
▁beyniniz	-10.255
▁soruyor	-10.255
lup	-10.255
▁sever	-10.2554
▁etmekte	-10.2557
▁öldürme	-10.2561
▁istifadə	-10.2562
▁usta	-10.2563
▁böl	-10.2564
▁tüken	-10.2564
▁kırsal	-10.2574
▁gök	-10.2576
▁vücudun	-10.2577
▁sahipler	-10.2578
lıyordu	-10.2581
▁genişlet	-10.2583
▁olmasıdır	-10.2584
▁kolu	-10.2593
▁yükselt	-10.2594
▁hizmeti	-10.2599
▁sektör	-10.2603
▁ırk	-10.2605
şü	-10.2608
▁duygusu	-10.2608
▁avcı	-10.2612
▁inanıyor	-10.2617
▁einstein	-10.2634
▁korkutucu	-10.2634
▁nijerya	-10.2634
▁hediye	-10.2634
▁dosya	-10.2634
▁etkileri	-10.2637
▁müh	-10.2641
▁geçiriyor	-10.2642
mizle	-10.2652
dunuz	-10.2652
lıyorlar	-10.2661
▁elimde	-10.2663
▁emekli	-10.2664
▁bazılarınız	-10.2666
▁olacağız	-10.2669
▁koşullar	-10.2674
leyerek	-10.2675
,5	-10.2681
iriz	-10.2681
▁konuştu	-10.2694
▁bekley	-10.2696
▁başladığımız	-10.2701
▁öğrendiğim	-10.2703
▁sohbet	-10.2707
▁george	-10.2707
▁kömür	-10.2707
▁yürüyüş	-10.2707
▁özet	-10.2708
▁yox	-10.2709
▁baktım	-10.2709
▁mekanik	-10.2712
▁kent	-10.2712
▁ısınma	-10.2713
▁dua	-10.2721
▁uzat	-10.2725
▁yerleri	-10.2727
ğümüz	-10.2728
▁yaşar	-10.2732
▁balıkları	-10.2733
ben	-10.2733
▁mon	-10.2734
▁tas	-10.2735
▁taşıy	-10.2739
com	-10.274
▁isteği	-10.2746
▁ağırlığı	-10.2746
▁araştırmacı	-10.2754
▁anlıyor	-10.2757
▁besle	-10.2763
▁halkın	-10.2764
▁bilimin	-10.2765
▁altındaki	-10.2766
ham	-10.2767
▁soruları	-10.2771
▁kalem	-10.2773
▁problemler	-10.2775
▁öğretmenler	-10.2778
▁dayanıklı	-10.278
▁dehşet	-10.278
▁kasaba	-10.278
▁dunya	-10.278
▁lisans	-10.278
manyetik	-10.2781
▁arıyor	-10.2782
biriyle	-10.2786
▁alman	-10.2789
▁izliyor	-10.279
düşünebilirsiniz	-10.2791
meyeceğim	-10.2792
▁dusun	-10.2798
▁renkler	-10.28
▁faydalı	-10.2801
▁doktora	-10.2811
▁birbirimize	-10.2815
▁attı	-10.2819
▁vazgeç	-10.282
od	-10.2825
▁farkettim	-10.2825
▁ihtimal	-10.2827
▁yasal	-10.2832
▁durdu	-10.2845
chi	-10.285
▁memnun	-10.2852
▁darwin	-10.2853
▁dinamik	-10.2853
▁kaliforniya	-10.2853
▁borç	-10.2853
▁operasyon	-10.2854
▁maaş	-10.2854
▁açma	-10.2855
▁prensip	-10.2855
▁değerlendirme	-10.2858
▁dönüştürme	-10.2859
▁geçmişi	-10.2868
▁ayağı	-10.2869
▁koymak	-10.2874
▁azaltma	-10.2876
▁düşen	-10.2879
▁hissettim	-10.288
▁enerjisi	-10.288
▁anında	-10.2886
araya	-10.2888
▁mesajı	-10.2889
▁varsay	-10.289
▁hisseder	-10.2895
▁yasak	-10.2895
▁güzellik	-10.2896
jen	-10.29
▁geçirdim	-10.2905
▁günümüz	-10.2909
▁geliş	-10.2919
tə	-10.2919
▁kategori	-10.2927
əgər	-10.2932
▁çeşitliliği	-10.2936
▁istemiyorum	-10.2942
▁çiftlik	-10.2944
sındaki	-10.2947
▁sunuyor	-10.2948
▁çoktan	-10.2955
▁yolları	-10.2959
▁ilişkiler	-10.2968
▁oyunları	-10.2968
▁genleri	-10.2979
▁hikayesini	-10.2986
▁söyledim	-10.3002
▁favori	-10.3002
▁alışveriş	-10.3002
▁mektup	-10.3002
▁sezgi	-10.3002
▁gölge	-10.3004
▁aşkı	-10.3009
▁çözü	-10.3009
▁zamanın	-10.3011
▁ettikleri	-10.3012
lerimize	-10.3014
bert	-10.3015
▁tüy	-10.3015
▁ilerley	-10.3016
▁sera	-10.3018
▁kullanabiliriz	-10.3018
▁endişelen	-10.3034
▁alıntı	-10.3036
emeyeceği	-10.3039
▁bölgesi	-10.3046
▁söyledikleri	-10.3049
▁derdi	-10.3051
▁resimde	-10.3057
▁artıyor	-10.3061
▁halkı	-10.3066
▁direkt	-10.307
acağımızı	-10.3074
▁getirdiği	-10.3074
▁gezegende	-10.3074
▁laboratuvarı	-10.3075
▁avustralya	-10.3077
▁fırtına	-10.3077
▁sigara	-10.3077
▁kamyon	-10.3077
▁çanta	-10.3077
▁peşinde	-10.3078
▁aklınız	-10.3082
amayız	-10.3082
▁cerrah	-10.3083
▁oranında	-10.3084
▁kalın	-10.3085
▁hap	-10.3089
▁ucu	-10.3096
▁geldim	-10.3096
▁tv	-10.31
▁los	-10.3103
▁kurum	-10.3104
▁araştırmalar	-10.3105
▁ayakta	-10.3116
▁teknolojik	-10.3116
umuzun	-10.3119
▁qal	-10.3129
▁yaşın	-10.3129
▁yaradı	-10.313
▁sir	-10.3136
▁sesini	-10.3136
▁gelmişti	-10.3152
▁uygulay	-10.3152
▁dükkan	-10.3153
▁səbəb	-10.3153
▁meyve	-10.3153
▁gördünüz	-10.3157
▁tez	-10.3157
▁tanıt	-10.3159
▁eseri	-10.316
▁buyuk	-10.3164
▁özgürlüğü	-10.3168
ttiği	-10.3172
larımdan	-10.3173
▁aday	-10.3181
▁deneyi	-10.3182
kop	-10.3184
▁kullanıyorlar	-10.3187
▁hayatımda	-10.3187
▁au	-10.3188
▁çeker	-10.3194
▁kullanılıyor	-10.3198
▁bildir	-10.3202
▁mənə	-10.3203
▁olursanız	-10.3203
▁etdiyi	-10.3207
▁çat	-10.3213
▁güvenliği	-10.3217
▁cun	-10.3222
▁dakikada	-10.3227
▁meşgul	-10.3229
▁21	-10.3229
▁bakan	-10.323
▁topluluğu	-10.3239
lendiği	-10.3241
▁kurtarma	-10.3242
▁doğduğu	-10.3249
eceğimiz	-10.3251
lərini	-10.3256
▁ölüyor	-10.3263
▁nasa	-10.3266
▁düzelt	-10.3266
▁buluyor	-10.3272
▁düşünüyordum	-10.3273
▁bacak	-10.3278
▁bulabilir	-10.328
▁bağlantılı	-10.3285
bur	-10.3286
▁evrende	-10.3286
▁şimdiki	-10.3286
▁girer	-10.3294
▁malzemeler	-10.3295
▁mucize	-10.3306
▁teleskop	-10.3306
▁restoran	-10.3306
▁vizyon	-10.3306
▁gövde	-10.3306
▁hücresi	-10.3306
▁görülen	-10.3306
▁times	-10.3307
▁yaban	-10.331
▁ardı	-10.3311
▁hesab	-10.3313
▁uzaktan	-10.3318
▁eğlen	-10.3322
▁uyarı	-10.3323
▁dökü	-10.3325
▁kayna	-10.3326
duğumuz	-10.3328
▁denklem	-10.3329
▁düzeyde	-10.3332
▁sistemini	-10.3335
▁tersi	-10.3339
▁görmez	-10.3339
▁süreçte	-10.3342
▁hızlandır	-10.3348
▁görebil	-10.3351
▁günlerde	-10.3351
▁ayna	-10.3357
leştirilmiş	-10.3362
▁ekley	-10.3362
▁sahipti	-10.3364
▁geçmek	-10.3375
▁aptal	-10.3375
▁klasik	-10.3384
▁mutlak	-10.3384
▁uşaq	-10.3384
▁çevril	-10.3384
▁bedava	-10.3384
▁aralarında	-10.3386
▁kafe	-10.3387
▁saklan	-10.339
emem	-10.339
▁ağaçları	-10.3398
▁uçur	-10.3403
▁tatil	-10.3404
▁ölçekte	-10.3406
▁tarama	-10.3412
lıyım	-10.3413
▁virüsü	-10.3417
▁tutuyor	-10.342
▁geçtiği	-10.3425
▁erişim	-10.3427
▁çıx	-10.3429
▁deneyler	-10.3438
▁çalışıyordu	-10.345
▁alanlarda	-10.3451
▁sorgu	-10.3452
art	-10.3453
▁yapısı	-10.3458
▁topu	-10.346
▁nöro	-10.3462
▁empati	-10.3462
▁hekayə	-10.3462
▁mahkum	-10.3462
▁barındır	-10.3462
▁haqda	-10.3462
▁benzeyen	-10.3462
▁nehri	-10.3462
▁değiştiriyor	-10.3462
▁üreme	-10.3462
▁21.	-10.3468
▁ekoloji	-10.3468
▁görebiliriz	-10.347
▁yapalım	-10.3472
▁kalmak	-10.3485
▁sektörü	-10.3496
▁başlangıçta	-10.3504
▁isterse	-10.3504
▁ortamda	-10.3512
sıydı	-10.3515
hat	-10.3517
▁edebileceği	-10.3517
ıyorlardı	-10.3519
▁tutun	-10.3528
▁bilinçli	-10.3535
▁herkesi	-10.354
▁richard	-10.354
▁yirmi	-10.354
▁ajan	-10.3541
▁harcıyor	-10.3543
▁yoksulluk	-10.3543
▁nüfusun	-10.3544
▁kişilerin	-10.3548
▁kızım	-10.3548
▁şekilleri	-10.3548
emeyecek	-10.3551
▁oturma	-10.3552
amam	-10.3561
▁oğlu	-10.3564
▁önde	-10.3567
▁utan	-10.3569
▁ediyorsunuz	-10.3571
▁çabuk	-10.3586
▁tarihte	-10.3589
inizin	-10.3595
▁ru	-10.3597
▁bilmediği	-10.3599
▁elə	-10.3601
etti	-10.3602
unuzu	-10.3605
▁faydalan	-10.3607
lərə	-10.361
▁anlattığı	-10.3611
▁konuşan	-10.3616
▁pozitif	-10.362
▁refah	-10.362
▁konser	-10.362
▁kaybı	-10.3622
▁düşüyor	-10.3622
▁üretil	-10.3625
▁gar	-10.3625
30	-10.3626
▁koydu	-10.3626
▁algılama	-10.3626
▁söylediler	-10.3635
▁yakalama	-10.3643
vr	-10.3646
▁diyordu	-10.3648
dığımızda	-10.3649
▁görevli	-10.3652
▁şirketleri	-10.3655
▁tanıy	-10.3658
▁çıkmış	-10.366
▁ucunda	-10.3662
▁antik	-10.3666
▁görüntüsü	-10.368
▁değiştiren	-10.3683
▁22	-10.3685
▁yaparsa	-10.3686
▁okyanusun	-10.3686
▁keç	-10.369
▁edeceğim	-10.369
▁fotoğraflar	-10.369
▁onur	-10.3691
▁gidecek	-10.3691
▁kö	-10.3691
▁bulduğum	-10.3697
▁bebekler	-10.3697
emediği	-10.3698
▁masraf	-10.37
▁siyaset	-10.37
▁pratik	-10.37
▁terörist	-10.3701
▁büyüyen	-10.3701
▁bakarsak	-10.3705
ebiliyoruz	-10.3708
▁gelişen	-10.3711
▁vücudunuz	-10.3712
▁hatırlay	-10.3719
▁tamir	-10.3725
▁eşsiz	-10.3728
▁çıkmak	-10.3729
▁çocuğ	-10.374
▁bölgesinde	-10.374
▁and	-10.3741
abilirdi	-10.3742
org	-10.3742
▁aydınlat	-10.3744
▁müziği	-10.3748
▁fikirlerin	-10.3753
▁yaratan	-10.3753
ledik	-10.3755
▁üstesinde	-10.3759
▁ruhu	-10.3776
▁penguen	-10.378
▁macera	-10.3781
▁ayağa	-10.3781
▁donanım	-10.3781
▁anlayışı	-10.3786
ləş	-10.379
▁pil	-10.3791
▁anket	-10.3793
▁tanıyor	-10.3796
▁bırakıyor	-10.3801
▁yeteri	-10.3801
▁oluşur	-10.3801
▁hat	-10.3802
▁gösterdiği	-10.3802
▁toprağı	-10.3805
▁sıcaklık	-10.3807
▁istemez	-10.381
▁tuttu	-10.3811
▁formu	-10.3816
▁oynat	-10.3818
▁sürüyor	-10.382
▁kültürü	-10.3825
▁kadınlara	-10.3827
▁pre	-10.3833
▁inek	-10.3833
▁endüstrisi	-10.3836
▁üz	-10.384
dığımda	-10.3843
▁sual	-10.3843
3'	-10.3843
▁wal	-10.3844
▁evrimleş	-10.3855
▁sav	-10.3856
▁metafor	-10.3862
▁tekerlek	-10.3862
▁insanlığın	-10.3868
▁bahsediyorum	-10.387
▁edelim	-10.387
▁odaklanma	-10.3871
irsek	-10.3879
▁yaşlanma	-10.3881
▁üstü	-10.3889
▁çekildi	-10.389
▁yapış	-10.3893
▁izledi	-10.3904
▁temas	-10.3912
▁tasarlanmış	-10.3916
▁makineler	-10.3922
kinden	-10.3923
▁kazanma	-10.3929
▁hizmetleri	-10.3931
▁döndüm	-10.3933
▁çalışmayı	-10.3933
▁girdiği	-10.3939
ınızı	-10.3942
▁akademi	-10.3944
▁prototip	-10.3944
▁düğme	-10.3944
▁olasılığı	-10.3945
▁pilot	-10.3945
▁büyüleyici	-10.3947
▁göstereyim	-10.3948
▁yapıştır	-10.3948
▁kozm	-10.3949
▁politikacılar	-10.3951
▁bahsetme	-10.3951
▁yazdığı	-10.3957
▁üretken	-10.396
▁kalır	-10.3963
▁karşılıklı	-10.3965
▁oturdu	-10.3966
mıştık	-10.3966
sızlık	-10.3974
▁konuşacağım	-10.3976
▁inşaat	-10.3977
iyyət	-10.3987
▁ilgilenme	-10.3995
gre	-10.3999
▁hile	-10.4001
▁çevirme	-10.4001
▁etmeniz	-10.4002
tıcı	-10.4003
▁yaratır	-10.4003
▁liderler	-10.4005
▁pal	-10.401
mışlardı	-10.4011
sində	-10.4016
▁duyarlı	-10.4018
▁görüntüler	-10.4019
▁biten	-10.4021
▁okullar	-10.4022
▁washington	-10.4026
▁sensör	-10.4027
▁anti	-10.4029
▁ölen	-10.4029
▁umudu	-10.4029
▁fizikçi	-10.4031
▁aklımız	-10.4035
▁matematiksel	-10.4037
▁demiş	-10.4041
▁puan	-10.4042
▁değerleri	-10.4043
▁yetersiz	-10.4048
▁60'	-10.4049
▁çalışarak	-10.4056
▁örgüt	-10.4059
▁yapımı	-10.406
▁büyüklüğünde	-10.4065
▁şart	-10.407
▁elektron	-10.4074
gar	-10.4075
▁aralık	-10.4078
▁japon	-10.4084
▁orda	-10.4085
▁gezegenler	-10.4089
məyə	-10.4089
▁tarihin	-10.4092
▁verebilir	-10.4093
▁kimlik	-10.4096
▁eti	-10.4097
raq	-10.41
▁sağlayabilir	-10.4101
▁çeşitlilik	-10.4102
▁ışığın	-10.4106
▁değişiyor	-10.4108
▁kısmında	-10.4109
▁egzersiz	-10.411
▁enfeksiyon	-10.411
▁stüdyo	-10.411
▁elbise	-10.411
▁qarşı	-10.411
▁işini	-10.4111
▁yakalay	-10.4113
cilik	-10.4115
shi	-10.4116
▁kullanabilir	-10.4117
için	-10.4134
▁çiftçiler	-10.4136
ıb	-10.4136
ğımız	-10.4138
▁yarın	-10.414
▁sha	-10.4146
▁çocuklarımız	-10.415
4'	-10.4151
▁getiril	-10.4152
gram	-10.4161
▁edilir	-10.4162
lanabilir	-10.4164
▁əl	-10.4167
tiğimiz	-10.4167
▁yararlı	-10.4171
▁bakacak	-10.4173
▁ceb	-10.4176
▁oyunun	-10.4186
▁akciğer	-10.4194
▁tiyatro	-10.4194
▁sivrisinek	-10.4194
▁görülüyor	-10.4194
▁pazarlama	-10.4195
.5	-10.4198
▁üretici	-10.4198
▁bot	-10.4203
▁kalıcı	-10.4209
▁üretimi	-10.4211
▁kış	-10.4214
▁zorundasınız	-10.4218
▁belirleme	-10.4223
▁ettiğiniz	-10.4229
▁kullandı	-10.4234
▁bırakmak	-10.4243
▁sahi	-10.4243
▁oranları	-10.4244
▁danış	-10.4249
▁fotoğrafları	-10.4252
▁durumlarda	-10.4256
▁yetiştirme	-10.4256
▁başardı	-10.4264
▁karakteri	-10.4274
▁sıradaki	-10.4274
yacağı	-10.4274
▁tecavüz	-10.4278
▁youtube	-10.4278
▁limit	-10.4279
▁oynuyor	-10.4279
▁market	-10.4281
▁fransa	-10.4284
▁bant	-10.4285
ografi	-10.4287
▁1000	-10.4288
▁kurduk	-10.4288
▁hastaların	-10.4288
larımın	-10.4291
ty	-10.4301
▁potansiyeli	-10.4304
▁otel	-10.4305
▁öğreniyor	-10.4309
▁kalıp	-10.4312
▁arap	-10.4312
▁biridir	-10.4313
▁modeller	-10.4315
▁2008	-10.4317
dığımı	-10.4319
ebildi	-10.4322
▁forma	-10.4326
▁farketti	-10.4329
▁özellikler	-10.433
▁özgün	-10.433
▁bacakları	-10.4335
▁riski	-10.434
▁teorisi	-10.4343
▁olabiliriz	-10.4343
▁değerler	-10.4344
▁oluyordu	-10.4348
▁gideceği	-10.4348
▁satıl	-10.4354
▁gitmeye	-10.4356
▁konuştuğu	-10.4359
▁gec	-10.4361
▁konuşur	-10.4362
▁öncü	-10.4364
▁iphone	-10.4364
▁senaryo	-10.4364
▁anderson	-10.4364
▁travma	-10.4364
▁hidrojen	-10.4364
▁kongre	-10.4365
▁23	-10.4366
▁gelenek	-10.4368
▁ücretsiz	-10.4369
▁tarihinde	-10.4371
▁amerikalılar	-10.4372
▁katılım	-10.4372
emezsiniz	-10.4378
▁kuşlar	-10.4379
▁öneri	-10.4384
▁3.	-10.4386
▁bayanlar	-10.4395
▁saniyede	-10.4398
▁açar	-10.4404
lamaz	-10.4408
görebiliyorsunuz	-10.4408
▁gezin	-10.4413
▁düşünen	-10.4427
▁sars	-10.444
▁atmosferi	-10.4442
▁hazırladı	-10.4445
▁kova	-10.4447
20	-10.4449
▁global	-10.445
▁sigorta	-10.445
▁medeniyet	-10.445
▁yardımı	-10.4451
▁tüp	-10.4452
▁balıkçı	-10.4455
▁yaprak	-10.4456
▁tim	-10.4457
▁geçici	-10.4462
▁ikisini	-10.4462
▁hapse	-10.4471
cisi	-10.4477
▁üreten	-10.448
▁onar	-10.4482
▁duyduğum	-10.4483
▁gelecekteki	-10.4488
▁okur	-10.4492
▁ayda	-10.4494
▁gizem	-10.4494
▁kaz	-10.4498
▁yakalan	-10.4499
▁tanıdık	-10.45
▁istiyordum	-10.4506
▁fırlat	-10.4508
▁gücün	-10.451
lərində	-10.4517
▁bölgelerde	-10.452
▁yetki	-10.4532
▁yarama	-10.4533
▁yerli	-10.4533
▁angeles	-10.4537
▁mağaza	-10.4537
▁titre	-10.4537
▁unsur	-10.4537
▁yurt	-10.4538
▁sorduk	-10.4538
▁görürüz	-10.4539
▁gore	-10.4542
▁çarpıcı	-10.4544
▁dolan	-10.4545
▁yapmalıyız	-10.455
▁gösterdiğim	-10.4553
▁azalma	-10.456
▁kardeş	-10.456
▁iyisini	-10.4571
▁oluşturduğu	-10.4572
▁organizmalar	-10.4575
▁tamamıyl	-10.4579
▁harcadı	-10.4583
▁gülme	-10.4584
ttığı	-10.459
▁evim	-10.4595
▁damla	-10.4597
▁yapın	-10.4598
▁ekranda	-10.4598
▁haritası	-10.4599
▁resimleri	-10.4599
▁içeriyor	-10.4609
▁digər	-10.4625
▁futbol	-10.4625
▁kaçınılmaz	-10.4625
▁kompleks	-10.4625
▁kavga	-10.4625
▁bilmiyordum	-10.4633
▁yapmaz	-10.4638
▁açıklay	-10.464
▁dersi	-10.4642
▁hiss	-10.4648
▁enstitüsü	-10.4648
▁duyur	-10.4649
▁problemin	-10.4659
▁yaşındaydı	-10.4667
leşiyor	-10.4667
▁yem	-10.4668
▁hisse	-10.4668
▁tavan	-10.4674
▁yönetimi	-10.4676
▁hatırlama	-10.4676
▁göl	-10.4677
▁açığ	-10.4682
▁ros	-10.4684
dakı	-10.4685
▁benimse	-10.4691
▁etkiledi	-10.4693
▁şeklini	-10.4697
▁derken	-10.4697
▁sanatı	-10.4701
▁öğrencileri	-10.4711
▁harvard	-10.4713
▁kalabalık	-10.4713
▁teslim	-10.4713
▁terapi	-10.4713
▁zorluklar	-10.4715
▁yapılacak	-10.4716
▁geçirmek	-10.4717
▁raf	-10.4719
▁99	-10.472
▁dokunma	-10.4723
▁devamlı	-10.4723
▁söyleyebilir	-10.4726
▁tat	-10.4726
▁yarıyor	-10.4729
▁adil	-10.473
▁yararlan	-10.4738
▁direk	-10.4739
str	-10.4739
▁sürücü	-10.474
▁yaşamış	-10.4742
▁iniş	-10.4746
▁haftada	-10.4746
▁kuruluş	-10.4771
▁seviyesi	-10.4775
▁deyə	-10.4781
▁nota	-10.4781
▁isa	-10.4784
bilimci	-10.4784
▁vermiş	-10.4785
▁gene	-10.4786
▁foto	-10.4792
▁tutan	-10.4796
▁kendisinin	-10.4797
▁alabil	-10.48
▁maalesef	-10.4804
▁kiçik	-10.4804
dığımızı	-10.4804
▁yetenekleri	-10.4805
▁şahit	-10.4805
▁kurgu	-10.4807
▁kullanılabilir	-10.4809
▁üyesi	-10.4809
▁yapabilmek	-10.4812
▁düşüncesi	-10.4812
▁gittiğini	-10.4821
▁düşünceleri	-10.4821
▁korunma	-10.4821
▁veriyorlar	-10.4823
▁yazıyor	-10.4825
▁orası	-10.4825
▁çekim	-10.4826
▁askerler	-10.4832
▁doktoru	-10.4834
▁yapabilirim	-10.4834
▁tekne	-10.4836
▁kimliği	-10.4837
▁baktık	-10.4838
▁solu	-10.4847
luğ	-10.4854
lenir	-10.4854
▁aramızda	-10.4859
▁tanış	-10.4859
▁devletleri	-10.486
▁düzeltme	-10.4861
▁millet	-10.4862
şık	-10.4871
▁yaparlar	-10.4881
▁bakmaya	-10.4883
▁sağladığı	-10.4888
▁mac	-10.4889
▁şaşırt	-10.4889
▁keçi	-10.4891
▁kaldım	-10.4891
▁ötürü	-10.4893
▁göğüs	-10.4893
▁otorite	-10.4893
▁seçeneği	-10.4893
▁titan	-10.4896
▁sisteme	-10.4899
▁söyleyecek	-10.4904
leyip	-10.4904
▁oluşturdu	-10.4914
▁calis	-10.4914
ct	-10.4914
▁sorusu	-10.4915
ülmüş	-10.4933
▁etkiler	-10.4943
▁olurlar	-10.4947
▁ilkel	-10.4956
▁kızın	-10.4957
▁işlerini	-10.4958
▁kodu	-10.4958
▁bildiğim	-10.4961
▁sisteminin	-10.4967
▁katlan	-10.4971
▁ocak	-10.4972
▁aslın	-10.4973
▁kalanı	-10.4975
▁tasarlan	-10.4976
▁şef	-10.498
▁olabiliyor	-10.498
▁vay	-10.498
▁açan	-10.4983
▁charles	-10.4984
▁hemşire	-10.4984
▁neçə	-10.4984
▁obama	-10.4984
▁vs	-10.4986
▁entegr	-10.4987
▁yaşadığım	-10.4988
▁etkileyen	-10.4989
▁boşluğu	-10.4997
▁değilse	-10.5006
▁kalacak	-10.5007
▁seçimler	-10.5009
▁gül	-10.5011
▁duyduğumuz	-10.5014
▁pop	-10.5023
▁topladı	-10.5023
▁oturan	-10.5024
fat	-10.5029
▁uğraşma	-10.5031
▁ağın	-10.5032
▁danışman	-10.5036
▁savun	-10.5038
▁panel	-10.5039
▁kutusu	-10.5039
by	-10.5041
▁öğrencilerin	-10.5045
▁görülme	-10.5047
▁ima	-10.5047
yüz	-10.5049
▁açlık	-10.5067
▁katıldı	-10.5067
ov	-10.5069
zaman	-10.507
▁ekledi	-10.5072
▁çarpı	-10.5074
▁ölümcül	-10.5075
▁umuyorum	-10.5075
▁tarla	-10.5077
▁2010	-10.5077
▁tatmin	-10.5078
lerimden	-10.5079
▁düşünürseniz	-10.508
ılmıştı	-10.508
▁cr	-10.5081
▁başlayacak	-10.5081
▁bahsediyor	-10.5083
▁fotoğrafçı	-10.5084
▁ağacı	-10.5087
▁hastalıkları	-10.5088
▁görebileceğiniz	-10.5088
▁kitab	-10.509
▁yapısını	-10.5099
müyor	-10.51
▁yıldızlar	-10.5103
▁ellerinde	-10.5119
sünü	-10.5128
▁terör	-10.5137
▁ilgileniyor	-10.5146
▁modelleri	-10.5147
rək	-10.5147
▁eser	-10.5153
▁rolü	-10.5153
▁söylemeye	-10.5156
▁parçasını	-10.5156
▁korkuyor	-10.5156
▁merdiven	-10.5168
▁müzisyen	-10.5168
▁koltuk	-10.5168
▁otizm	-10.5168
▁bulgu	-10.5169
▁sözcük	-10.517
▁ilişkileri	-10.5173
▁194	-10.5176
▁güçlendir	-10.5179
▁yaşımda	-10.5179
lediğimiz	-10.5185
▁öğrencisi	-10.5185
▁yüzünü	-10.5187
ebilirdi	-10.5192
▁liderleri	-10.5192
▁duyguları	-10.5198
▁ebeveynleri	-10.5198
abilecekleri	-10.52
▁mr	-10.5206
▁olursunuz	-10.5206
▁konuşu	-10.5209
▁hayvanları	-10.5211
▁dersiniz	-10.5213
▁kurulu	-10.5214
▁seyirciler	-10.5216
▁yaratıcılık	-10.522
▁kurumları	-10.5222
▁zararlı	-10.5224
▁veriyoruz	-10.5225
▁görüntüleri	-10.5225
▁üretiyor	-10.5226
▁geçirdiği	-10.5234
ceği	-10.5235
▁bulmuş	-10.5243
▁sag	-10.5244
▁tesadüf	-10.5261
▁örümcek	-10.5261
▁akraba	-10.5261
▁cazibe	-10.5261
▁orkestra	-10.5261
▁tavuk	-10.5261
▁garanti	-10.5261
▁bayağı	-10.5261
▁nitelik	-10.5262
▁istediğini	-10.5265
▁boru	-10.5269
▁çeviri	-10.5279
▁gitmiş	-10.5281
▁che	-10.5284
▁grip	-10.5287
▁programları	-10.5296
▁götürme	-10.5297
▁rusya	-10.5299
▁oysa	-10.5309
luğun	-10.5309
▁koyun	-10.531
▁ekleme	-10.5316
▁yapmaları	-10.5317
ğına	-10.5317
▁mutluluğu	-10.532
▁alınan	-10.5321
ladığını	-10.5321
▁tasarımcılar	-10.5322
▁dönemi	-10.5325
▁geldiler	-10.5335
▁abart	-10.5339
▁sorumluluğu	-10.5351
▁görebiliyor	-10.5351
▁sokakta	-10.5354
▁hareketli	-10.5355
▁fenomen	-10.5356
▁ümit	-10.5356
▁lamba	-10.5356
▁huzur	-10.5356
▁ölümün	-10.5357
▁roket	-10.5358
▁istekli	-10.5359
▁yazılmış	-10.5359
▁dinlemek	-10.536
▁bulunmakta	-10.5361
▁başlamıştı	-10.5362
▁kızların	-10.5367
▁düşünüyorsunuz	-10.5368
▁bulunur	-10.5368
▁elma	-10.537
lanmıştı	-10.5371
▁uydur	-10.5373
▁vücud	-10.5373
mıyordu	-10.5374
▁toplumu	-10.5386
▁özür	-10.539
▁evlen	-10.5393
▁posta	-10.5394
▁listesi	-10.5404
▁duvarı	-10.5416
▁ayırma	-10.5419
▁gelişti	-10.5421
▁başlayacağı	-10.5424
▁unutma	-10.5431
▁sahnede	-10.5437
▁bitirmek	-10.544
▁yapamaz	-10.5447
▁atar	-10.5448
▁imkân	-10.5451
▁matematiğ	-10.5451
▁protesto	-10.5451
▁keşfi	-10.5451
▁keyif	-10.5451
▁nasil	-10.5451
▁opera	-10.5452
▁ayrıntı	-10.5452
▁eyni	-10.5452
▁uzağ	-10.5452
▁dağılım	-10.5452
▁söylemeliyim	-10.5453
▁başladığı	-10.5453
▁kablosuz	-10.5453
▁çəki	-10.5455
▁yapabileceğiniz	-10.5457
▁aldılar	-10.5458
▁oluşu	-10.5461
▁istiyorsunuz	-10.5462
▁seferinde	-10.5462
▁başım	-10.5465
▁özellik	-10.5468
bilirsek	-10.5469
▁sadə	-10.5471
▁giderken	-10.5475
▁edemez	-10.5476
▁uçağı	-10.548
▁olunca	-10.5482
▁içme	-10.5483
layın	-10.5486
▁milletler	-10.5486
mektir	-10.5487
▁ulaştır	-10.5491
▁əslin	-10.5494
▁yürüyor	-10.5496
▁konuştuk	-10.5505
▁mıydı	-10.5505
altı	-10.5518
▁baktığı	-10.552
▁keşfetmek	-10.553
▁çizme	-10.5536
▁soğu	-10.5538
▁büyüklüğü	-10.5538
▁köpeği	-10.5547
▁röportaj	-10.5547
▁felsefe	-10.5547
▁meslektaşları	-10.5547
▁cennet	-10.5547
▁ispat	-10.5547
▁felci	-10.5547
▁james	-10.5547
▁evlilik	-10.5549
▁heves	-10.555
▁direnç	-10.555
▁elinizde	-10.5553
▁eksen	-10.5558
▁uzmanı	-10.5565
ünüzü	-10.5566
▁ap	-10.5566
▁sayıları	-10.5568
ney	-10.5573
▁600	-10.5578
▁sonuc	-10.5581
▁izlemek	-10.5586
ilecek	-10.5591
▁yaratıklar	-10.5607
▁kaldığı	-10.5614
▁üretti	-10.5616
▁gönderdi	-10.5626
▁dokusu	-10.5637
▁istiyordu	-10.564
▁bəzi	-10.5644
▁higgs	-10.5644
▁apple	-10.5644
▁pembe	-10.5644
▁uzunluğunda	-10.5645
▁animasyon	-10.5645
▁amazon	-10.5646
▁belirgin	-10.5646
▁anlayabil	-10.5646
▁yapacağını	-10.5646
ılıp	-10.5649
▁sizə	-10.5654
▁olduğudur	-10.5656
▁üye	-10.5656
▁versiyonu	-10.5657
laşmış	-10.5659
▁sihirli	-10.5659
▁yatağı	-10.566
▁tanışma	-10.5662
▁onlarca	-10.5664
▁görebilir	-10.5666
▁yoğunlaş	-10.5678
▁ağırlık	-10.5681
▁kuruyor	-10.5684
▁sw	-10.5692
▁kadınları	-10.5698
▁bilgisayarı	-10.5703
▁başkalarının	-10.5708
lduğunu	-10.5709
...	-10.5713
▁kapasitesi	-10.5725
▁pu	-10.5725
▁kelimesini	-10.5732
▁iyileşme	-10.5733
▁deneyimleri	-10.5733
▁görüntüleme	-10.5735
▁işlemi	-10.5738
▁pakistan	-10.5742
▁pompa	-10.5742
▁1980	-10.5742
▁ertesi	-10.5743
▁kazanmak	-10.5743
▁yəni	-10.5743
▁keşfettik	-10.5747
▁həyat	-10.5748
▁sanıyorum	-10.5749
▁seti	-10.5753
▁aranızda	-10.5755
▁yoldan	-10.5756
▁ürettiği	-10.576
▁alıyorlar	-10.5764
▁engeller	-10.5769
▁davranışı	-10.5771
▁getirdik	-10.5781
▁demişti	-10.5784
▁içe	-10.5785
▁geçirdi	-10.5786
▁durdurma	-10.5793
▁işlet	-10.5795
▁kaynaklı	-10.5801
▁sevgili	-10.5803
▁internetin	-10.5809
▁sınıfı	-10.581
▁babamın	-10.5814
▁nesneler	-10.5821
▁denir	-10.5829
▁yönü	-10.5835
▁savaşta	-10.5836
▁açıyor	-10.5841
▁karbondioksit	-10.5841
▁olumsuz	-10.5841
▁çirkin	-10.5841
▁biyolog	-10.5841
▁deprem	-10.5841
▁redded	-10.5841
▁yunan	-10.5841
▁parmağı	-10.5842
▁bekler	-10.5843
▁inceley	-10.5843
▁sürme	-10.5844
▁pay	-10.5847
▁2009	-10.5848
▁öldüğü	-10.5851
▁topluluğun	-10.586
▁gerçekleşen	-10.5864
▁demir	-10.5865
▁mali	-10.5867
▁değişen	-10.5872
▁döneminde	-10.5875
▁atış	-10.5877
▁eh	-10.5882
▁qə	-10.5898
▁sto	-10.5904
▁ortamı	-10.5911
▁ekonomisi	-10.5912
cük	-10.5917
▁yazıcı	-10.5919
▁odası	-10.5921
ebilmesi	-10.5922
▁michael	-10.5941
▁yumuşak	-10.5941
▁felç	-10.5941
▁əsas	-10.5942
▁izni	-10.5943
▁desteği	-10.5943
▁kucak	-10.5944
▁atmak	-10.5944
▁gidebilir	-10.5945
▁denk	-10.5947
▁ilerliyor	-10.5948
▁kut	-10.596
▁tetik	-10.5963
▁taşıyan	-10.5964
▁gelmesi	-10.5968
▁yoğunluğu	-10.5972
▁katılımcı	-10.5977
▁kılan	-10.5984
▁geldiğimiz	-10.5985
▁konuşmamı	-10.5986
▁okumak	-10.5986
▁anlatmaya	-10.599
▁maç	-10.599
▁açıklamak	-10.5993
ıldığını	-10.5996
▁bez	-10.6
▁ötesin	-10.6005
▁olmalıdır	-10.6006
▁etmez	-10.6006
leştiği	-10.6016
mağa	-10.6024
▁etkisini	-10.6026
▁çıkacak	-10.6029
ylə	-10.603
▁leo	-10.6032
▁tasarladı	-10.6033
▁65	-10.6035
▁böcekler	-10.6042
▁bağışıklık	-10.6042
▁efsane	-10.6042
▁geleceğe	-10.6042
▁sürpriz	-10.6042
▁thomas	-10.6042
▁astronom	-10.6042
▁endüstriyel	-10.6042
▁sınıfta	-10.6042
▁mühendisliği	-10.6044
▁yaklaşımı	-10.6045
▁bilmir	-10.6047
▁kayda	-10.6049
▁kafatası	-10.6051
▁ömrü	-10.6052
▁düşer	-10.6056
▁oturur	-10.6057
▁yıldızı	-10.6058
▁uyumlu	-10.6058
▁inanıyoruz	-10.6064
mişlerdi	-10.6065
▁eleman	-10.6066
▁detaylı	-10.6074
abileceğim	-10.6087
layabilirsiniz	-10.6088
▁artışı	-10.609
▁yerleştirdi	-10.6091
▁kurumu	-10.6093
uşu	-10.6102
▁tanesini	-10.6107
▁edildiği	-10.6113
▁koyduk	-10.6113
▁hayatımızı	-10.6117
▁toparla	-10.6121
▁çocuklarını	-10.6122
▁çalışıyordum	-10.6124
landırıl	-10.6128
▁ilerledi	-10.6131
▁tara	-10.6131
▁bırakır	-10.6137
▁duymak	-10.6138
▁francisco	-10.6144
▁lezzet	-10.6144
▁perspektif	-10.6144
▁çıplak	-10.6144
▁canavar	-10.6144
▁online	-10.6145
▁ödey	-10.6147
▁memur	-10.6147
▁yil	-10.6149
▁yapacağımız	-10.6152
▁bariz	-10.6164
▁olmalıyız	-10.6167
▁tasarlama	-10.6172
▁hangisi	-10.6174
▁ölçme	-10.6191
▁dinler	-10.6192
▁iyileştirme	-10.6196
sün	-10.6197
mediği	-10.6203
▁şekillerde	-10.6204
▁şirketin	-10.6205
▁saldır	-10.6209
▁değin	-10.6212
▁gelmiyor	-10.6214
▁hatırlar	-10.6217
▁çalışmanın	-10.6218
▁söyleyeceğim	-10.6219
▁araştırmacılar	-10.622
▁şəkil	-10.6226
▁inanır	-10.6228
▁yarattık	-10.6231
▁aradı	-10.6232
eger	-10.6233
▁olabildiğin	-10.6239
▁bag	-10.624
▁belediye	-10.6247
▁çamaşır	-10.6247
▁frekans	-10.6247
▁sıçra	-10.6247
▁protez	-10.6248
▁gücümüz	-10.6248
▁anımsa	-10.6248
▁gökada	-10.6248
▁resif	-10.6248
▁erkeğ	-10.6248
▁diren	-10.6251
▁umutsuz	-10.6251
▁bio	-10.6253
▁neşe	-10.6254
berg	-10.6255
laştırma	-10.6256
▁vadede	-10.6257
▁okulun	-10.6259
▁kazanan	-10.6259
▁akışı	-10.6262
▁aydın	-10.6265
▁nesneleri	-10.6269
▁temin	-10.627
▁edilemez	-10.627
▁amacıyla	-10.627
▁simdi	-10.6272
▁frank	-10.6272
▁çip	-10.6272
▁benzin	-10.6274
▁derler	-10.6276
▁düşünmemiz	-10.6278
▁yapabilme	-10.628
▁mary	-10.6286
▁topluluklar	-10.6286
▁gökyüzü	-10.6292
▁nüfusu	-10.6293
▁etrafındaki	-10.6294
dəki	-10.6301
▁yaraya	-10.6309
▁yaratıcılığı	-10.6313
▁yazarı	-10.6317
▁kullanacağı	-10.6323
▁güzelliği	-10.6327
▁oldugu	-10.6327
▁pul	-10.6337
▁başlık	-10.6342
▁birbirlerini	-10.6342
▁kusur	-10.6351
▁itiraf	-10.6352
▁orijinal	-10.6352
▁şikayet	-10.6352
▁korteks	-10.6352
▁tanık	-10.6355
▁çelişki	-10.6356
▁pasifik	-10.6356
▁gelmez	-10.6356
▁utanç	-10.6356
▁dikey	-10.6357
▁matematikçi	-10.6358
▁paris	-10.6359
▁latin	-10.6361
▁noktasında	-10.6361
▁olmalıydı	-10.6362
▁geliştiril	-10.6367
lenebilir	-10.6368
▁güvende	-10.6373
▁edebilme	-10.6375
▁aslin	-10.6378
abilmesi	-10.6386
▁toplumumuz	-10.6395
▁kadarıyla	-10.6398
▁okudum	-10.6402
▁sakla	-10.6402
▁türün	-10.6402
▁verdiğim	-10.6402
▁etmesini	-10.6404
old	-10.6408
lərlə	-10.6415
▁gelişimi	-10.6416
▁müziğin	-10.6422
mezler	-10.6422
lmaz	-10.643
▁öğrenir	-10.643
▁odadaki	-10.6434
eceğimizi	-10.6438
▁sevin	-10.644
▁ph	-10.644
▁soyu	-10.6445
▁şehirlerin	-10.6452
▁etik	-10.6455
▁alzheimer	-10.6457
▁körfez	-10.6457
▁filtre	-10.6457
▁golf	-10.6457
▁tedarik	-10.6457
▁gps	-10.6457
▁duygular	-10.646
▁kurumsal	-10.6461
▁sınav	-10.6462
▁vurgu	-10.6462
leşir	-10.6464
▁kavramı	-10.6465
▁görünme	-10.6466
▁kule	-10.6472
▁ismini	-10.6478
▁sayısını	-10.6479
▁yapılabil	-10.6479
▁adeta	-10.6492
▁şiddetli	-10.6494
▁parkı	-10.6499
▁aletler	-10.65
▁kazı	-10.6501
lüğ	-10.6508
▁edebileceğiniz	-10.6509
▁gizemli	-10.6511
▁olmazdı	-10.652
▁kullanabileceği	-10.6523
▁sevdikleri	-10.653
▁kullanmayı	-10.6534
▁duyduğunuz	-10.6543
▁tele	-10.6556
▁has	-10.6561
▁kılavuz	-10.6563
▁motivasyon	-10.6563
▁silikon	-10.6563
▁şarap	-10.6563
▁hakikat	-10.6563
▁süt	-10.6563
▁lazer	-10.6563
▁zorunlu	-10.6565
▁göreceğiz	-10.6567
▁dönelim	-10.657
▁aktör	-10.6572
▁çelik	-10.6576
deyken	-10.6577
▁bekleyen	-10.6579
▁ışın	-10.6586
▁öngör	-10.6588
▁dalış	-10.6588
▁diyecek	-10.6588
▁hazırlama	-10.6589
▁izleyen	-10.6593
▁bulunduğumuz	-10.6593
▁cins	-10.6594
▁yansı	-10.6596
▁bakıyoruz	-10.6603
▁soyle	-10.6605
laşıyor	-10.6607
▁rica	-10.6609
▁eğitme	-10.6617
▁düşündüğü	-10.6617
▁çalma	-10.6619
▁karşılaştığı	-10.662
▁yürüdü	-10.6621
▁tanımlay	-10.6626
▁kısme	-10.6626
▁cihazlar	-10.6627
▁bölgeler	-10.6628
▁roma	-10.6629
▁korkma	-10.6638
duğunda	-10.6644
▁göründüğü	-10.6644
▁şartlar	-10.6653
▁dh	-10.666
▁muhtemel	-10.6661
▁devletin	-10.6662
▁arkadaşlar	-10.6664
▁değişimin	-10.6664
▁bahseder	-10.6665
▁dinozor	-10.6671
▁rehber	-10.6671
▁mikroskop	-10.6671
▁istasyonu	-10.6671
▁görmüyor	-10.6672
▁papa	-10.6673
▁kaydetti	-10.6674
▁trans	-10.6674
▁kanı	-10.6674
▁değiştirecek	-10.6676
▁yapabildiği	-10.6676
▁yararı	-10.6678
▁istiyorsak	-10.668
lanacak	-10.6681
▁yaşlarında	-10.6682
▁şempanzeler	-10.6689
▁mes	-10.669
▁insansız	-10.6691
stro	-10.6694
çü	-10.6694
▁öğrendiğimiz	-10.6695
▁düşünerek	-10.6697
▁yönünde	-10.6703
▁rakamlar	-10.6711
▁okyanusu	-10.6711
▁öden	-10.6713
▁kardeşi	-10.6714
▁ülkedeki	-10.6731
▁bilgisayarın	-10.6735
▁farketme	-10.6735
▁perde	-10.674
▁olayın	-10.674
▁olacağım	-10.6743
▁homo	-10.6746
▁baylar	-10.6748
▁buradayım	-10.6749
▁nüfusunu	-10.6757
▁bankası	-10.6759
▁gerçekleşiyor	-10.6769
▁evinde	-10.6769
ymış	-10.677
▁dağıtım	-10.6772
▁beklenmedik	-10.6779
▁önyargı	-10.6779
▁fotograf	-10.678
▁keskin	-10.6781
▁kutbu	-10.6781
▁biriktir	-10.6782
▁yangın	-10.6782
▁görünüm	-10.6784
▁sanmıyorum	-10.6784
▁ekipman	-10.6784
▁kuyruklu	-10.6784
▁kapak	-10.6786
▁başardık	-10.6787
▁konuşurken	-10.6789
▁öğrenmeye	-10.6791
▁sistemlerin	-10.6801
▁çılgınca	-10.6801
luğunu	-10.6803
▁özüm	-10.6803
▁poster	-10.6804
▁10.000	-10.6805
▁gerçekleşti	-10.6808
▁tasarımın	-10.6812
▁gülüşler	-10.6816
▁arkasındaki	-10.6816
▁işimiz	-10.6818
▁ağacın	-10.6818
▁seviyesinde	-10.6819
▁yolculuğ	-10.6822
▁yanımda	-10.6823
▁elini	-10.6825
▁dergisi	-10.683
▁heyecanlandır	-10.6834
▁ağız	-10.6845
▁bozu	-10.6848
▁hatırlayın	-10.6849
▁she	-10.6861
▁kurt	-10.6863
▁programlama	-10.6886
▁kaplan	-10.6889
▁alışkanlık	-10.6889
▁gübre	-10.6889
▁koruyucu	-10.6889
▁meclis	-10.6889
▁somut	-10.6889
▁ayrıldı	-10.6894
▁yazılı	-10.6895
▁diyebiliriz	-10.6896
▁vereyim	-10.6897
▁yaparız	-10.6897
▁arayı	-10.6898
▁yaparsınız	-10.6899
▁hattı	-10.6904
▁annemin	-10.691
▁çocuklarım	-10.6924
▁birbirimiz	-10.6926
▁harcay	-10.6926
▁kurduğu	-10.6931
▁evrimin	-10.6938
▁bob	-10.6941
▁gerçekçi	-10.6948
▁incil	-10.6949
▁yükle	-10.6949
▁kurtulma	-10.6956
▁etmişti	-10.6956
▁kesme	-10.6964
▁ray	-10.6974
▁fran	-10.6975
▁erişimi	-10.6978
▁büyüdüm	-10.6982
▁genomu	-10.6984
ymiş	-10.699
▁yetişkinler	-10.6993
▁pasif	-10.6997
▁liberal	-10.7
▁jenerasyon	-10.7
▁radyasyon	-10.7
▁sıkıştır	-10.7
▁bilinmeyen	-10.7003
▁salınım	-10.7003
▁paylaşım	-10.7004
▁ölmüş	-10.7005
▁komut	-10.7007
▁ulaştığı	-10.7009
▁vadisi	-10.7009
▁siber	-10.7011
▁çekilmiş	-10.7012
▁görebiliyoruz	-10.7012
▁doğası	-10.7016
▁söylemişti	-10.7021
▁kaldık	-10.703
▁gücüne	-10.7031
▁sinema	-10.7051
digim	-10.7053
▁okyanuslar	-10.7053
▁özen	-10.7059
▁jim	-10.708
▁boyle	-10.7086
▁ulaşabil	-10.7087
ling	-10.7089
üsü	-10.7099
▁ms	-10.7099
▁sorduğum	-10.7102
▁oynamak	-10.7112
▁konsept	-10.7113
▁sebze	-10.7113
▁həqiqətən	-10.7113
▁məktəb	-10.7113
▁ətraf	-10.7113
▁boston	-10.7113
▁tabiki	-10.7113
▁cidden	-10.7113
▁kaybettiği	-10.7113
▁element	-10.7114
▁bölümünü	-10.7115
▁metod	-10.7115
▁gittiğimde	-10.7116
▁yetenekli	-10.7118
riyi	-10.7119
▁bölgeleri	-10.7119
▁anlamamız	-10.7122
▁demək	-10.7122
▁yaşta	-10.7132
▁yaparsanız	-10.7133
▁yollarını	-10.7138
▁içlerinde	-10.7139
▁bölgelerinde	-10.7141
▁amca	-10.7152
▁görünüyordu	-10.7154
▁yarısını	-10.7159
asiya	-10.7164
▁gidiyoruz	-10.7164
▁kolaylaştır	-10.7169
▁kültürün	-10.7173
▁akış	-10.7177
▁duyduğu	-10.7185
▁açmak	-10.7193
ildiğinde	-10.7197
▁boşal	-10.7201
▁oldugunu	-10.7206
▁32	-10.7208
▁haberleri	-10.7211
▁əla	-10.7211
meyeceğini	-10.7216
▁sade	-10.7217
▁dışarıya	-10.7223
▁oluruz	-10.7224
▁kapitalizm	-10.7226
▁intihar	-10.7226
▁kağıdı	-10.7227
▁kendiliğinden	-10.7227
▁rejim	-10.7227
▁oğlan	-10.7227
▁nakli	-10.7227
▁kusursuz	-10.7228
▁deyir	-10.7229
▁reform	-10.723
▁kabullen	-10.7231
▁portre	-10.7231
▁içgüdü	-10.7231
▁simge	-10.7231
▁edeceğiz	-10.7233
▁lab	-10.7243
▁büyüdüğü	-10.7244
▁duyuyorum	-10.7246
▁önemsiz	-10.7249
▁öncesinde	-10.7256
▁koştu	-10.7261
lüğün	-10.7269
▁etkiliyor	-10.727
▁vererek	-10.7271
▁güncel	-10.7278
▁yerleştirme	-10.7278
▁eksikliği	-10.7278
liğimiz	-10.7279
▁dönüm	-10.728
▁zehir	-10.7282
▁ayrılma	-10.7291
▁uzmanları	-10.7293
▁örtüsü	-10.7294
▁paylaştığı	-10.7295
▁izlediği	-10.7295
▁edebilecek	-10.7299
▁hy	-10.7302
▁projeyi	-10.7313
▁geliştirdik	-10.7314
▁paylaştı	-10.7314
▁dışındaki	-10.7321
▁tamamını	-10.7321
▁katil	-10.7322
▁geleceğini	-10.7322
▁ildə	-10.7324
▁üyeleri	-10.7327
artan	-10.7333
akt	-10.7334
▁hatırlıyor	-10.7334
▁193	-10.7337
▁hani	-10.7338
▁başlamış	-10.7339
▁meşhur	-10.7341
▁bilişsel	-10.7341
▁ömür	-10.7341
▁kabuk	-10.7342
▁istəyirəm	-10.7342
▁qadın	-10.7345
▁sokağ	-10.7349
▁bilge	-10.7351
▁verildi	-10.7352
▁metin	-10.7353
▁peter	-10.7354
▁gəlir	-10.7359
▁kaçınız	-10.7359
▁oluşumu	-10.736
▁yüzleş	-10.736
▁port	-10.737
▁hip	-10.7374
▁fit	-10.7375
▁çocukluk	-10.7377
▁dönmek	-10.7377
layacağım	-10.7378
▁besleme	-10.7379
▁elimizdeki	-10.738
▁iskelet	-10.7383
▁getirecek	-10.7384
▁dönen	-10.7384
▁düşündüğünüz	-10.7389
▁yıldızların	-10.7391
▁yiyor	-10.7396
▁değiştirmeye	-10.7398
▁yel	-10.7401
▁veriyorum	-10.7409
ustu	-10.7412
▁ettirme	-10.7414
▁bulundur	-10.7414
▁kuvvetli	-10.7418
▁duydukları	-10.7424
▁başlayabilir	-10.7425
▁oluştu	-10.7427
▁bildikleri	-10.7427
▁kapsam	-10.743
▁durur	-10.7435
▁istediler	-10.7443
▁gelmeye	-10.7445
▁eviniz	-10.7457
▁cömert	-10.7458
▁disiplin	-10.7458
▁dâhil	-10.7458
▁piyano	-10.7458
▁istisna	-10.7458
▁kemiği	-10.7458
▁terörizm	-10.7459
▁unutmayın	-10.746
▁gereği	-10.7461
▁geçirir	-10.7461
▁parçacıkları	-10.7461
▁kalmıyor	-10.7461
▁kəs	-10.7463
▁monte	-10.7463
▁martin	-10.7463
▁ölümü	-10.7464
▁qız	-10.7464
▁fiyatı	-10.7466
▁şüphesiz	-10.7468
▁disk	-10.747
luyoruz	-10.7472
▁kazanç	-10.7479
▁değiştirir	-10.7488
▁neresi	-10.7491
▁istersiniz	-10.7493
▁düşünüyordu	-10.7495
▁genelinde	-10.7501
▁sıcaklığı	-10.7502
▁giderse	-10.7505
▁davam	-10.7517
▁davranışları	-10.7518
▁zehirli	-10.7518
keresinde	-10.7522
▁varlığını	-10.753
▁şehirlerde	-10.7549
▁taşımak	-10.7553
tigi	-10.7561
▁kalitesi	-10.7562
▁gözlerini	-10.7571
tion	-10.7573
▁kartı	-10.7575
▁kaybetmiş	-10.7575
▁yepyeni	-10.7575
▁kullanışlı	-10.7575
▁tarayıcı	-10.7575
▁vesaire	-10.7575
▁hariç	-10.7575
▁sunucu	-10.7575
▁yapımcı	-10.7576
▁mutasyon	-10.7576
▁kariyerim	-10.7577
▁sunmak	-10.7578
▁gösterecek	-10.7579
▁patron	-10.7579
▁meselesi	-10.7582
▁kentsel	-10.7583
▁minik	-10.7584
▁konuştuğumuz	-10.7584
▁zira	-10.7586
▁gösterilen	-10.7589
▁tasarlamak	-10.7592
▁boyutta	-10.76
▁250	-10.76
▁yapılabilir	-10.7601
▁korkusu	-10.7602
▁yazmak	-10.761
▁bahar	-10.7611
▁büyüyor	-10.7613
▁açtığı	-10.7613
▁sure	-10.7618
▁almayı	-10.7622
▁amaçlı	-10.7625
▁oynar	-10.7628
▁uc	-10.7632
▁bank	-10.7633
▁yakaladı	-10.7634
▁alabilirsiniz	-10.7638
▁çözmeye	-10.7638
▁çalışmıyor	-10.7646
▁öğrencilerim	-10.7649
▁karmaşıklığı	-10.765
▁karşılaşma	-10.7652
▁oluşturduk	-10.7652
▁müzesi	-10.7655
▁once	-10.7656
▁formları	-10.7656
▁aldığınız	-10.7659
▁kurtarmak	-10.766
layabileceği	-10.7661
▁öğretmenleri	-10.7661
▁dinledi	-10.7663
▁kalktı	-10.7665
▁sanatın	-10.7679
▁kullandım	-10.7682
▁cerrahi	-10.7686
dıklarında	-10.7686
▁çıkması	-10.7693
▁kromozom	-10.7694
▁filistin	-10.7694
▁mutsuz	-10.7694
▁maddi	-10.7695
▁sevimli	-10.7695
▁aktivist	-10.7695
▁mezar	-10.7696
▁qoy	-10.7697
▁fırın	-10.7697
▁metro	-10.7699
▁kötüsü	-10.7699
▁alkol	-10.7703
▁ayırt	-10.7706
▁yazan	-10.7709
▁kaos	-10.7712
▁mantığı	-10.7712
▁açıp	-10.7716
▁görebilme	-10.7718
▁hint	-10.7722
▁bitkilerin	-10.7722
▁sorgulama	-10.7732
▁okyanusta	-10.7735
▁beyninin	-10.7736
▁gidin	-10.7739
▁alındı	-10.7741
▁sıkışı	-10.7744
▁olmayabilir	-10.7749
▁soldaki	-10.7752
▁yaşanan	-10.7753
▁2005	-10.7755
▁eşyaları	-10.7756
▁atalarımız	-10.7757
▁yerlerinde	-10.7759
▁olmayacağı	-10.776
▁yapıldığı	-10.7763
▁çıkarıp	-10.7766
▁bilimciler	-10.7782
▁öğrendi	-10.7792
▁olmasından	-10.7795
▁kalmadı	-10.7796
▁istemedi	-10.7797
▁işliyor	-10.7797
▁döngüsü	-10.7805
▁tüketimi	-10.7808
▁taşındı	-10.7808
▁birleşi	-10.7813
▁kırılgan	-10.7815
▁uğultu	-10.7815
▁çember	-10.7815
▁alakası	-10.7815
▁yahudi	-10.7815
▁torba	-10.7815
▁şov	-10.7815
▁mikrofon	-10.7815
▁dizüstü	-10.7815
▁selam	-10.7819
:	-10.7822
▁bulabilirsiniz	-10.7825
▁düştüğü	-10.7826
ğr	-10.7829
▁zincir	-10.7833
▁dönüştürül	-10.7834
▁robotik	-10.7841
amadığı	-10.7847
▁etkileme	-10.7853
▁inanmak	-10.7854
▁değişir	-10.7871
▁ekim	-10.7881
▁makineleri	-10.7891
▁silahlı	-10.7892
▁koyduğu	-10.7901
▁yapıldığını	-10.7901
▁keşfettiği	-10.7901
▁yayınladı	-10.7902
▁ilişkili	-10.7907
▁maliyetli	-10.7911
▁koydum	-10.7917
▁yolcu	-10.7921
▁şeffaf	-10.7926
▁temizleme	-10.7932
▁teşkil	-10.7937
▁ressam	-10.7937
▁üzgünüm	-10.7937
▁nazik	-10.7939
▁edirəm	-10.794
▁dizilim	-10.7942
▁diyebilirsiniz	-10.7944
▁başladığımda	-10.7948
▁verilme	-10.7949
▁düşünmüyoru	-10.7951
▁kaplı	-10.7957
ləşdir	-10.7961
▁yapardı	-10.7965
laştı	-10.7968
▁alırsınız	-10.7972
▁karşılaştırma	-10.7972
▁mola	-10.7973
▁olacağına	-10.7983
▁190	-10.7984
▁etken	-10.7989
▁yeryüzünde	-10.7996
etmek	-10.801
▁yapıcı	-10.8015
▁miras	-10.8024
▁bağlıdır	-10.8049
▁19.	-10.805
▁feminist	-10.806
▁şebeke	-10.806
▁muhabir	-10.806
▁ölkə	-10.806
▁gerektirir	-10.806
▁optik	-10.8061
▁kumanda	-10.8062
▁ödev	-10.8062
▁ulaşılabilir	-10.8063
▁zıp	-10.8065
▁destekleyen	-10.8067
▁ayakları	-10.8068
▁dibin	-10.8071
▁dördü	-10.8073
▁sözlük	-10.8076
metre	-10.8089
çok	-10.8092
▁sopa	-10.8093
leştiriyor	-10.8098
▁yapıyorsunuz	-10.8102
bilim	-10.8115
▁kızıl	-10.8122
▁üretebil	-10.8124
▁kapatma	-10.8131
▁oradaydı	-10.8132
11	-10.8138
▁kuruluşları	-10.8144
ğunu	-10.8144
ment	-10.816
▁bozuk	-10.8174
▁dinazor	-10.8185
▁enstrüman	-10.8185
▁otomobil	-10.8185
▁yerleşim	-10.8185
▁hacker	-10.8185
▁torunları	-10.8185
▁uzerin	-10.8186
▁tören	-10.8186
▁malzemeleri	-10.8186
▁iyileştir	-10.8188
▁seyred	-10.819
▁boğul	-10.8194
▁etmeliyiz	-10.8195
▁kitapta	-10.8196
▁küreselleşme	-10.8198
▁bahsediyoruz	-10.8199
▁düşünürken	-10.8204
▁36	-10.8205
▁olmalısınız	-10.8205
▁taşır	-10.8208
▁bölümünde	-10.8234
malıdır	-10.8234
▁göremedi	-10.8236
▁buzun	-10.8241
▁eğ	-10.8249
▁yavaşlat	-10.8263
▁bugünün	-10.8264
▁devri	-10.8265
▁meraklı	-10.8266
▁molekülleri	-10.8274
▁yut	-10.8275
▁yaratmaya	-10.8275
▁süreli	-10.8278
▁kuran	-10.828
▁hic	-10.8281
▁şehr	-10.8285
▁yayılması	-10.8287
▁yapmıştı	-10.8288
eşke	-10.8291
▁yapmasını	-10.8293
▁kabiliyeti	-10.8295
▁örgütü	-10.8297
▁2004	-10.83
▁edebilmek	-10.8306
▁hüküm	-10.8308
▁kullanıldı	-10.8309
▁çağında	-10.831
▁antibiyotik	-10.8312
▁hipotez	-10.8312
▁mutfak	-10.8312
▁figür	-10.8312
▁formül	-10.8312
▁korktu	-10.8312
▁maske	-10.8312
▁maddə	-10.8312
▁günəş	-10.8312
▁kaygı	-10.8312
▁haiti	-10.8312
▁psiko	-10.8313
▁gerektiren	-10.8313
▁kalkınma	-10.8314
▁tanıştığım	-10.8317
▁okuyor	-10.8319
▁yayıldı	-10.8321
▁satıcı	-10.8325
▁kapsamlı	-10.8326
▁söylendi	-10.8327
▁yapılır	-10.8331
▁biliyorsun	-10.8331
▁çalışacak	-10.8332
▁söylemem	-10.8338
▁galeri	-10.8342
▁bacağı	-10.8346
▁topluyor	-10.8347
▁yatıyor	-10.8349
▁ex	-10.8364
▁bittiği	-10.8379
▁başladığım	-10.838
▁çocuklarımızı	-10.8384
▁uyuş	-10.8388
▁ikisinin	-10.839
▁başladığını	-10.8392
malıyım	-10.8394
▁yanındaki	-10.8402
▁kutlama	-10.8412
▁silahları	-10.8423
sünüz	-10.843
▁derek	-10.843
▁sessizlik	-10.8432
▁paylaşıyor	-10.8436
▁ölür	-10.8437
▁yaşıyordu	-10.8439
▁mürekkep	-10.844
▁məsələ	-10.844
▁olacaq	-10.844
▁çeşidi	-10.844
▁nəticə	-10.844
▁ekstra	-10.844
▁ideoloji	-10.844
▁suriye	-10.844
▁tünel	-10.844
▁sonuçlarını	-10.8445
▁duman	-10.8445
▁ölçeği	-10.8446
▁kurucu	-10.8448
▁bono	-10.8448
▁adapt	-10.845
▁beton	-10.8451
wood	-10.8455
landığını	-10.8467
▁şiddetin	-10.8473
▁kuralı	-10.8477
▁bastır	-10.8479
▁dayanıyor	-10.8479
▁yayılan	-10.8484
duğunuzda	-10.8485
abiliyordu	-10.8486
▁hamur	-10.8488
▁söyleyin	-10.8492
▁gerekecek	-10.8507
▁uçma	-10.8511
▁kenarında	-10.8514
▁gidiş	-10.8527
▁koşul	-10.8529
▁eğil	-10.8531
▁çarpma	-10.8535
▁kardeşleri	-10.8537
▁bıraktığı	-10.8541
▁içinizde	-10.8549
▁götürüyor	-10.8556
▁kılı	-10.8563
▁kuyruk	-10.8564
▁yeter	-10.8569
lüğünü	-10.8569
▁partner	-10.857
▁çubuk	-10.857
▁çukur	-10.857
▁şerit	-10.857
▁tümüyle	-10.857
▁çarpışma	-10.8571
▁ulduz	-10.8571
▁büyüklükte	-10.8571
▁kulağı	-10.8572
▁düşünmüştü	-10.8573
▁örtü	-10.8574
▁bell	-10.8575
▁tekniği	-10.8575
▁memeliler	-10.8583
▁anlıyorum	-10.8583
▁sırrı	-10.8584
▁aptalca	-10.8585
▁işgal	-10.8586
▁şair	-10.8592
▁adaları	-10.8593
▁aleti	-10.8595
▁düşünmeniz	-10.86
▁duymuş	-10.8604
▁hayatınızı	-10.8607
▁üçüncüsü	-10.8614
▁yuvarlak	-10.8615
▁alqışlar	-10.8618
▁inanan	-10.862
▁hastalıkların	-10.8624
▁bugünlerde	-10.8627
tığınızda	-10.8628
▁hoca	-10.8629
▁severi	-10.8633
▁28	-10.8634
▁dakikalık	-10.8636
▁rota	-10.8643
▁kul	-10.8645
▁gördüğümde	-10.8646
▁birbirimizi	-10.8653
▁korkar	-10.866
▁okudu	-10.8664
▁ısır	-10.8664
▁başlığı	-10.8669
rəm	-10.8674
▁kullanabil	-10.8683
▁sınırı	-10.8684
▁haklarını	-10.8685
yıllardır	-10.8691
▁geliştirdi	-10.8696
▁ısrar	-10.8701
▁diyalog	-10.8701
▁karaciğer	-10.8701
▁kosmos	-10.8701
▁federal	-10.8701
▁inovasyon	-10.8701
▁nobel	-10.8702
▁anatomi	-10.8702
▁uganda	-10.8702
▁zıt	-10.8702
▁dəfə	-10.8702
▁kuzen	-10.8702
▁sezon	-10.8702
▁mizah	-10.8702
▁kısıt	-10.8702
▁paralel	-10.8703
▁netice	-10.8703
▁baktığımda	-10.8704
▁təsir	-10.8704
▁cisim	-10.8704
▁yaratabilir	-10.8713
layabiliyor	-10.8725
məyi	-10.8727
▁çocukluğum	-10.8729
▁kullanıyorum	-10.8738
başı	-10.874
▁big	-10.8743
▁işimi	-10.8746
▁gönderiyor	-10.8746
▁resmini	-10.8751
▁keşfettim	-10.8752
liyordu	-10.8753
▁çekimi	-10.8757
▁kalmayı	-10.8769
ışını	-10.8769
▁öldürdü	-10.8776
▁çıkardık	-10.8785
▁duyan	-10.8786
▁götürür	-10.8794
▁yazılımı	-10.8794
▁uğraşıyor	-10.8801
▁dinleyici	-10.8804
▁ödüllendir	-10.8815
▁kaybediyor	-10.8818
▁oluşmuş	-10.8824
▁anlatan	-10.8829
▁kazanıyor	-10.883
▁aramaya	-10.8832
▁kalırsa	-10.8835
▁istikrar	-10.8835
▁tropik	-10.8835
▁enteresan	-10.8835
▁geometri	-10.8835
▁haqqında	-10.8835
▁sekilde	-10.8835
▁simülasyon	-10.8835
▁cavab	-10.8835
▁fiziği	-10.8835
▁acımasız	-10.8835
▁sentez	-10.8835
▁doğmuş	-10.8836
▁ironi	-10.8836
▁telif	-10.8836
▁robert	-10.8837
▁göreceğiniz	-10.8837
▁göstermeye	-10.8838
▁kaderi	-10.8839
▁oturduğu	-10.8839
▁ilişkilendir	-10.8843
▁yetecek	-10.8844
▁kuram	-10.8847
▁məh	-10.8849
▁geçirdik	-10.8857
mezdi	-10.8864
▁saklı	-10.8865
▁giz	-10.8865
▁bakanlığı	-10.8871
▁mısın	-10.8882
▁hita	-10.8883
▁rio	-10.889
▁küp	-10.889
▁motoru	-10.8894
▁salla	-10.8894
▁vazgeçme	-10.8895
▁geçecek	-10.8898
▁başarısızlık	-10.8899
▁uçurum	-10.8905
▁salonun	-10.8908
▁moleküle	-10.8912
▁yürütü	-10.8914
▁kg	-10.8915
▁bilinir	-10.8915
▁silin	-10.8917
▁benzediğini	-10.8918
▁ilaçların	-10.8925
▁okuduğum	-10.893
▁yarısında	-10.8933
▁isterdi	-10.894
▁tanıştır	-10.8943
▁yollarla	-10.8946
burg	-10.8948
▁organizasyonu	-10.895
▁düşünmüyor	-10.8957
laştığı	-10.8961
▁sinyalleri	-10.8964
▁bitti	-10.8964
▁kalmıştı	-10.8968
▁helikopter	-10.897
▁hükumet	-10.897
▁eşcinsel	-10.897
▁şapka	-10.897
▁batarya	-10.897
▁istəyir	-10.897
▁tərəfində	-10.8971
▁çaresiz	-10.8971
▁santral	-10.8972
▁1960'	-10.8972
▁2011	-10.8973
▁giysi	-10.8974
▁bakanı	-10.8975
▁canlandırma	-10.8976
▁dikkatini	-10.8977
▁tasarlay	-10.8977
▁düşünürsek	-10.8977
▁yapamayacağı	-10.8978
▁birbiri	-10.898
▁davranışsal	-10.8982
▁birçoğunuz	-10.8992
▁gözlük	-10.8994
▁kısıtlama	-10.8994
▁kaydetme	-10.8996
▁başvur	-10.8997
▁dünyamızı	-10.8998
▁düzenlen	-10.9001
▁davranma	-10.9001
▁bitirdi	-10.9001
▁dinleyiciler	-10.9007
▁bırakıp	-10.9007
▁kurar	-10.9008
▁bakıyorum	-10.9013
▁sorduğu	-10.9013
▁yüzeyinde	-10.9022
▁seçimleri	-10.9041
▁kullanılma	-10.9041
▁ticareti	-10.9042
▁eşitlik	-10.9043
▁karşılaştığımız	-10.9048
.♫	-10.9054
▁ödedi	-10.9056
▁yarışı	-10.9058
▁elektriği	-10.9061
▁olmaq	-10.9064
▁pişirme	-10.9065
▁edinme	-10.9067
▁düzenledi	-10.9076
▁bittiğini	-10.9077
▁durumunu	-10.9081
laşır	-10.9089
▁çit	-10.9091
▁isteyeceği	-10.9091
▁satır	-10.91
▁gazı	-10.9105
▁hollywood	-10.9107
▁istihbarat	-10.9107
▁çikolata	-10.9107
▁street	-10.9107
▁emniyet	-10.9107
▁sabır	-10.9107
▁rekor	-10.9107
▁vadeli	-10.9108
▁bozukluk	-10.9109
leştirdi	-10.911
▁taşıyıcı	-10.9111
▁düğüm	-10.9114
▁noel	-10.9116
▁sorunumuz	-10.9121
▁çıktığını	-10.9123
amazdı	-10.9124
▁mega	-10.9127
▁güce	-10.913
▁üretilen	-10.913
digini	-10.9131
biliyorum	-10.9137
▁içimizde	-10.9137
▁fikrimiz	-10.914
▁tüketim	-10.9143
▁akıllıca	-10.9147
▁gereksiz	-10.9149
▁pound	-10.915
▁yaramaz	-10.9152
▁grub	-10.9153
▁içimde	-10.9162
mazsınız	-10.9168
kav	-10.9179
▁yeryüzü	-10.9182
▁becer	-10.9185
▁bozukluğu	-10.9189
▁anlaş	-10.9193
▁getirebilir	-10.9195
▁önlem	-10.9195
▁rob	-10.9197
▁diken	-10.92
deydim	-10.9205
▁getirmeye	-10.9206
▁hâlin	-10.9217
▁molekülü	-10.9219
▁hintli	-10.9226
▁trend	-10.9239
▁yerleştiril	-10.924
▁düşünecek	-10.9241
▁olağan	-10.9245
▁manhattan	-10.9246
▁bahsetmiyor	-10.9246
▁hollanda	-10.9246
▁hristiyan	-10.9246
▁kurbağa	-10.9246
▁referans	-10.9246
▁növ	-10.9246
▁çətin	-10.9246
▁çevrimiçi	-10.9246
▁çamur	-10.9246
▁beləliklə	-10.9246
ight	-10.9247
▁gergin	-10.9248
▁eşitsizlik	-10.9248
▁ceo	-10.925
▁dönüşüyor	-10.925
▁degis	-10.9255
▁asit	-10.927
▁gidiyordu	-10.9271
▁düşünmeyi	-10.9274
▁şəkildə	-10.9275
▁anlatır	-10.9275
▁yükselme	-10.9279
▁çevirdi	-10.928
▁bitiş	-10.9282
▁farkındalık	-10.9292
▁kirli	-10.9298
▁edemiyor	-10.9298
▁olmasaydı	-10.9299
▁robotun	-10.9304
▁içten	-10.931
▁muydu	-10.9313
▁açılma	-10.9316
▁metan	-10.9325
▁qar	-10.9331
lanmamış	-10.9334
▁tepesinde	-10.9346
▁enstitü	-10.935
▁performansı	-10.9353
▁bireylerin	-10.9362
▁keşfetti	-10.9367
▁california	-10.9387
▁koridor	-10.9387
▁musiqi	-10.9387
▁pirinç	-10.9387
▁şablon	-10.9387
▁hiçbirşey	-10.9387
▁cocuk	-10.9387
▁attığı	-10.9388
▁vb	-10.9389
▁basamak	-10.9391
▁yitir	-10.9391
▁1990'	-10.9391
▁ipek	-10.9393
▁basınç	-10.9395
▁kabin	-10.9398
▁uçtu	-10.9404
▁26	-10.9406
▁burnu	-10.9408
▁100.000	-10.941
▁krallık	-10.941
▁fikr	-10.941
▁10,000	-10.9411
▁eserleri	-10.9413
▁bozulma	-10.9413
▁bakıyorsunuz	-10.9413
▁götürü	-10.9419
▁eleştir	-10.942
▁çıkarak	-10.9429
▁my	-10.9434
iken	-10.9435
▁yaxın	-10.9453
▁birbirini	-10.9456
▁burun	-10.9458
▁bardak	-10.9473
▁elinizi	-10.9488
▁birikim	-10.949
▁arkadaşlarınız	-10.9493
▁istediklerini	-10.9493
▁120	-10.9495
▁fotoğrafını	-10.95
▁anlayama	-10.9501
▁komşuları	-10.9502
▁kısıtlı	-10.9504
▁gerçeğ	-10.9506
▁evimiz	-10.9514
▁şansımız	-10.952
▁iplik	-10.9522
▁değişiklikleri	-10.9524
▁anlamsız	-10.9525
▁mevsim	-10.953
▁bıçak	-10.953
▁gecekondu	-10.953
▁hərəkət	-10.953
▁karmaşa	-10.953
▁negatif	-10.953
▁qalaktika	-10.953
▁öbür	-10.953
▁aygıt	-10.953
▁psikolog	-10.953
▁reçete	-10.953
▁yolsuzluk	-10.953
▁emisyon	-10.953
▁kraliçe	-10.953
▁sentetik	-10.953
▁vakfı	-10.953
▁ebola	-10.953
▁ultra	-10.953
▁esnasında	-10.953
▁çöküş	-10.953
▁kalori	-10.953
▁kızgın	-10.953
▁profil	-10.953
▁denizaltı	-10.9533
▁evlenme	-10.9535
▁köyün	-10.9537
▁işlevsel	-10.954
▁yaşayacak	-10.954
▁danışma	-10.9557
▁oynayan	-10.956
diyini	-10.9561
▁ilgimi	-10.9566
▁isimlendir	-10.9567
▁apar	-10.9568
▁pişir	-10.9574
▁baska	-10.9584
▁yetkili	-10.959
▁eleştiri	-10.9591
üstü	-10.9591
10	-10.9606
▁davranışlarını	-10.9606
▁yayımla	-10.9611
▁beraberinde	-10.9611
▁nerde	-10.9611
▁hissetti	-10.9615
▁bölü	-10.9622
▁gerekmiyor	-10.9626
▁değerini	-10.9629
▁düşündüğünüzde	-10.9631
▁açıkladı	-10.9641
▁fotoğrafta	-10.9643
▁gelişimin	-10.9644
▁umur	-10.9647
▁kuruluşu	-10.9648
▁azaldı	-10.9649
▁duruş	-10.965
▁tahri	-10.9658
▁yapmadı	-10.966
▁vatandaşları	-10.9673
▁nöroloji	-10.9674
▁koltuğu	-10.9675
▁artıq	-10.9675
▁akıntı	-10.9675
▁kumaş	-10.9675
▁bedeli	-10.9675
▁transfer	-10.9675
▁alınmış	-10.9676
▁söyleyeyim	-10.9677
▁vermiyor	-10.9677
▁aşina	-10.9677
▁prens	-10.9681
▁kongo	-10.9682
▁mutluyum	-10.9682
▁yoğunluk	-10.9684
▁yeraltı	-10.9685
▁yenilenebilir	-10.969
▁etkinlik	-10.9696
▁inkar	-10.9697
▁tuttuğu	-10.9697
▁sürecinde	-10.9701
▁haliyle	-10.9701
▁yosun	-10.9705
▁kaldırma	-10.971
▁ilgilenen	-10.9717
▁miktarını	-10.9717
ırıq	-10.9725
▁sebebiyle	-10.9725
▁lüks	-10.9731
larımla	-10.9737
▁inci	-10.9744
▁yaratık	-10.9747
▁yiyeceği	-10.975
▁böcekleri	-10.9762
▁dolduru	-10.9766
▁alqış	-10.9768
nny	-10.9788
▁hesabı	-10.9811
▁halihazırda	-10.9822
▁imparator	-10.9822
▁dramatik	-10.9822
▁rüşvet	-10.9822
▁motive	-10.9822
▁haziran	-10.9822
▁titreşim	-10.9822
▁varoluş	-10.9822
▁görünmüyor	-10.9823
▁imalat	-10.9824
▁değiştiğini	-10.9824
▁yuzde	-10.9826
▁pişmanlık	-10.9827
▁korsan	-10.9827
▁bakımından	-10.9828
▁yıkıcı	-10.9828
▁konuşmacı	-10.9829
▁hələ	-10.9829
▁söylenen	-10.983
▁2006	-10.9831
leşen	-10.9831
▁koşulları	-10.9833
▁benzetme	-10.9836
▁çalışmasını	-10.9836
▁matt	-10.9851
▁başlarında	-10.9851
▁tank	-10.9855
▁emek	-10.9858
▁uğraşan	-10.9864
▁bankacı	-10.9868
▁deneysel	-10.9871
▁çıxar	-10.9883
▁vermişti	-10.9883
▁çakı	-10.9883
▁yakalanma	-10.9889
▁yansıma	-10.9894
▁gam	-10.9904
▁dinliyor	-10.9908
▁yıkıl	-10.9911
▁çıktığında	-10.9914
▁verdiğiniz	-10.9917
▁geleceğimiz	-10.9924
▁bahsettiği	-10.9933
▁sundu	-10.9938
▁gercekte	-10.9939
▁hastalığ	-10.9943
▁faydası	-10.9946
▁wall	-10.9949
▁üretir	-10.9951
▁bulaşıcı	-10.9971
▁güvercin	-10.9971
▁isviçre	-10.9971
▁kahverengi	-10.9971
▁qaranlıq	-10.9971
▁trajedi	-10.9971
▁üzücü	-10.9971
▁şaşkın	-10.9971
▁banyo	-10.9971
▁retina	-10.9971
▁çürü	-10.9971
▁dağınık	-10.9972
▁darbe	-10.9972
▁fiber	-10.9972
▁parazit	-10.9972
▁başlatma	-10.9972
▁kaçak	-10.998
▁buluyorum	-10.9986
▁hiper	-10.9993
▁üretimin	-10.9994
▁etməyə	-11.0013
▁bilmeniz	-11.0013
▁bildirim	-11.0029
▁yoksulluğu	-11.0031
▁vurma	-11.0033
▁geçiren	-11.0036
▁boyutları	-11.0041
▁bağımlılık	-11.0044
▁salgı	-11.0046
▁alıyordu	-11.0047
▁programcı	-11.0049
▁çalışacağım	-11.0059
▁star	-11.0062
▁köşesinde	-11.0075
▁bahsettiğimiz	-11.0075
▁kurulmuş	-11.0079
▁açıldı	-11.0083
▁başvuru	-11.0092
▁donmuş	-11.0093
▁doğma	-11.0116
▁britanya	-11.0122
▁böceği	-11.0122
▁chicago	-11.0122
▁scott	-11.0122
▁arşiv	-11.0122
▁çekirdek	-11.0122
▁patates	-11.0122
▁reaksiyon	-11.0122
▁aldatma	-11.0122
▁onemli	-11.0122
▁gözəl	-11.0123
▁gerektiriyor	-11.0123
▁ödün	-11.0124
▁taze	-11.0124
▁şahane	-11.0125
▁solucan	-11.0125
▁esinlen	-11.0128
▁oxu	-11.0129
▁rock	-11.0131
▁penis	-11.0134
▁maşın	-11.0135
▁tahrip	-11.014
▁tutkulu	-11.0148
▁cür	-11.0148
▁haritasını	-11.0148
▁umursama	-11.0156
▁yapamıyor	-11.0156
▁genişleme	-11.0172
▁kirliliği	-11.0174
▁bağlaya	-11.0174
▁anlatıcı	-11.0174
▁inceliyor	-11.0178
▁amacımız	-11.0186
▁zorlukları	-11.019
▁sunduğu	-11.0195
▁koro	-11.0199
▁kullanılması	-11.0214
▁kafasını	-11.0219
▁butun	-11.022
▁kıy	-11.0224
▁şartları	-11.0227
▁hoşlanma	-11.0258
▁atlat	-11.0259
▁kullanılır	-11.0264
▁oynadı	-11.0271
▁festival	-11.0276
▁rezerv	-11.0276
▁william	-11.0276
▁paradigma	-11.0276
▁şükür	-11.0276
▁smith	-11.0276
▁stanford	-11.0276
▁aristo	-11.0276
▁çağdaş	-11.0276
▁aletleri	-11.0277
▁masum	-11.0277
▁ölecek	-11.0278
leştiren	-11.0282
▁kaynaklanıyor	-11.0283
▁cuma	-11.0283
▁dansçı	-11.0284
▁ilave	-11.0286
▁uçuyor	-11.0288
▁belgesel	-11.0289
▁evlat	-11.029
▁ordusu	-11.0297
▁cent	-11.0297
▁görüldüğü	-11.0305
▁emir	-11.0317
▁yankı	-11.0318
▁rahatsızlık	-11.0319
▁seçer	-11.032
▁yükselen	-11.032
▁havuzu	-11.0321
▁ihtiyac	-11.0345
▁çölü	-11.0346
▁beste	-11.0356
▁bulamadı	-11.0368
▁görünüşü	-11.0377
5.000	-11.0384
▁tıbb	-11.0386
▁səs	-11.0397
▁hızını	-11.04
▁evcil	-11.0406
▁uzaklaştır	-11.0418
▁halini	-11.0418
▁çocuklarınız	-11.0419
▁gülüşme	-11.0422
▁yağış	-11.0423
▁adlandırıla	-11.0424
▁həyatı	-11.0427
▁yığ	-11.0431
▁muhafaza	-11.0431
▁hormon	-11.0432
▁oxford	-11.0432
▁asteroid	-11.0432
▁fakülte	-11.0432
▁vasitə	-11.0432
▁zekâ	-11.0432
▁2012	-11.0433
▁başlıca	-11.0433
▁işkence	-11.0433
▁göğsü	-11.0433
▁ford	-11.0433
▁hakkinda	-11.0433
▁evvel	-11.0434
▁bencil	-11.0434
▁zarif	-11.0434
▁edemeyeceği	-11.0437
▁karışımı	-11.0439
▁gana	-11.044
▁kemer	-11.0441
▁kapağı	-11.0453
▁üzərində	-11.0453
▁eğiliminde	-11.0453
▁gayri	-11.0456
▁hidro	-11.0457
▁gökyüzünde	-11.0459
▁fərqli	-11.0462
▁üçgen	-11.0469
15	-11.0472
▁saray	-11.0481
▁geçirmiş	-11.049
▁rb	-11.0493
▁başladığında	-11.0493
▁gerçekleştiği	-11.05
▁akışını	-11.0508
▁kolunu	-11.051
▁kanalı	-11.0516
▁yaşamını	-11.0518
▁verdiğini	-11.053
▁aşamasında	-11.0536
▁alanlarında	-11.0539
▁eğim	-11.0562
▁kuramı	-11.0575
▁belirleye	-11.058
▁öyrə	-11.0583
malısın	-11.0585
▁elit	-11.059
▁muayene	-11.0591
▁sandviç	-11.0591
▁minnettar	-11.0591
▁mıknatıs	-11.0591
▁olimpiyat	-11.0591
▁peynir	-11.0591
▁estetik	-11.0591
▁ünite	-11.0591
▁yüce	-11.0592
▁ogren	-11.0592
▁cihad	-11.0592
▁afgan	-11.0593
▁görmə	-11.0593
▁hoşum	-11.0597
▁önemini	-11.0599
▁dönüşür	-11.0599
▁görebildiği	-11.0599
▁dövme	-11.06
▁imaj	-11.0601
▁kuşak	-11.0602
▁sayılır	-11.0603
▁derinliklerin	-11.0606
▁kalkıp	-11.0606
▁grafiği	-11.0607
▁salı	-11.061
leştirilmesi	-11.0611
▁işık	-11.0613
▁yardımıyla	-11.0614
▁oluşması	-11.0617
▁sayısal	-11.0618
▁hansı	-11.0621
▁stil	-11.0626
▁anlıyoruz	-11.0627
▁işleyen	-11.0628
▁görmüştü	-11.0637
▁göründü	-11.0642
▁eric	-11.0655
▁çalıyor	-11.0657
▁iskeleti	-11.0675
taşı	-11.0695
▁alarm	-11.0699
▁ardında	-11.0704
▁görülmemiş	-11.0705
abilmemiz	-11.0712
ılmamış	-11.0714
▁tadını	-11.072
▁alem	-11.073
▁2003	-11.0737
▁kaynaklarını	-11.0745
▁öncülü	-11.0747
arası	-11.0752
▁sovyet	-11.0752
▁coğrafi	-11.0752
▁gsyih	-11.0752
▁ispanyol	-11.0752
▁laboratuar	-11.0752
▁popülasyon	-11.0752
▁təhsil	-11.0752
▁əlaqə	-11.0752
▁gündüz	-11.0753
▁karşılığında	-11.0753
▁paraşüt	-11.0753
▁olub	-11.0753
▁eşitsizliğ	-11.0753
▁saldırgan	-11.0754
▁ırkçı	-11.0756
▁duymuşsunuz	-11.0756
▁hergün	-11.0757
▁arttırma	-11.0757
▁durak	-11.0758
▁vücudunu	-11.0759
▁lg	-11.076
▁isyan	-11.0761
▁geldiğimde	-11.0766
▁odaklı	-11.0774
▁görebiliyorum	-11.0774
▁0.	-11.0777
▁fiil	-11.078
▁dolusu	-11.0781
ilmemiş	-11.0782
▁çekilme	-11.0783
▁tabanı	-11.0784
▁çalar	-11.0791
▁yüzleşme	-11.08
▁görecek	-11.0801
▁gelmesini	-11.0807
▁kirlilik	-11.0815
▁salgının	-11.0822
▁gittiğimiz	-11.0833
▁kolaylık	-11.0845
eğer	-11.0848
mısınız	-11.0878
▁türünü	-11.0879
pek	-11.088
▁azalıyor	-11.0882
▁33	-11.0884
▁yayılmış	-11.0885
▁calisma	-11.0888
▁şempanze	-11.0888
▁istemediği	-11.0891
kac	-11.0893
▁tabu	-11.0893
▁kalitesini	-11.0895
▁led	-11.0897
▁biliniyor	-11.09
▁özünü	-11.0903
▁kaybeder	-11.0914
▁antarktika	-11.0916
▁acayip	-11.0916
▁aykırı	-11.0916
▁enfekte	-11.0916
▁ingilis	-11.0916
▁interaktif	-11.0916
▁sipariş	-11.0916
▁təşəkkür	-11.0916
▁atlantik	-11.0916
▁cinayet	-11.0916
▁umuyoruz	-11.0916
▁prensibi	-11.0916
seksüel	-11.0917
▁rakip	-11.0917
▁klip	-11.0917
▁beşinci	-11.0917
▁husus	-11.0917
▁mekaniği	-11.0919
▁sürət	-11.0922
▁direnci	-11.0925
▁anayasa	-11.0926
▁düzine	-11.0938
▁sokaklarda	-11.0939
▁tuş	-11.094
▁zorlama	-11.0943
▁hayatınızda	-11.0946
▁liman	-11.0953
▁çözülme	-11.0961
▁gelis	-11.0967
▁çabu	-11.0987
▁dalgalanma	-11.099
▁buluşma	-11.1002
▁mirası	-11.1003
▁konferansı	-11.1032
▁saklama	-11.1041
digimiz	-11.107
layabilecek	-11.1074
▁kombinasyon	-11.1083
▁müəllim	-11.1083
▁məlumat	-11.1083
▁alıkoy	-11.1083
▁dogru	-11.1083
▁nəzər	-11.1083
▁ihlal	-11.1083
▁kliniğ	-11.1083
▁özelliklerini	-11.1084
▁düşünürsünüz	-11.1084
▁imge	-11.1084
▁çene	-11.1086
▁uzaklıkta	-11.1086
▁editör	-11.1086
▁plak	-11.1088
▁yürürken	-11.109
▁diyebilirim	-11.1092
▁2001	-11.1097
▁şeffaflık	-11.1097
▁kadin	-11.1099
▁savaşçı	-11.111
▁yatırımcılar	-11.1111
▁dışkı	-11.1116
▁sanatsal	-11.1116
▁goru	-11.1121
▁kopar	-11.1149
▁kaçınma	-11.1149
▁düşmüş	-11.1152
ğum	-11.117
▁işlemci	-11.1188
▁destekliyor	-11.1188
rick	-11.1201
▁herbiri	-11.1222
▁gideli	-11.1227
▁dürtü	-11.1238
▁şahs	-11.1243
▁beklediği	-11.1245
▁durduru	-11.1249
▁enjekt	-11.1252
▁kuyruğu	-11.1252
▁tsunami	-11.1252
▁tweet	-11.1252
▁wikipedia	-11.1252
▁arjantin	-11.1252
▁coğrafya	-11.1252
▁entropi	-11.1252
▁mağdur	-11.1252
▁spektrum	-11.1252
▁volkan	-11.1252
▁uzaq	-11.1253
▁timsah	-11.1253
▁sistematik	-11.1253
▁galib	-11.1253
▁green	-11.1253
▁çiğ	-11.1253
▁takıntı	-11.1253
▁üzül	-11.1254
▁seçtiği	-11.1256
▁sakat	-11.1258
▁romantik	-11.1259
▁ortamında	-11.126
▁olalım	-11.1265
▁bitirme	-11.1274
▁kabiliyet	-11.1276
ville	-11.1276
▁kirlet	-11.1281
▁tutuklan	-11.1284
▁dikkatinizi	-11.129
▁gerçekleşmesi	-11.1297
layacağız	-11.1297
▁gezegenimizi	-11.1314
halde	-11.1316
▁verilmiş	-11.1321
▁eklem	-11.1326
▁keyfi	-11.1334
▁özünde	-11.134
▁bedenim	-11.1344
▁ayrılmış	-11.1346
▁eğitil	-11.1348
▁odasında	-11.1359
ləmə	-11.1362
▁yarattığımız	-11.1362
kaide	-11.1362
▁arkadaşlarımız	-11.1364
▁söylerdi	-11.1371
▁diyebilir	-11.1373
▁havuz	-11.1375
▁örgü	-11.1378
▁edildiğini	-11.139
▁sihir	-11.1398
▁esasın	-11.1405
▁başarama	-11.1412
▁firması	-11.1415
▁lisede	-11.1416
▁insanoğlunu	-11.1423
▁cambridge	-11.1425
▁florida	-11.1425
▁ispanya	-11.1425
▁kristal	-11.1425
▁oksitosin	-11.1425
▁süpermarket	-11.1425
▁vietnam	-11.1425
▁öldürücü	-11.1425
▁meslektaşım	-11.1425
▁origami	-11.1425
▁yozlaşma	-11.1425
▁primat	-11.1425
▁ampul	-11.1425
▁doğuştan	-11.1425
▁irade	-11.1425
▁açılış	-11.1427
▁gezgin	-11.1427
▁aktiv	-11.1427
▁gereksinim	-11.1427
▁arayışı	-11.1428
▁ikon	-11.1429
▁hapiste	-11.143
▁hekim	-11.1438
▁newton	-11.1443
▁mümkündür	-11.1444
▁konuşuyordu	-11.1445
leştirir	-11.145
▁sakın	-11.1465
▁baktığımız	-11.1475
▁artması	-11.148
▁işitme	-11.149
well	-11.1491
▁kalanını	-11.1493
▁atlet	-11.1501
▁norm	-11.1505
▁katılıyor	-11.1509
▁üstlen	-11.151
▁endişelenme	-11.1514
▁gömülü	-11.1525
▁belirlen	-11.1531
▁arkamda	-11.1537
▁kafamda	-11.1539
▁biç	-11.1563
▁ölçüsü	-11.1573
▁artırma	-11.1588
▁idam	-11.1597
▁tükenmiş	-11.1597
▁tərəf	-11.1599
▁bəlkə	-11.16
▁efekt	-11.16
▁istismar	-11.16
▁röntgen	-11.16
▁filozof	-11.16
▁klavye	-11.16
▁otoyol	-11.16
▁okuyucu	-11.16
▁zanned	-11.16
▁personel	-11.16
▁haricinde	-11.16
▁pamuk	-11.16
▁çimen	-11.1601
▁görülebilir	-11.1601
▁patern	-11.1602
▁zafer	-11.1603
▁goster	-11.1604
▁yükselişi	-11.1605
▁evliliği	-11.1607
▁lens	-11.1609
▁diger	-11.161
▁izah	-11.1611
▁olamayacağı	-11.1612
▁niyə	-11.1612
▁nick	-11.1612
▁məncə	-11.1618
▁enzim	-11.1626
ugh	-11.1639
▁yuvarla	-11.1649
▁edeceğimiz	-11.1653
▁edilecek	-11.1686
▁modül	-11.1701
▁baktığınız	-11.1705
▁kullanmıyor	-11.1735
▁hatırlatıyor	-11.1736
▁eşitliği	-11.1737
▁gülümse	-11.1739
▁döndürü	-11.1741
▁astronot	-11.1779
▁bambaşka	-11.1779
▁bənzə	-11.1779
▁ufacık	-11.1779
▁hemfikir	-11.1779
▁maraqlı	-11.1779
▁süpür	-11.1779
▁taliban	-11.1779
▁fırça	-11.1779
▁sahra	-11.1779
▁brown	-11.1779
▁servet	-11.1779
▁bilgilendir	-11.1779
▁işıq	-11.1779
▁şubat	-11.178
▁garaj	-11.178
▁ödüyor	-11.178
▁etnik	-11.178
▁lego	-11.1781
▁otuz	-11.1783
▁jeff	-11.1784
▁2050	-11.1787
▁beklenen	-11.1787
▁davranıyor	-11.1789
▁görelim	-11.1795
▁fren	-11.1796
▁surat	-11.1808
▁birsey	-11.1819
▁gülümseme	-11.1819
▁bulunduğunu	-11.1825
▁hatırladı	-11.1831
▁seviyesini	-11.1859
▁uğramış	-11.1863
▁gözükme	-11.1866
▁statü	-11.1928
▁yayılıyor	-11.1934
▁tasarımcıları	-11.194
▁konsantr	-11.1961
▁mövzu	-11.1961
▁biləcəyi	-11.1961
▁dəqiq	-11.1961
▁illüzyon	-11.1961
▁istihdam	-11.1961
▁mövcud	-11.1961
▁hayırsever	-11.1961
▁gates	-11.1961
▁tahıl	-11.1961
▁vasıtası	-11.1961
▁manşet	-11.1961
▁mineral	-11.1961
termal	-11.1961
▁yırtıcı	-11.1962
▁general	-11.1962
▁pekâl	-11.1963
▁kurşun	-11.1963
▁düşünürdü	-11.1963
▁görünmeyen	-11.1968
▁logo	-11.197
▁soktu	-11.197
▁hasat	-11.197
▁kavramsal	-11.1971
▁yatay	-11.1973
▁niha	-11.198
▁koşma	-11.1981
▁yıkım	-11.1993
▁kodlama	-11.2015
▁post	-11.2037
▁koleksiyonu	-11.2054
▁sütun	-11.2056
▁çoğunluk	-11.2057
leştiril	-11.2069
▁görebileceği	-11.2072
▁teknolojisini	-11.2075
▁kurabil	-11.2103
▁basladi	-11.2108
▁fərq	-11.2111
▁anlaşılması	-11.2126
▁beyefendi	-11.2146
▁diplomat	-11.2146
▁eşdeğer	-11.2146
▁inkişaf	-11.2146
▁microsoft	-11.2146
▁misafir	-11.2146
▁pantolon	-11.2146
▁semptom	-11.2146
▁başbakan	-11.2146
▁piramid	-11.2146
▁doğaçlama	-11.2146
▁numune	-11.2146
▁fatura	-11.2146
▁avuç	-11.2146
▁ruanda	-11.2146
▁nelson	-11.2146
▁dindar	-11.2147
▁makul	-11.2147
▁insanoğlu	-11.2148
▁gülüyor	-11.215
▁oralarda	-11.2151
▁küçült	-11.2154
▁oynadığı	-11.2155
▁öğe	-11.2157
▁oluştuğunu	-11.2163
▁rahatlat	-11.2163
▁güdü	-11.2166
▁buluştu	-11.2172
▁hissettikleri	-11.2179
▁durduğu	-11.2196
▁ilerlet	-11.2204
▁kullandığınız	-11.2218
▁koleksiyon	-11.2239
▁belirtileri	-11.2255
▁sokma	-11.2327
▁samimi	-11.2334
▁omurga	-11.2335
▁kulübe	-11.2335
▁müddət	-11.2335
▁omurilik	-11.2335
▁əhəmiyyət	-11.2335
▁turuncu	-11.2335
▁talimat	-11.2335
▁şarj	-11.2335
▁obezite	-11.2335
▁tasvir	-11.2335
▁talebi	-11.2335
▁izole	-11.2335
▁azınlık	-11.2335
▁delhi	-11.2335
▁kupa	-11.2335
▁olmaksızın	-11.2336
▁ivme	-11.2336
▁sahə	-11.2336
▁solunum	-11.2337
▁denetim	-11.2338
laşan	-11.2339
▁bayrak	-11.2339
▁2020	-11.2341
▁dışarda	-11.2342
▁yoxdur	-11.2343
▁lanet	-11.2347
▁düşünmeliyiz	-11.2348
▁söyleyebiliriz	-11.2354
▁bahsedil	-11.2372
▁dönüştürdü	-11.2387
▁gömül	-11.2399
▁ışığ	-11.2408
▁işlediğini	-11.2422
maktansa	-11.2441
▁kaydedil	-11.2444
▁eşleş	-11.2466
▁çözünürlük	-11.2468
▁ayarlama	-11.2479
▁sosyo	-11.2503
▁charlie	-11.2527
▁mahremiyet	-11.2527
▁püskür	-11.2527
▁soykırım	-11.2527
▁spesifik	-11.2527
▁sponsor	-11.2527
▁norveç	-11.2527
▁teyze	-11.2527
▁xəbər	-11.2527
▁diyabet	-11.2527
▁berlin	-11.2527
▁görülür	-11.2527
▁baloncuk	-11.2527
▁ritüel	-11.2527
▁metropol	-11.2527
▁uzlaşma	-11.2527
▁taciz	-11.2528
▁kömək	-11.2529
▁muhafazakar	-11.2529
▁kolej	-11.253
▁saturn	-11.2531
▁arapça	-11.2532
▁gələn	-11.2533
▁jack	-11.2536
▁keşfe	-11.2537
▁yetmez	-11.2543
▁göründüğünü	-11.2548
▁gitmiyor	-11.2558
▁yetiştiril	-11.2561
mişsinizdir	-11.2567
▁aydınlanma	-11.2585
▁oğlunu	-11.2587
▁karısı	-11.2609
▁döndüğüm	-11.2631
▁gelişiyor	-11.2655
abilsin	-11.2656
▁güldü	-11.2683
▁uyuyor	-11.2684
▁ilgilendiği	-11.2686
▁gəlmə	-11.2693
▁kültürünü	-11.2719
▁asansör	-11.2723
▁halüsinasyon	-11.2723
▁mecbur	-11.2723
▁national	-11.2723
▁protokol	-11.2723
▁teleskobu	-11.2723
▁ipucu	-11.2723
▁kasırga	-11.2723
▁parkinson	-11.2723
▁nötr	-11.2723
▁çırp	-11.2723
▁süzül	-11.2723
▁moore	-11.2723
▁havaalanı	-11.2723
▁borsa	-11.2723
▁düşünüp	-11.2723
▁dəyişdi	-11.2723
▁yatkın	-11.2724
▁küçümse	-11.2724
▁defter	-11.2724
▁üzerlerin	-11.2724
▁ipod	-11.2725
▁görüldü	-11.2726
▁hassasiyet	-11.2727
▁mülk	-11.2728
▁anlayabilmek	-11.2738
▁kapsaya	-11.2741
▁bandı	-11.2742
▁karşılama	-11.2749
▁west	-11.2749
lendiriyor	-11.2758
▁kılıyor	-11.2769
▁savunmasız	-11.2783
▁kalkış	-11.282
▁bağlanma	-11.2826
▁olanağı	-11.2843
▁yaklaştığı	-11.2882
▁avlanma	-11.2886
▁oluştuğu	-11.2907
▁dörd	-11.2917
▁üzgün	-11.2922
▁bayılıyorum	-11.2923
▁etiyopya	-11.2923
▁fevkalade	-11.2923
▁hiyerarşi	-11.2923
▁psikiyatri	-11.2923
▁sızıntı	-11.2923
▁tişört	-11.2923
▁şizofreni	-11.2923
▁təşkil	-11.2923
▁tercüme	-11.2923
▁manevi	-11.2923
▁razı	-11.2923
▁kabuğu	-11.2923
▁gayret	-11.2924
▁gütmeye	-11.2924
▁nerdeyse	-11.2924
▁haberdar	-11.2924
▁hapis	-11.2925
▁genişliğinde	-11.2925
▁bozucu	-11.2927
▁öldürüyor	-11.2929
▁dönüştürüyor	-11.2929
▁dilerim	-11.2935
▁bilgeliğ	-11.2935
▁mayıs	-11.2936
▁genetiği	-11.2937
▁öldürüldü	-11.2942
▁denekler	-11.2947
▁halled	-11.295
▁giyme	-11.2951
▁ilerler	-11.2964
▁karanlığ	-11.2994
▁olacağımız	-11.3008
▁kavramını	-11.3019
▁toprağ	-11.3067
▁duyulma	-11.3094
lendirdi	-11.3103
▁vurul	-11.311
▁ehtiyac	-11.3127
▁klişe	-11.3127
▁levha	-11.3127
▁nöqtə	-11.3127
▁xəstə	-11.3127
▁örüntü	-11.3127
▁şampiyon	-11.3127
▁çorba	-11.3127
▁həmişə	-11.3127
▁çiçeğ	-11.3127
▁sekoya	-11.3127
▁snow	-11.3127
▁təbii	-11.3127
▁yedek	-11.3127
▁niyetli	-11.3128
▁ooh	-11.3128
▁stasi	-11.3129
▁yaşlandık	-11.313
▁barbar	-11.3133
laşdı	-11.3134
▁adaptasyon	-11.3139
▁brad	-11.314
▁hamısı	-11.3147
▁bulabileceği	-11.3164
▁topladığı	-11.3165
▁sürüklen	-11.3173
▁şehirlerimiz	-11.3179
▁şekl	-11.3207
▁tanımlıyor	-11.3263
▁değiştiği	-11.3269
▁anladığım	-11.3312
▁rand	-11.3327
▁vuruş	-11.3332
▁seattle	-11.3335
▁beyzbol	-11.3335
▁füzyon	-11.3335
▁hoparlör	-11.3335
▁singapur	-11.3335
▁slogan	-11.3335
▁sonuncusu	-11.3335
▁zavallı	-11.3335
▁çizelge	-11.3335
▁argüman	-11.3335
▁ihtiyar	-11.3335
▁uyguluyor	-11.3335
▁tələb	-11.3335
▁meyilli	-11.3335
▁henry	-11.3336
▁piksel	-11.3336
▁vacib	-11.3336
▁öğüt	-11.3336
▁anlarsınız	-11.3336
▁alex	-11.3336
▁sicim	-11.3337
meyeceğiz	-11.3337
▁lester	-11.3337
▁julia	-11.3341
▁başımıza	-11.3341
▁seçkin	-11.3341
▁etkileyecek	-11.3341
▁konuşmuyor	-11.3344
▁başkent	-11.3345
yahut	-11.3346
▁duş	-11.3347
▁koruyor	-11.3356
▁yaşayabil	-11.3385
çeşitli	-11.3433
,3	-11.345
▁versiyonunu	-11.347
▁demokrat	-11.3544
▁ansiklopedi	-11.3548
▁bangladeş	-11.3548
▁böbrek	-11.3548
▁implant	-11.3548
▁iğrenç	-11.3548
▁pizza	-11.3548
▁qeyri	-11.3548
▁ağustos	-11.3548
▁edebiyat	-11.3548
▁ipuçları	-11.3548
▁kaplumbağa	-11.3548
▁prostat	-11.3548
▁təxmin	-11.3548
▁çekirdeği	-11.3548
▁bronx	-11.3548
▁irlanda	-11.3548
▁qəbul	-11.3548
▁tuğla	-11.3548
▁watson	-11.3548
▁israf	-11.3548
▁uyğun	-11.3548
▁şeridi	-11.3548
▁detroit	-11.3548
▁coşku	-11.3548
▁karides	-11.3548
▁kucuk	-11.3548
▁enkaz	-11.3548
▁sansür	-11.3548
▁sıçan	-11.3548
▁mucit	-11.3548
▁kevin	-11.3549
▁ritmi	-11.3549
▁brian	-11.3549
▁masaüstü	-11.355
▁2015	-11.3552
▁zihniyet	-11.3552
▁gümüş	-11.3553
▁başlamalıyız	-11.3557
▁bükül	-11.3564
▁yapılacağın	-11.3567
▁düşündüğünü	-11.357
▁ağac	-11.3584
▁gercek	-11.3598
bilseydik	-11.3604
layayım	-11.3605
▁maliyetini	-11.365
▁kavuştu	-11.3719
▁cesaretlendir	-11.3741
▁grönland	-11.3766
▁kəşf	-11.3766
▁mektubu	-11.3766
▁tansiyon	-11.3766
▁texnologiya	-11.3766
▁veritabanı	-11.3766
▁çeyrek	-11.3766
▁muhammed	-11.3766
▁yerçekimi	-11.3766
▁albüm	-11.3766
▁bruno	-11.3766
▁sağduyu	-11.3766
▁pardon	-11.3766
▁website	-11.3766
▁ulke	-11.3766
▁buğday	-11.3766
▁somali	-11.3766
▁qərar	-11.3766
▁şirin	-11.3766
▁tayf	-11.3766
▁bizzat	-11.3766
▁alıştırma	-11.3766
▁ümid	-11.3767
▁çete	-11.3768
▁icadı	-11.3768
▁city	-11.3769
▁memnuniyet	-11.3769
▁gittiğinizde	-11.3769
▁yaptigi	-11.377
▁işığı	-11.3773
▁komedi	-11.3774
▁hanım	-11.3788
abilmeleri	-11.3799
▁versiyon	-11.3817
▁atlayı	-11.3826
▁ladin	-11.3848
▁çıkmıştı	-11.3853
▁etkileş	-11.3866
hayır	-11.3873
bilirdiniz	-11.3901
▁hans	-11.3946
▁embriyo	-11.3988
▁apollo	-11.3988
▁cehennem	-11.3988
▁cenaze	-11.3988
▁iskoç	-11.3988
▁rəqəm	-11.3988
▁trafiği	-11.3988
▁təsəvvür	-11.3988
▁ürkütücü	-11.3988
▁randevu	-11.3988
▁sadakat	-11.3988
▁tasarim	-11.3988
▁yüzgeç	-11.3988
▁kondom	-11.3988
▁konseyi	-11.3988
▁xatırla	-11.3988
▁zelanda	-11.3988
▁temmuz	-11.3988
▁qayda	-11.3988
▁icra	-11.3988
▁türkiye	-11.3989
▁metabolizma	-11.3989
▁klon	-11.3989
▁varolan	-11.3989
▁damga	-11.3991
▁çadır	-11.3991
▁kənd	-11.3992
▁sayılmaz	-11.3992
▁oğul	-11.3996
▁proses	-11.3998
▁bulundukları	-11.4035
▁uğraştığı	-11.4067
▁gördükleriniz	-11.4094
hücre	-11.41
▁gökyüzünü	-11.4102
▁denetle	-11.4139
▁üzüm	-11.4157
▁keşfedilme	-11.4169
▁fırla	-11.419
▁pürüz	-11.4215
▁basketbol	-11.4215
▁buzdolabı	-11.4215
▁fantastik	-11.4215
▁fizyoloji	-11.4215
▁hawaii	-11.4215
▁leonardo	-11.4215
▁memleket	-11.4215
▁nispet	-11.4215
▁santimetre	-11.4215
▁trajik	-11.4215
▁yelpaze	-11.4215
▁çığlık	-11.4215
▁domates	-11.4215
▁kahvaltı	-11.4215
▁montaj	-11.4215
▁proqram	-11.4215
▁savunucu	-11.4215
▁yorucu	-11.4215
▁apartman	-11.4215
▁krater	-11.4215
▁yumru	-11.4215
▁berber	-11.4215
▁köpekbalığı	-11.4215
▁tavır	-11.4215
▁ortalıkta	-11.4216
▁leke	-11.4216
▁kukla	-11.4216
▁acele	-11.4216
▁sperm	-11.4216
▁hatıra	-11.4216
▁mülkiyet	-11.4216
▁hasıla	-11.4218
▁kalıntıları	-11.423
ləyir	-11.4243
mişimdir	-11.4353
abilse	-11.4431
▁müfredat	-11.4448
▁demografik	-11.4448
▁dublör	-11.4448
▁ihmal	-11.4448
▁itfaiye	-11.4448
▁orjinal	-11.4448
▁transistör	-11.4448
▁şəkli	-11.4448
▁biyosfer	-11.4448
▁sarhoş	-11.4448
▁diyagram	-11.4448
▁kütlə	-11.4448
▁reaktör	-11.4448
▁tempo	-11.4448
▁borcu	-11.4448
▁avatar	-11.4448
▁plaj	-11.4448
▁tunus	-11.4448
▁olağandışı	-11.4448
▁bayrağı	-11.4448
▁teksas	-11.4449
▁ekmeği	-11.445
▁döşe	-11.445
▁erdem	-11.4452
▁blue	-11.4453
▁getmə	-11.4455
▁kademe	-11.4463
▁iskele	-11.4476
▁hissəsi	-11.4477
▁alışkın	-11.4484
▁olamadı	-11.4512
▁tarafinda	-11.4517
leyebilme	-11.4589
lməsi	-11.4601
▁çevrim	-11.4686
▁cumhuriyetçi	-11.4686
▁hijyen	-11.4686
▁tanzanya	-11.4686
▁danimarka	-11.4686
▁egemen	-11.4686
▁geographic	-11.4686
▁insülin	-11.4686
▁mahrum	-11.4686
▁diktatör	-11.4686
▁disney	-11.4686
▁kıvrıl	-11.4686
▁senkroniz	-11.4686
▁zahmet	-11.4686
▁isabet	-11.4686
▁kriter	-11.4686
▁palmiye	-11.4686
▁maldiv	-11.4686
▁milimetre	-11.4686
▁yürek	-11.4686
▁rəng	-11.4686
▁tasarlıyor	-11.4686
▁bəs	-11.4686
▁çıkıntı	-11.4686
▁oyuncağı	-11.4686
▁esrar	-11.4687
▁gidişatı	-11.4687
▁rutin	-11.4687
▁mesleğ	-11.4688
▁ziyan	-11.4698
▁uret	-11.471
space	-11.471
▁konuştuğunu	-11.4723
▁harikulade	-11.493
▁kostüm	-11.493
▁mevzu	-11.493
▁qüvvə	-11.493
▁rüzgâr	-11.493
▁ufuk	-11.493
▁şəxs	-11.493
▁sihirbaz	-11.493
▁ayrımcılık	-11.493
▁qısa	-11.493
▁rahip	-11.493
▁bulanık	-11.493
▁melodi	-11.493
▁nazar	-11.493
▁davul	-11.493
▁hücum	-11.493
▁standard	-11.4931
▁obez	-11.4931
▁əks	-11.4932
▁karadelik	-11.4932
▁izlenim	-11.4935
▁alçak	-11.4935
alesef	-11.4935
▁ailə	-11.4949
▁doğuşu	-11.4954
▁yırt	-11.4988
▁karşılaşıyor	-11.5
ərkə	-11.5029
▁sürücüsü	-11.5057
▁android	-11.518
▁entellektüel	-11.518
▁istiridye	-11.518
▁kolektif	-11.518
▁məşğul	-11.518
▁stephen	-11.518
▁axtar	-11.518
▁brooklyn	-11.518
▁dolaylı	-11.518
▁konektom	-11.518
▁kronik	-11.518
▁kıvrım	-11.518
▁sonbahar	-11.518
▁tezgah	-11.518
▁kaşif	-11.518
▁vajina	-11.518
▁paradoks	-11.518
▁ehtimal	-11.518
▁uğur	-11.518
▁anonim	-11.518
▁espri	-11.518
▁libya	-11.518
▁bloğu	-11.518
▁ikram	-11.518
▁tesla	-11.5181
▁mandela	-11.5181
▁hacim	-11.5181
▁istenen	-11.5186
▁maksim	-11.5189
▁dayanara	-11.5217
mayacağınız	-11.5269
▁öneriyor	-11.5303
▁düzlem	-11.5305
▁gözlemledi	-11.5317
▁suud	-11.5393
▁çıt	-11.5429
▁sömür	-11.5435
▁clinton	-11.5436
▁edward	-11.5436
▁atölye	-11.5436
▁biyoteknoloji	-11.5436
▁durağan	-11.5436
▁incəsənət	-11.5436
▁kopuk	-11.5436
▁müxtəlif	-11.5436
▁məqsəd	-11.5436
▁sendromu	-11.5436
▁univers	-11.5436
▁habitat	-11.5436
▁tibet	-11.5436
▁cıvı	-11.5436
▁ıslık	-11.5436
▁asfalt	-11.5436
▁atlanta	-11.5436
▁kopru	-11.5436
▁mamut	-11.5437
▁taslak	-11.5437
▁alışık	-11.5437
▁söylenir	-11.5437
▁imha	-11.5438
▁ishal	-11.5438
lendirilme	-11.5439
▁melek	-11.544
▁kabus	-11.5445
▁önemseme	-11.5456
maksızın	-11.558
▁getdi	-11.5587
▁erime	-11.565
bül	-11.5657
▁pigment	-11.5699
▁rastlantı	-11.5699
▁alışılmadık	-11.5699
▁departmanı	-11.5699
▁diplomasi	-11.5699
▁endonezya	-11.5699
▁kolombiya	-11.5699
▁müttefik	-11.5699
▁müəyyən	-11.5699
▁patojen	-11.5699
▁piyango	-11.5699
▁uğruna	-11.5699
▁yükümlü	-11.5699
▁alfabe	-11.5699
▁meşru	-11.5699
▁sinaps	-11.5699
▁tırnak	-11.5699
▁işgücü	-11.5699
▁anlaşmazlık	-11.5699
▁sörf	-11.5699
▁ilgilendiren	-11.5699
▁ciğer	-11.5699
▁seyretti	-11.57
▁samimiyet	-11.57
▁tortu	-11.57
▁kapsül	-11.5701
▁nakit	-11.5701
▁multi	-11.5706
▁öyrənmə	-11.5706
▁dipte	-11.5718
▁önemsiyor	-11.5723
▁başlayara	-11.5725
▁sivri	-11.5728
bilecegi	-11.5733
▁kabı	-11.5735
statik	-11.5735
▁hissetmiş	-11.5761
leştirici	-11.5798
ound	-11.5826
▁uzmanlaş	-11.5828
▁tamamiyl	-11.5927
▁alaska	-11.5969
▁virginia	-11.5969
▁akademisyen	-11.5969
▁alexander	-11.5969
▁bodrum	-11.5969
▁craig	-11.5969
▁dezavantaj	-11.5969
▁dərəcə	-11.5969
▁itiraz	-11.5969
▁otonom	-11.5969
▁satranç	-11.5969
▁stadyum	-11.5969
▁tavşan	-11.5969
▁gsmh	-11.5969
▁milenyum	-11.5969
▁qolf	-11.5969
▁yunanistan	-11.5969
▁ördek	-11.5969
▁arthur	-11.5969
▁saplantı	-11.5969
▁cüzdan	-11.597
▁huylu	-11.597
▁miselyum	-11.597
;	-13.1532
)	-13.1533
?	-13.1534
