<pad>	0
<unk>	0
<s>	0
</s>	0
▁.	-2.96723
▁,	-3.21044
▁bir	-3.75422
▁ve	-3.9149
▁bu	-4.12378
▁''	-4.49907
▁	-4.50331
n	-4.77832
'	-4.94303
a	-5.05819
`	-5.11129
▁`	-5.13557
▁için	-5.18987
e	-5.27229
m	-5.29676
lar	-5.3096
k	-5.31534
▁çok	-5.34935
▁da	-5.39691
▁?	-5.45932
▁daha	-5.46152
i	-5.48328
▁de	-5.52134
ler	-5.56998
da	-5.62175
▁ki	-5.74352
▁var	-5.80955
▁o	-5.81749
▁)	-5.8196
(	-5.82064
▁ama	-5.83143
de	-5.85012
▁:	-5.86784
▁gibi	-5.92011
ları	-5.926
▁olarak	-5.95147
▁şey	-5.96264
▁ne	-5.97274
ya	-5.99439
in	-6.02633
▁...	-6.04067
▁olan	-6.06516
nin	-6.07704
▁her	-6.07734
leri	-6.08981
nın	-6.0957
den	-6.09671
▁en	-6.13409
la	-6.13989
dan	-6.15548
▁kadar	-6.1821
▁bunu	-6.20172
ye	-6.24136
ı	-6.24864
▁—	-6.26657
le	-6.29873
▁değil	-6.32448
▁ya	-6.33916
z	-6.34079
na	-6.34367
r	-6.35254
▁sonra	-6.35357
li	-6.35944
si	-6.367
▁ile	-6.3688
▁çünkü	-6.373
▁iyi	-6.42478
▁zaman	-6.42803
▁büyük	-6.429
▁sadece	-6.45352
ın	-6.454
▁olduğunu	-6.47012
p	-6.47911
s	-6.48621
▁ben	-6.49444
▁nasıl	-6.5067
l	-6.52415
yi	-6.53615
▁şimdi	-6.57238
sı	-6.58744
▁yani	-6.58823
▁şu	-6.60139
dir	-6.62281
ki	-6.63187
-	-6.6463
▁eğer	-6.66091
ne	-6.68356
▁iki	-6.68676
t	-6.68976
▁aynı	-6.7268
▁önce	-6.73256
▁aslında	-6.73339
ların	-6.73877
u	-6.74486
lı	-6.75105
▁bunun	-6.75599
▁biz	-6.75651
▁yeni	-6.75757
▁şekilde	-6.75781
di	-6.76526
▁burada	-6.77194
▁benim	-6.77661
ma	-6.78065
▁gerçekten	-6.78692
dır	-6.79325
▁fazla	-6.80093
▁yıl	-6.80457
yı	-6.80889
▁fakat	-6.81953
▁ilk	-6.82589
larını	-6.82948
an	-6.83645
lerin	-6.84284
▁mi	-6.86723
▁tüm	-6.87699
▁;	-6.8872
lerini	-6.88824
▁insan	-6.91347
y	-6.92511
▁insanlar	-6.92902
▁kendi	-6.93105
▁diğer	-6.94638
▁hakkında	-6.96198
ta	-6.97622
ni	-6.97912
lik	-7.01794
▁olduğu	-7.01924
te	-7.02479
▁farklı	-7.02916
▁başka	-7.03046
en	-7.03139
ca	-7.03266
▁size	-7.0512
▁son	-7.06438
ş	-7.07556
ti	-7.08746
▁doğru	-7.09085
▁bizim	-7.09572
daki	-7.09797
▁küçük	-7.09919
▁içinde	-7.1012
▁bana	-7.10965
▁işte	-7.11402
▁sahip	-7.12945
▁dünya	-7.12971
▁yok	-7.13842
▁bütün	-7.1398
▁ilgili	-7.15972
▁bile	-7.16094
lara	-7.1776
un	-7.18405
▁neden	-7.18679
▁gülüşmeler	-7.19915
me	-7.2036
ce	-7.21049
▁veya	-7.21628
uz	-7.23618
▁gün	-7.24059
▁tek	-7.25009
▁biraz	-7.25246
▁önemli	-7.25849
▁biri	-7.26013
▁ise	-7.2604
▁an	-7.26109
lere	-7.26994
▁bunlar	-7.27322
dı	-7.2875
▁şeyler	-7.29115
ü	-7.29145
b	-7.29885
▁insanların	-7.30248
▁hiç	-7.30769
▁yer	-7.31443
miz	-7.31729
▁♫	-7.31804
yla	-7.32936
um	-7.34044
▁ancak	-7.35401
▁iş	-7.35745
sa	-7.35948
▁oldu	-7.36195
▁az	-7.36958
▁onu	-7.37537
ini	-7.37601
▁geri	-7.38231
yle	-7.39252
▁böyle	-7.39528
▁üzerinde	-7.39798
▁bazı	-7.39834
▁onlar	-7.40292
lık	-7.40797
deki	-7.41441
im	-7.41955
tan	-7.43286
▁tam	-7.43309
▁gerçek	-7.43336
.	-7.43426
d	-7.43843
▁üç	-7.44829
▁su	-7.45036
ken	-7.45904
▁bilgi	-7.47097
ə	-7.4778
du	-7.48048
nda	-7.48151
nı	-7.48279
niz	-7.48417
▁vardı	-7.48537
▁-	-7.49394
▁göre	-7.49571
▁karşı	-7.5011
mi	-7.5028
tı	-7.50532
f	-7.50618
▁böylece	-7.50842
▁və	-7.52318
▁yüzden	-7.52318
▁zamanda	-7.5329
▁bugün	-7.54367
ydi	-7.54475
▁birkaç	-7.54753
▁belki	-7.55599
ten	-7.55994
lu	-7.56565
▁diye	-7.57312
o	-7.58216
▁onun	-7.58288
▁onları	-7.58791
mış	-7.5917
mak	-7.59208
▁bize	-7.59871
▁tarafından	-7.59987
▁beni	-7.60197
▁evet	-7.60563
sine	-7.60909
arak	-7.60984
siniz	-7.61262
▁soru	-7.61456
▁peki	-7.61621
g	-7.61677
▁yapmak	-7.61995
▁olması	-7.62237
▁buna	-7.62697
▁hareket	-7.62809
▁istiyorum	-7.63266
▁oldukça	-7.63588
▁olacak	-7.64253
se	-7.6439
lardan	-7.6448
▁olmak	-7.64523
▁güzel	-7.647
▁ortaya	-7.65529
▁'	-7.65911
miş	-7.65963
▁tekrar	-7.66076
▁al	-7.66997
larına	-7.67391
nde	-7.67465
▁mı	-7.67553
▁para	-7.67621
lerine	-7.67788
lerden	-7.69174
mız	-7.69379
sini	-7.69551
▁kişi	-7.69663
tir	-7.69801
▁uzun	-7.69803
▁birçok	-7.69937
▁teknoloji	-7.70672
▁orada	-7.71337
▁zor	-7.71853
h	-7.72364
▁şeyi	-7.72516
c	-7.72642
—	-7.72731
sel	-7.73794
▁alkış	-7.74111
▁kötü	-7.745
▁fark	-7.74807
sını	-7.75025
▁etmek	-7.75055
larının	-7.75099
▁artık	-7.75859
q	-7.76838
▁anda	-7.77701
▁bence	-7.7787
▁açık	-7.78874
ını	-7.7893
ra	-7.79213
▁devam	-7.79357
ri	-7.79768
▁oluyor	-7.8014
▁alkışlar	-7.80267
lerde	-7.80646
▁tür	-7.80705
▁yüzde	-7.80921
▁hayal	-7.80954
yu	-7.81112
lerle	-7.81213
▁boyunca	-7.81377
tır	-7.81381
▁olabilir	-7.81451
▁yol	-7.82048
▁siz	-7.82066
▁öyle	-7.82219
▁yüksek	-7.8241
ıp	-7.82668
▁karar	-7.82944
▁milyon	-7.83116
ci	-7.83234
ydı	-7.83263
▁dünyanın	-7.83323
ir	-7.83346
acak	-7.84351
ım	-7.84718
▁tamam	-7.85143
▁10	-7.85797
dim	-7.85994
ine	-7.8615
larda	-7.86251
▁konu	-7.86534
▁tamamen	-7.87409
▁harika	-7.87481
larında	-7.88433
nız	-7.88633
▁şöyle	-7.88686
▁arasında	-7.8946
▁pek	-7.89502
▁kaç	-7.90783
▁dedi	-7.90795
▁hikaye	-7.90979
sına	-7.91237
larla	-7.91401
iz	-7.91452
ır	-7.9161
▁basit	-7.92044
▁herkes	-7.9206
ar	-7.92129
▁birlikte	-7.92135
▁hiçbir	-7.92346
lerinin	-7.92631
▁yakın	-7.92668
ik	-7.92876
▁olur	-7.92955
▁durum	-7.92962
▁kahkahalar	-7.93328
▁adam	-7.9355
▁geliyor	-7.93993
▁onların	-7.9451
sin	-7.95259
nun	-7.95286
▁çocuk	-7.95386
er	-7.95621
sanız	-7.96348
▁enerji	-7.96921
▁ay	-7.97213
▁teşekkürler	-7.97318
▁bak	-7.97641
▁afrika	-7.97712
▁kadın	-7.97883
ip	-7.97967
▁fikir	-7.98037
lardı	-7.98086
v	-7.98324
il	-7.99085
▁kat	-7.99092
▁ona	-7.99592
▁çoğu	-7.99597
▁gelen	-7.99711
ndan	-7.99795
▁alan	-7.99842
▁sonunda	-7.99901
▁göz	-8.0008
▁onlara	-8.00583
▁yardım	-8.0092
▁sizin	-8.01158
▁yerine	-8.01315
▁sorun	-8.01418
▁bilim	-8.01916
▁gereken	-8.02075
erek	-8.03066
▁demek	-8.03495
▁üzerine	-8.03536
▁hatta	-8.04016
mek	-8.04667
maya	-8.05314
▁bizi	-8.05406
▁yaklaşık	-8.05869
lığı	-8.06238
lan	-8.06497
ıyor	-8.0654
▁olma	-8.06848
▁sene	-8.07399
▁mu	-8.07602
▁eski	-8.07642
▁i	-8.07956
▁çıkar	-8.08275
▁teşekkür	-8.08442
▁ayrıca	-8.08558
▁ederim	-8.08978
▁bilgisayar	-8.08983
▁temel	-8.09317
▁araba	-8.09358
▁eden	-8.09453
▁amerika	-8.09464
▁sosyal	-8.09481
▁ev	-8.10692
ecek	-8.10832
də	-8.111
▁çalışma	-8.11725
liği	-8.11967
dur	-8.12252
▁ediyor	-8.12437
▁vardır	-8.12622
▁yapma	-8.12727
▁yaşam	-8.1274
▁çevre	-8.1283
▁ülke	-8.12866
inde	-8.12939
▁inanılmaz	-8.13169
▁işe	-8.13218
▁etme	-8.13319
▁dört	-8.13375
▁geldi	-8.13461
▁yine	-8.13541
▁konusunda	-8.13602
▁ilginç	-8.1383
lər	-8.14283
▁hem	-8.14535
larından	-8.14569
▁nokta	-8.14633
lerinden	-8.14728
▁hala	-8.15125
▁yeniden	-8.1515
ba	-8.15423
▁araştırma	-8.15479
▁herhangi	-8.15666
▁süre	-8.161
▁3	-8.16157
▁hemen	-8.16306
▁yalnız	-8.16665
▁yapı	-8.16702
▁hepsi	-8.17044
▁saat	-8.17935
▁beyin	-8.18245
ç	-8.18251
▁dünyada	-8.18402
▁yerde	-8.18476
re	-8.18482
▁yüz	-8.18629
▁insanları	-8.19011
▁video	-8.19053
siz	-8.19211
▁gelir	-8.19371
▁hale	-8.19451
▁tane	-8.19531
dım	-8.19668
▁parça	-8.19891
ur	-8.20619
▁örnek	-8.20716
▁bunları	-8.20811
▁veri	-8.2092
▁genç	-8.21051
▁aile	-8.21434
▁zorunda	-8.21482
▁proje	-8.21803
▁konuşma	-8.21928
▁hayat	-8.22211
▁özel	-8.22382
▁gördüğünüz	-8.22399
▁kız	-8.22402
▁elde	-8.22497
▁olmayan	-8.22922
▁el	-8.2305
su	-8.23067
▁dolar	-8.23178
▁kimse	-8.23215
x	-8.2351
▁bundan	-8.24112
▁at	-8.24232
▁şunu	-8.24566
▁a	-8.24701
▁hızlı	-8.24788
▁birşey	-8.24834
▁hava	-8.24878
▁b	-8.25277
▁ikinci	-8.25502
▁20	-8.25519
▁kontrol	-8.25873
▁kolay	-8.26358
▁e	-8.26441
▁çalışan	-8.26602
▁eğitim	-8.26716
cı	-8.26831
dik	-8.27174
▁sağ	-8.27305
▁altında	-8.27349
abilir	-8.27566
▁beş	-8.27788
▁geçen	-8.27925
lerinde	-8.27984
▁yolu	-8.2816
et	-8.28203
▁cevap	-8.28303
mizi	-8.28666
el	-8.28769
▁izin	-8.28836
dum	-8.28938
ün	-8.29021
mı	-8.29132
inin	-8.29237
▁güçlü	-8.29451
▁güç	-8.29873
▁tahmin	-8.29907
▁müzik	-8.30011
▁durumda	-8.30224
▁kim	-8.30345
sunuz	-8.30394
▁milyar	-8.30532
▁şeyleri	-8.30651
▁g	-8.30726
▁hafta	-8.31358
lama	-8.31394
▁ma	-8.31446
▁parçası	-8.31562
▁istediğim	-8.31634
▁sizi	-8.31711
▁sürü	-8.3173
nden	-8.31981
▁bunların	-8.32524
al	-8.32658
ına	-8.33687
▁savaş	-8.34427
▁inşa	-8.34784
▁neredeyse	-8.34941
▁s	-8.3498
▁başladı	-8.35033
▁özellikle	-8.35571
▁ses	-8.35718
▁dair	-8.35928
▁he	-8.3599
tik	-8.36083
▁bakın	-8.36084
sinde	-8.36182
▁söz	-8.36716
▁etti	-8.36813
▁benzer	-8.36824
▁2	-8.37106
▁ca	-8.37158
▁insanlara	-8.37274
▁mümkün	-8.37574
▁edin	-8.37948
▁hasta	-8.37953
sinin	-8.38305
▁birisi	-8.39191
▁hayır	-8.39468
sun	-8.39601
▁genel	-8.39681
▁altı	-8.40148
at	-8.40225
▁kısa	-8.4046
▁bazen	-8.40574
▁toplum	-8.40614
yiz	-8.40989
ro	-8.41169
lü	-8.4134
▁yanlış	-8.41484
▁geç	-8.4159
▁gösteriyor	-8.42328
▁dedim	-8.42332
▁anlama	-8.42347
▁internet	-8.42488
▁deniz	-8.42584
▁hazır	-8.42596
kı	-8.4268
sak	-8.42769
on	-8.42777
muş	-8.42886
▁ana	-8.43129
▁hepimiz	-8.43393
ması	-8.43421
▁idi	-8.43467
▁olsa	-8.43482
▁kabul	-8.43901
sınız	-8.44166
▁doğa	-8.44185
▁c	-8.44221
▁tabii	-8.44316
▁ta	-8.44324
▁də	-8.44406
▁aşağı	-8.44672
▁gelecek	-8.44831
▁örneğin	-8.44844
imiz	-8.44948
sal	-8.45261
▁1	-8.45295
▁film	-8.45347
sız	-8.45449
▁araya	-8.45501
▁sağlık	-8.46066
▁orta	-8.46244
▁çin	-8.46246
iyor	-8.46741
▁yaptığımız	-8.46814
lo	-8.46841
▁ted	-8.47033
▁hindistan	-8.47258
dığı	-8.47449
▁30	-8.47672
ebilir	-8.47674
▁sen	-8.47924
▁problem	-8.47979
▁baş	-8.48035
meye	-8.48053
▁in	-8.48241
▁değildir	-8.48448
us	-8.48461
▁doğal	-8.48543
abiliriz	-8.48707
▁sonuç	-8.49081
▁kez	-8.49208
0	-8.49231
▁yapmaya	-8.49545
▁yaptığı	-8.49894
va	-8.49963
nizi	-8.50005
▁gerek	-8.50438
yim	-8.50484
▁neler	-8.5051
▁güneş	-8.5058
▁çox	-8.50789
▁düşünün	-8.51213
▁sanırım	-8.51559
▁çocuklar	-8.51652
▁değildi	-8.51869
▁iç	-8.5206
▁sistemi	-8.52333
▁5	-8.5236
▁sistem	-8.5241
▁new	-8.52419
mızı	-8.52422
ğı	-8.52509
seniz	-8.52776
▁derece	-8.53058
▁bin	-8.53117
▁grup	-8.53137
tu	-8.53145
ız	-8.53159
▁kal	-8.53629
▁gece	-8.53639
▁iletişim	-8.54047
sek	-8.54092
▁olduğuna	-8.54093
▁yapan	-8.54417
luk	-8.5456
▁yere	-8.54599
lə	-8.54627
nızı	-8.54796
▁düşünce	-8.5494
▁sanat	-8.5498
çi	-8.54994
▁gerekiyor	-8.55032
▁ifade	-8.55112
▁görüyorsunuz	-8.55137
▁tasarım	-8.5517
▁üzere	-8.56055
▁değer	-8.56079
▁adı	-8.56178
▁ver	-8.56222
▁sonraki	-8.56324
▁muhtemelen	-8.56337
bi	-8.56654
sın	-8.5689
▁f	-8.56982
▁ışık	-8.57284
larımız	-8.57388
min	-8.57485
▁görme	-8.57489
▁olmadığı	-8.57531
sının	-8.57555
▁ek	-8.57785
liğin	-8.57948
▁ara	-8.58028
▁k	-8.58042
▁mesela	-8.58104
▁kesinlikle	-8.58276
▁kullan	-8.58323
nüz	-8.58579
unu	-8.58681
▁anne	-8.59327
▁verici	-8.59343
▁başladım	-8.59872
▁küresel	-8.59915
▁100	-8.60039
▁erkek	-8.60076
dık	-8.60137
▁biliyoruz	-8.60413
▁dakika	-8.60576
▁derin	-8.60604
▁yan	-8.60709
▁yaz	-8.60717
cu	-8.60777
st	-8.61163
▁yapıyor	-8.61292
▁asla	-8.61612
▁bağlı	-8.61651
▁olmadığını	-8.61834
▁tedavi	-8.62003
▁tabi	-8.62083
▁ölüm	-8.62448
yız	-8.62463
▁ha	-8.6252
▁şeyin	-8.62573
▁kullanarak	-8.62671
▁olduğumuz	-8.62736
▁15	-8.6276
▁kahkaha	-8.63375
▁çıktı	-8.63485
▁et	-8.63517
leme	-8.63549
ğa	-8.63905
▁ihtiyacımız	-8.63919
▁bilirsiniz	-8.63955
▁yoktu	-8.63994
▁san	-8.64355
ch	-8.64398
▁hücre	-8.64409
dü	-8.645
ça	-8.64503
▁aç	-8.64541
▁kan	-8.64616
▁oyun	-8.64739
▁çeşit	-8.64754
▁buradaki	-8.64818
ha	-8.64987
▁geniş	-8.65093
▁yap	-8.65113
▁arasındaki	-8.65137
sında	-8.65181
▁insanın	-8.65229
▁uzay	-8.65235
▁on	-8.65299
▁beraber	-8.65332
▁güven	-8.65578
▁dikkat	-8.65603
▁bas	-8.65698
▁hep	-8.65766
be	-8.65836
ıcı	-8.66046
▁yarat	-8.66164
▁50	-8.66424
▁co	-8.66521
▁ele	-8.66667
▁do	-8.66763
ında	-8.66796
▁dünyayı	-8.66865
▁düşünüyorum	-8.66933
▁yılda	-8.66992
▁karmaşık	-8.67035
▁ka	-8.67105
▁madde	-8.67201
▁ön	-8.67424
▁yaptık	-8.6768
▁işi	-8.67745
▁yapılan	-8.67965
nu	-8.68131
it	-8.68178
▁tıp	-8.68618
▁kar	-8.68637
ebiliriz	-8.68657
▁içine	-8.68706
▁bakış	-8.69016
▁sürekli	-8.69033
▁dolayı	-8.69177
▁rağmen	-8.69186
▁dünyadaki	-8.69273
▁nedir	-8.69371
ge	-8.69525
ter	-8.69573
▁alıp	-8.69605
▁görebilirsiniz	-8.69664
▁bina	-8.69794
vi	-8.69812
▁4	-8.69886
ve	-8.69959
▁mü	-8.69993
▁bırak	-8.70024
▁üçün	-8.7009
▁düşündüm	-8.70151
▁kendini	-8.70231
▁meydan	-8.70271
▁hayvan	-8.70342
▁olay	-8.70708
▁ortak	-8.70717
▁kelime	-8.70744
▁çizgi	-8.70904
▁yazı	-8.71207
▁deney	-8.71233
▁ağ	-8.71456
or	-8.71543
mesi	-8.72078
▁ekonomik	-8.72105
▁hayatta	-8.72161
▁okul	-8.72731
▁olsun	-8.72812
ləri	-8.72947
elim	-8.72947
▁canlı	-8.72972
man	-8.72992
▁verme	-8.73237
▁yaşayan	-8.73314
▁yardımcı	-8.73337
▁biliyor	-8.73602
ıl	-8.73621
▁eder	-8.73668
abilirsiniz	-8.73792
▁sebep	-8.73835
ılmış	-8.73908
▁ba	-8.74029
▁değişim	-8.74048
dığını	-8.74075
▁kafa	-8.74195
▁avrupa	-8.74246
▁mutlu	-8.74253
▁fikri	-8.74254
▁ettim	-8.74305
▁görmek	-8.74364
▁etmeye	-8.74563
ımız	-8.74586
▁başına	-8.74663
▁binlerce	-8.74734
bo	-8.74746
w	-8.74865
▁alma	-8.75346
▁alanı	-8.75614
▁test	-8.75904
â	-8.76034
▁çalış	-8.76098
▁bölge	-8.76405
▁dil	-8.76535
▁sebebi	-8.76646
gi	-8.76773
▁yedi	-8.7684
inden	-8.77008
▁öğren	-8.77053
▁kendisi	-8.77096
▁olup	-8.7712
dən	-8.77327
▁yemek	-8.77368
▁kadınlar	-8.77653
▁hangi	-8.77766
cə	-8.77781
▁ak	-8.77971
▁bazıları	-8.78021
▁yanı	-8.78183
▁acı	-8.78261
▁içerisinde	-8.78275
▁yılında	-8.7828
▁la	-8.78525
▁başarı	-8.78589
▁dışında	-8.78636
▁arka	-8.78714
▁biliyorum	-8.78788
▁resim	-8.78989
çe	-8.7901
▁inan	-8.79047
▁etki	-8.79047
▁deneyim	-8.79064
▁model	-8.79066
▁takip	-8.79093
▁bağ	-8.79188
▁güney	-8.79347
sinden	-8.79442
lerimiz	-8.79448
ydu	-8.79461
▁yavaş	-8.79467
▁düşün	-8.79472
▁defa	-8.79473
▁kısmı	-8.79575
to	-8.7966
▁merak	-8.79754
▁sık	-8.79849
▁adım	-8.7996
▁korku	-8.79998
▁bununla	-8.80073
▁uygun	-8.80093
▁mükemmel	-8.80263
yım	-8.80374
▁arada	-8.80539
▁haber	-8.80672
tü	-8.80759
▁plan	-8.80848
fi	-8.80907
▁koy	-8.80907
▁şehir	-8.80938
▁gel	-8.81047
▁ar	-8.81124
▁göster	-8.81341
▁görüyoruz	-8.81518
▁ileri	-8.81531
▁başarılı	-8.81581
acağız	-8.81595
▁uzak	-8.81607
▁muhteşem	-8.81651
ebilirsiniz	-8.81663
▁beri	-8.81701
▁yaşında	-8.81767
▁telefon	-8.81811
▁işin	-8.81918
▁6	-8.81969
▁bağlantı	-8.82129
▁vermek	-8.82138
▁york	-8.82246
▁almak	-8.82261
▁üst	-8.82301
▁değiştir	-8.82317
▁nerede	-8.8235
▁ihtiyaç	-8.82571
1	-8.82592
▁elbette	-8.82704
▁elektrik	-8.82881
00	-8.82964
▁olurdu	-8.83084
▁normal	-8.83099
▁gerekli	-8.83205
çı	-8.834
▁biliyorsunuz	-8.83415
▁buraya	-8.83602
do	-8.83715
▁asıl	-8.83953
ğ	-8.83983
▁konuda	-8.84024
▁burası	-8.84161
▁40	-8.84198
▁nə	-8.84224
▁gerektiğini	-8.84459
▁sayı	-8.84601
▁gidip	-8.84679
▁kuzey	-8.84845
▁kendimi	-8.8492
▁bil	-8.84937
acağım	-8.85002
▁kapı	-8.85033
▁sesi	-8.85095
tim	-8.85214
▁il	-8.85379
▁mavi	-8.85418
▁yaptı	-8.85571
▁haline	-8.85651
▁çözüm	-8.85657
▁fotoğraf	-8.85703
▁beyaz	-8.85752
▁ait	-8.85793
imi	-8.85839
alım	-8.85897
▁düşük	-8.86116
▁getir	-8.86362
lığın	-8.86675
▁bulunan	-8.86913
▁ilişki	-8.87201
▁nedenle	-8.87358
▁olmalı	-8.87415
son	-8.87455
▁yukarı	-8.87518
▁di	-8.87688
▁oray	-8.87697
▁re	-8.87725
▁verir	-8.87732
5	-8.88198
▁mevcut	-8.88332
▁ciddi	-8.89071
▁varsa	-8.89218
▁w	-8.8925
layan	-8.89439
▁yaptım	-8.89507
▁kitap	-8.89544
diğini	-8.89569
▁ediyorum	-8.89608
▁lazım	-8.89837
▁ortalama	-8.89902
ının	-8.8995
▁9	-8.90006
▁yatırım	-8.90061
▁batı	-8.90102
leriyle	-8.90117
▁edecek	-8.90194
▁başladık	-8.90223
▁p	-8.90246
▁gitme	-8.9026
2	-8.90274
lanmış	-8.90312
▁doğu	-8.90422
▁resmi	-8.9052
ıldı	-8.90521
▁tanrı	-8.90625
▁büyüme	-8.90636
▁sinir	-8.90803
8	-8.90859
▁dolu	-8.91077
▁görüntü	-8.9118
▁ilgi	-8.91249
▁mən	-8.91286
ö	-8.91494
taki	-8.91541
▁te	-8.91609
4	-8.91619
▁ister	-8.91658
▁yaptığım	-8.91805
▁sıra	-8.91843
▁herkesin	-8.92041
▁sayesinde	-8.92147
▁kişisel	-8.92288
▁gücü	-8.92545
▁söyledi	-8.92628
▁verdi	-8.92704
▁iste	-8.92714
▁kalan	-8.92723
▁robot	-8.92947
▁gir	-8.92966
▁hata	-8.93047
iyoruz	-8.93058
▁dna	-8.93285
▁kap	-8.93332
▁oda	-8.93342
j	-8.93369
▁uygulama	-8.9345
▁anlamı	-8.93566
mıştı	-8.93571
rken	-8.93575
▁musunuz	-8.93792
▁zamanlar	-8.9397
▁olmadan	-8.94011
▁gerekir	-8.94036
larıyla	-8.9415
bu	-8.9424
▁ders	-8.94255
▁düşünme	-8.94291
▁19	-8.94317
▁makine	-8.94318
▁pe	-8.94358
▁kimi	-8.94365
▁araç	-8.94426
▁t	-8.94448
▁ekonomi	-8.94515
ımı	-8.94568
▁sor	-8.94673
▁se	-8.94771
▁abd	-8.9478
6	-8.94976
▁dahil	-8.95
▁anlat	-8.9519
▁me	-8.95239
ey	-8.95346
diği	-8.95356
▁anlamın	-8.95407
▁kur	-8.95441
▁dur	-8.95528
sə	-8.95538
▁hâl	-8.95663
▁olduğum	-8.95814
ici	-8.9587
tur	-8.95897
▁x	-8.95978
ktan	-8.96005
▁sayfa	-8.961
▁veren	-8.96163
▁çocukların	-8.96249
▁zaten	-8.96518
▁aşı	-8.9653
mayı	-8.96562
▁görev	-8.96864
▁sanki	-8.96891
larımızı	-8.96991
ul	-8.9729
▁medya	-8.97314
ol	-8.97321
▁kır	-8.97334
▁başlıyor	-8.97506
▁yeşil	-8.97518
▁kazan	-8.97702
▁mesaj	-8.97744
▁tut	-8.97804
▁şeye	-8.97807
▁sol	-8.97839
▁emin	-8.97898
▁çek	-8.97929
yə	-8.98047
▁yıldır	-8.98099
▁merkezi	-8.98105
▁bunlardan	-8.98146
▁anlamak	-8.98568
▁pazar	-8.986
▁iklim	-8.98754
▁kamera	-8.98754
▁petrol	-8.98754
▁va	-8.98948
▁destek	-8.99064
▁heyecan	-8.99065
▁ilaç	-8.9914
▁devlet	-8.99305
▁sahibi	-8.99417
▁kas	-8.9946
mın	-8.99487
▁ettik	-8.99542
ga	-8.99641
▁belli	-8.99749
▁sa	-8.99769
▁hoş	-8.99771
▁tepki	-9.00005
▁aldı	-9.00297
▁risk	-9.00351
▁12	-9.00431
▁birinin	-9.00473
▁u	-9.00518
▁as	-9.00559
▁göstermek	-9.00613
▁aracı	-9.00629
▁bakalım	-9.00677
▁üniversite	-9.00722
▁görünüyor	-9.00788
▁çalışıyor	-9.00823
▁günde	-9.00986
dür	-9.01087
▁kalp	-9.01089
▁sar	-9.01127
▁olacağını	-9.01218
▁veriyor	-9.01365
▁hastalık	-9.01472
mize	-9.01528
▁ayrı	-9.01549
▁kullanma	-9.01771
▁kanser	-9.01882
▁harita	-9.02363
ebilecek	-9.02364
▁çıkan	-9.02425
▁metre	-9.02482
▁kalma	-9.02583
▁öğrenme	-9.02758
▁bulmak	-9.028
▁diyor	-9.02871
▁şekli	-9.0299
▁fiziksel	-9.03011
▁18	-9.03074
lük	-9.0312
▁söylemek	-9.03137
▁algı	-9.03172
ley	-9.03176
▁şirket	-9.0319
▁masa	-9.03219
▁yaşlı	-9.03268
▁zamanı	-9.03373
▁yanında	-9.03388
▁tak	-9.03461
dığımız	-9.03524
▁program	-9.0355
▁içeri	-9.03656
▁yerel	-9.03675
mda	-9.03788
▁alt	-9.0382
ünü	-9.03871
▁gördük	-9.03895
mde	-9.03909
▁bizler	-9.04
miyor	-9.04005
ed	-9.04035
▁bo	-9.04097
▁dünyaya	-9.04244
▁işaret	-9.04267
▁dolayısıyla	-9.04306
▁söyle	-9.04769
lerdi	-9.04845
▁d	-9.04862
abilecek	-9.04896
▁tarih	-9.04897
ver	-9.04949
▁zengin	-9.05158
▁üçüncü	-9.05247
▁birleşik	-9.05432
▁sınıf	-9.05551
▁dijital	-9.05616
▁sağlıyor	-9.05639
▁oldukları	-9.05674
▁oluşan	-9.05876
▁kök	-9.05896
▁tartışma	-9.05981
▁alır	-9.06359
is	-9.06432
▁engel	-9.06492
▁yapacak	-9.06515
▁kara	-9.06518
▁yara	-9.06518
▁tip	-9.06531
▁kaldır	-9.06543
▁amerikan	-9.06601
▁be	-9.06626
sh	-9.06694
▁seçim	-9.06802
▁yıllar	-9.06844
▁olsaydı	-9.06856
mişti	-9.06874
▁ufak	-9.06957
▁tarafta	-9.06987
▁nedeni	-9.06992
▁yeterli	-9.07051
ıyoruz	-9.07105
▁şarkı	-9.07145
ilen	-9.07156
mizin	-9.07337
▁na	-9.07345
,000	-9.07369
.000	-9.07728
▁erkekler	-9.07768
acağını	-9.07966
co	-9.07978
ng	-9.08341
▁düzen	-9.084
▁kon	-9.08508
mıza	-9.08611
sem	-9.08656
▁em	-9.08715
▁sabah	-9.08773
▁kırmızı	-9.08796
▁konuş	-9.0888
▁der	-9.09008
duk	-9.09347
▁gelip	-9.09507
▁kaynak	-9.09674
▁verdim	-9.09674
▁beynin	-9.09776
▁olmaya	-9.09791
▁yerlerde	-9.09815
ko	-9.09828
▁seç	-9.09904
▁mücadele	-9.10157
▁baskı	-9.10244
zi	-9.10365
lerimizi	-9.1037
▁yıllık	-9.10532
iş	-9.10577
▁mars	-9.10585
▁hedef	-9.10707
▁bar	-9.10813
▁koruma	-9.10879
▁gidiyor	-9.1098
▁aşırı	-9.11032
▁olursa	-9.11049
▁aldım	-9.11071
▁başlar	-9.11085
▁temsil	-9.11091
▁eş	-9.11163
▁evrim	-9.11257
liğe	-9.11465
0'	-9.1173
san	-9.11743
kar	-9.11787
ing	-9.11852
▁gördüm	-9.1186
▁şaşırtıcı	-9.12039
▁mal	-9.12079
iyle	-9.12094
▁birini	-9.12098
▁yoksa	-9.12235
▁gönder	-9.12292
▁icin	-9.12342
ür	-9.12389
▁şeylerden	-9.12425
▁gerçekte	-9.12484
▁ihtiyacı	-9.12512
▁bi	-9.12608
▁google	-9.12746
▁ince	-9.13002
▁sahne	-9.13004
▁milyonlarca	-9.13009
▁kol	-9.13193
▁yaş	-9.13311
▁200	-9.13387
▁altın	-9.13447
▁üstünde	-9.13564
▁baba	-9.13779
no	-9.13905
ilmiş	-9.13909
ton	-9.14061
▁çıkıyor	-9.14089
▁takım	-9.14126
▁gerektiği	-9.14163
▁fakir	-9.14244
▁vi	-9.14246
▁çift	-9.14261
▁sayıda	-9.14266
yorum	-9.14356
▁yasa	-9.14449
▁dizi	-9.14557
▁tanesi	-9.14643
▁olmasını	-9.14735
eceğim	-9.14812
▁h	-9.14894
hi	-9.15026
▁boş	-9.15121
▁bakım	-9.1516
▁duy	-9.15332
▁neyse	-9.15375
▁dışı	-9.15398
▁öz	-9.15415
▁8	-9.15486
▁uç	-9.15518
▁derecede	-9.15524
▁tanı	-9.15735
▁katı	-9.15908
▁işler	-9.1592
▁is	-9.15954
▁mo	-9.15988
landı	-9.16173
▁inanıyorum	-9.16176
▁eve	-9.16233
▁top	-9.16529
▁biçimde	-9.16599
▁noktada	-9.16633
▁ediyoruz	-9.1686
▁açı	-9.16992
▁so	-9.1705
▁yapıyoruz	-9.17054
▁gittim	-9.17054
▁gider	-9.17056
meliyiz	-9.17105
▁gördüğümüz	-9.17136
▁bakarsanız	-9.17153
▁etkileşim	-9.17189
▁yerinde	-9.17204
lenmiş	-9.17298
▁ad	-9.17327
▁kültür	-9.17558
bir	-9.17571
sam	-9.1769
▁halde	-9.177
▁kutu	-9.17711
▁dış	-9.1777
▁merkez	-9.1783
▁numara	-9.17881
▁görsel	-9.1813
ll	-9.18266
▁kendine	-9.18364
meyi	-9.18411
▁babam	-9.18457
▁görüş	-9.18468
lamak	-9.18534
▁ürün	-9.18548
▁yaratmak	-9.18675
▁şeylerin	-9.18802
▁kurtar	-9.1887
▁demokrasi	-9.1889
▁hal	-9.18891
▁yapılmış	-9.18942
▁arkadaşım	-9.18968
▁zarar	-9.19012
▁etkili	-9.19042
▁hizmet	-9.19079
▁yaratıcı	-9.19122
▁sonrasında	-9.19143
▁bitki	-9.19149
teki	-9.1923
▁ol	-9.1925
▁ho	-9.19532
▁bilme	-9.19762
es	-9.19767
▁esas	-9.19804
▁yaptıkları	-9.19822
▁süper	-9.19914
leşme	-9.19993
▁yiyecek	-9.20058
▁annem	-9.20134
▁politika	-9.20229
▁saniye	-9.20581
▁mil	-9.20661
yken	-9.20737
mo	-9.20831
▁bilmiyorum	-9.20991
▁etkisi	-9.21028
▁can	-9.21073
▁insanlarla	-9.21087
▁ortada	-9.21185
▁olacaktır	-9.21224
▁burda	-9.21266
▁olduklarını	-9.21388
▁sonucu	-9.21431
▁ilham	-9.21463
▁durumu	-9.21472
kten	-9.21478
ış	-9.21496
▁açıkça	-9.21538
▁kaynağı	-9.21656
▁sayısı	-9.21721
▁genellikle	-9.21729
▁ra	-9.21826
▁bilimsel	-9.21863
▁kişiler	-9.2192
▁kendimizi	-9.21968
ıyorlar	-9.21972
▁taraf	-9.21997
nıza	-9.22002
▁kişinin	-9.22012
muz	-9.22121
ebiliyor	-9.22132
diğimiz	-9.22137
▁konusu	-9.22138
eceğiz	-9.22147
▁geleneksel	-9.22254
▁25	-9.22397
▁amaç	-9.22398
mə	-9.22611
▁zamanlarda	-9.22723
mizde	-9.22751
▁olmuş	-9.22753
3	-9.2305
▁edilmiş	-9.23114
▁modern	-9.23296
▁gelişme	-9.23312
▁yarı	-9.23374
▁kendilerini	-9.23384
ən	-9.23389
▁günü	-9.23426
go	-9.23528
▁teknik	-9.2357
▁azında	-9.23594
▁suç	-9.2363
lıyor	-9.237
▁art	-9.23704
ran	-9.23756
▁başında	-9.23777
▁yüzlerce	-9.23827
▁gösteren	-9.23961
▁ö	-9.23998
▁geçir	-9.24013
▁hayvanlar	-9.24043
▁ayak	-9.24078
▁karbon	-9.24094
▁li	-9.24186
▁sağlayan	-9.24197
▁çalışmak	-9.24251
▁büyü	-9.24264
▁hadi	-9.24309
suz	-9.24313
▁tanım	-9.24326
▁fırsat	-9.24394
▁söylüyor	-9.2453
▁akıl	-9.24571
▁ateş	-9.24631
▁istedim	-9.24691
▁11	-9.2484
▁cep	-9.24906
▁yüzü	-9.25019
ck	-9.2511
▁çeşitli	-9.25118
▁dışarı	-9.25167
▁açısından	-9.25196
▁alın	-9.25273
dılar	-9.25361
lanıyor	-9.25583
▁önceki	-9.25599
iyorlar	-9.25631
▁nerey	-9.25799
uyor	-9.2581
▁öğret	-9.25833
▁kesin	-9.25928
▁umut	-9.25971
▁hikâye	-9.2598
▁garip	-9.2599
▁adında	-9.26149
▁yüzünden	-9.26279
▁herşey	-9.26301
malıyız	-9.26485
▁edil	-9.26557
▁geliştir	-9.26579
nuz	-9.26676
iniz	-9.26819
sıyla	-9.26824
▁ro	-9.26865
▁ko	-9.27092
▁ç	-9.27169
mıyor	-9.27189
mu	-9.27282
▁sana	-9.2736
▁senin	-9.27395
lanma	-9.27402
▁hesap	-9.27428
▁mesele	-9.27807
▁mikro	-9.27817
lanan	-9.27912
ər	-9.27928
▁po	-9.27954
▁hər	-9.27959
ku	-9.2799
yor	-9.28109
▁tercih	-9.28181
▁sonsuz	-9.28271
▁çık	-9.28277
▁alıyor	-9.28294
▁öğrenci	-9.28314
nize	-9.28343
▁önünde	-9.28383
abiliyor	-9.28468
der	-9.28521
▁gösteri	-9.28545
▁hayatın	-9.28563
▁kanıt	-9.28644
ılan	-9.28771
▁değilim	-9.28801
▁ucuz	-9.28822
▁tepe	-9.28881
▁deneme	-9.29011
▁dağ	-9.2904
▁günlük	-9.29112
▁aldık	-9.29136
th	-9.292
meyen	-9.29281
ından	-9.29297
▁korkunç	-9.293
▁yöntem	-9.29317
▁kullanmak	-9.29332
▁fa	-9.29339
masını	-9.29393
▁anlamda	-9.29395
▁denge	-9.29599
▁yapabiliriz	-9.29656
unun	-9.29661
▁sağlıklı	-9.29814
▁çaba	-9.29865
▁onunla	-9.29933
▁gezegen	-9.29936
▁gizli	-9.29968
▁olun	-9.30032
▁süreç	-9.30152
▁istiyoruz	-9.30207
▁amacı	-9.303
▁ardından	-9.3031
▁hastane	-9.30335
▁bulduk	-9.30415
▁şiddet	-9.30517
ru	-9.30544
▁okyanus	-9.30564
▁ondan	-9.30619
▁teori	-9.30641
▁eylem	-9.30728
▁r	-9.30753
mızın	-9.30793
▁it	-9.3083
▁sekiz	-9.31004
▁çocukları	-9.31008
▁konuşmak	-9.31041
▁göstereceğim	-9.31064
▁söylediği	-9.31136
▁satın	-9.31142
kçe	-9.31232
▁din	-9.3125
▁av	-9.31281
▁siyah	-9.31334
os	-9.31339
▁temiz	-9.31444
▁hayatı	-9.31479
▁kes	-9.31565
▁mar	-9.31659
▁kuş	-9.31773
▁ge	-9.31865
ndaki	-9.31957
▁gözlem	-9.32106
▁belirli	-9.32567
▁içindeki	-9.32582
▁olanlar	-9.32667
▁pekala	-9.3274
▁silah	-9.32778
▁sev	-9.3285
▁ke	-9.32871
ıyordu	-9.32886
▁am	-9.32886
▁ah	-9.32907
▁şekil	-9.33075
▁getirmek	-9.33076
▁yaşama	-9.33173
▁hak	-9.33186
9	-9.33242
ot	-9.33335
dığım	-9.33397
yse	-9.33541
tık	-9.33618
▁hücreleri	-9.3372
▁güvenli	-9.33728
▁bit	-9.33755
▁güvenlik	-9.33821
▁bebek	-9.33857
ğe	-9.33885
▁öğretmen	-9.33916
▁düşünüyor	-9.33931
▁köpek	-9.342
▁ulusal	-9.34222
▁bilir	-9.34296
lardır	-9.34412
▁budur	-9.34431
▁kitabı	-9.34503
▁yapabilir	-9.34751
▁anlam	-9.34773
▁park	-9.34784
eceği	-9.34805
▁farkında	-9.34822
▁seviyorum	-9.34826
sından	-9.34828
▁sonu	-9.34829
▁gösterdi	-9.34921
ama	-9.34935
▁gitmek	-9.35039
larımızın	-9.35046
▁olduğundan	-9.35071
▁genetik	-9.35098
▁kere	-9.3512
iyet	-9.35161
▁yapıyorlar	-9.35164
▁doktor	-9.35219
▁dönüş	-9.35247
▁fare	-9.35272
ğu	-9.35357
▁polis	-9.35358
▁piyasa	-9.35388
▁öyleyse	-9.3543
▁ilerleme	-9.35468
▁fikirler	-9.35525
fa	-9.35565
▁bulma	-9.3567
lerdir	-9.35836
mızda	-9.35903
▁iz	-9.35956
▁edebilir	-9.35959
ah	-9.35965
▁j	-9.36133
▁balık	-9.36137
▁hepsini	-9.36218
▁sorunu	-9.36343
▁ikisi	-9.36368
▁köy	-9.3639
▁nesil	-9.36437
▁geriye	-9.36507
ysa	-9.36753
lığ	-9.36825
▁kilo	-9.369
▁programı	-9.37016
eceğini	-9.37035
▁es	-9.37075
▁doku	-9.37114
▁yapmamız	-9.37199
▁orman	-9.37201
yıp	-9.37218
▁gitti	-9.37233
po	-9.37296
siyle	-9.37362
▁yoktur	-9.37373
▁hastalığı	-9.37408
▁geldiği	-9.3742
▁olağanüstü	-9.37504
▁yağmur	-9.37504
diğim	-9.37506
▁giden	-9.37525
▁ülkeler	-9.37534
▁yaklaş	-9.37654
▁dönem	-9.37787
▁istediğimiz	-9.37804
▁oldum	-9.37952
▁karanlık	-9.38088
▁ci	-9.38092
▁kayıt	-9.38117
▁tarz	-9.38145
▁değişik	-9.38236
▁oranı	-9.38241
iyorum	-9.38405
▁ata	-9.38438
▁bilər	-9.38464
ste	-9.3851
▁vücut	-9.38732
▁er	-9.38778
gen	-9.38798
▁hakkı	-9.38847
▁ayır	-9.39249
tım	-9.39285
▁açıdan	-9.39305
▁alakalı	-9.39352
▁hepimizin	-9.3938
▁ulaş	-9.39408
▁üzerindeki	-9.39417
▁arkadaş	-9.39486
▁16	-9.39534
▁toprak	-9.39672
▁öte	-9.39679
▁okuma	-9.39745
▁politik	-9.39867
▁gerçeği	-9.39873
▁ni	-9.3992
▁şirketler	-9.39924
▁televizyon	-9.39976
▁çalışır	-9.40016
▁modeli	-9.40016
▁etrafında	-9.40104
▁olmayacak	-9.40168
▁dönü	-9.40247
▁gıda	-9.40292
▁akıllı	-9.40301
▁yeri	-9.40398
▁tə	-9.40403
▁türlü	-9.40576
▁geçti	-9.40595
▁icat	-9.40605
▁ısı	-9.40633
▁buldum	-9.40685
▁duygu	-9.40714
▁yeterin	-9.40724
▁edilen	-9.40729
▁fe	-9.40729
▁insanı	-9.40807
▁düz	-9.40831
ladı	-9.40838
▁sıfır	-9.4092
lt	-9.41016
▁rol	-9.41178
▁sorular	-9.41212
▁sefer	-9.41214
▁yağ	-9.41248
▁taş	-9.41369
yü	-9.41379
▁oy	-9.41429
▁yazar	-9.41462
up	-9.41578
▁verin	-9.4158
▁virüs	-9.41597
▁karakter	-9.41638
▁hu	-9.4165
▁sıcak	-9.41722
▁önemlisi	-9.41765
▁olduğunda	-9.41819
una	-9.41877
▁deyil	-9.41885
▁60	-9.41969
▁otur	-9.42014
▁şehrin	-9.421
met	-9.42145
▁web	-9.42194
▁har	-9.42207
▁üret	-9.42212
▁eşit	-9.42219
▁the	-9.42514
maq	-9.4255
▁paylaş	-9.42685
▁to	-9.42754
lenme	-9.42761
▁gelme	-9.42806
▁nefes	-9.42835
▁aktar	-9.42844
▁dahi	-9.42962
▁sağladı	-9.42991
▁yayın	-9.43059
▁yapmayı	-9.43063
▁ziyaret	-9.43156
▁zihin	-9.43156
maktadır	-9.43158
▁ton	-9.43284
▁bulun	-9.43299
▁davran	-9.43318
mez	-9.43323
▁dr	-9.43344
▁anlamaya	-9.43369
▁duyma	-9.43401
▁ettiği	-9.43446
▁süreci	-9.43466
▁teşvik	-9.4348
abilmek	-9.43493
▁bölüm	-9.43538
əm	-9.43586
▁jo	-9.43609
adlı	-9.4377
▁sanal	-9.43818
▁ülkede	-9.43821
▁işlem	-9.43928
▁başta	-9.44028
▁toplam	-9.44094
▁cok	-9.44098
▁sağlamak	-9.44141
▁belir	-9.44187
▁kadınların	-9.44237
op	-9.44291
▁yapar	-9.44437
▁yabancı	-9.44492
▁dalga	-9.44687
▁gen	-9.44725
▁düşündük	-9.44733
mayan	-9.44746
nızda	-9.44765
▁rüzgar	-9.44785
▁yaparken	-9.44845
▁görüyor	-9.44849
▁ortasında	-9.4485
▁yüzyıl	-9.44872
▁erken	-9.44899
▁örneği	-9.44951
ği	-9.45023
cü	-9.45029
▁yarısı	-9.45035
▁yıldız	-9.45057
▁düşünmeye	-9.45082
▁uydu	-9.4509
▁kod	-9.45193
▁kısım	-9.45209
▁bildiğimiz	-9.45268
▁evren	-9.45345
▁geçme	-9.45476
rt	-9.45495
yoruz	-9.45506
▁br	-9.45533
▁fazlası	-9.45711
▁ediyorlar	-9.45756
▁tarihi	-9.4578
▁çöz	-9.45787
▁kimyasal	-9.45789
▁onlarla	-9.45887
▁geldiğini	-9.459
▁verdik	-9.4591
▁biyo	-9.45969
▁qa	-9.45986
▁hissed	-9.46045
▁tarım	-9.46114
▁değiştirmek	-9.4618
▁telefonu	-9.46299
▁tutu	-9.46336
ss	-9.46358
▁önümüzde	-9.46446
▁devletler	-9.46569
▁günümüzde	-9.46571
▁çalışıyoruz	-9.46582
▁sey	-9.46599
▁buz	-9.46703
▁seyahat	-9.46775
▁tecrübe	-9.46775
▁görün	-9.46789
▁belə	-9.46827
▁yoğun	-9.46827
▁getirdi	-9.46905
mesini	-9.47013
▁sırada	-9.47077
mektedir	-9.4711
kan	-9.47247
ndeki	-9.47279
▁başar	-9.47296
▁kenar	-9.47305
▁kendime	-9.47322
▁çiz	-9.47344
imizi	-9.47366
▁sonuçlar	-9.47396
▁sahibiz	-9.47402
▁ağır	-9.47466
acağı	-9.47516
ılması	-9.47688
makta	-9.47715
▁uluslararası	-9.47785
▁davet	-9.47801
ildi	-9.4783
▁halinde	-9.47835
▁sırasında	-9.47926
▁site	-9.47942
nün	-9.47959
▁sanatçı	-9.47991
▁pat	-9.48154
▁arazi	-9.4816
▁yüzey	-9.48203
▁yana	-9.4821
▁aşama	-9.48214
▁halk	-9.4831
▁değiş	-9.48342
▁sat	-9.48421
▁zeka	-9.48466
▁ışığı	-9.4847
▁soğuk	-9.48493
▁adını	-9.48637
▁hayatını	-9.48661
▁seks	-9.48673
▁ettiğimiz	-9.48709
▁ikna	-9.48819
lemek	-9.48847
▁hükümet	-9.48882
▁başa	-9.48927
nə	-9.48974
asyon	-9.49005
liğini	-9.49043
▁dans	-9.49131
gu	-9.49139
ger	-9.49183
▁söyleme	-9.49191
▁benziyor	-9.492
▁dev	-9.49212
▁birşeyler	-9.49249
▁problemi	-9.49255
▁sal	-9.49261
▁katkı	-9.49271
▁muazzam	-9.49492
▁getiriyor	-9.49546
▁dal	-9.49579
ly	-9.49587
▁liste	-9.49678
▁odaklan	-9.49825
▁döndü	-9.49828
▁strateji	-9.49836
▁yaygın	-9.49837
▁okula	-9.49908
▁çekici	-9.49925
▁kare	-9.49927
▁saldırı	-9.49959
ət	-9.50017
▁indi	-9.50145
▁bay	-9.50179
▁akşam	-9.50183
▁düş	-9.50193
▁seviye	-9.50196
▁indir	-9.50222
▁tutku	-9.50262
▁yaparak	-9.50298
▁cevabı	-9.50301
▁kuru	-9.50358
▁noktası	-9.50384
▁git	-9.50437
sü	-9.5051
▁sizlere	-9.50544
unda	-9.50562
▁demektir	-9.50856
▁seni	-9.50857
▁lütfen	-9.50878
▁suyu	-9.51042
▁geçmiş	-9.51092
▁dayan	-9.51105
▁y	-9.51213
▁yaşıyor	-9.51218
▁fabrika	-9.51228
▁benimle	-9.51289
▁14	-9.51297
lendi	-9.51336
▁olduğunuz	-9.51425
▁ayı	-9.51484
▁st	-9.51494
bilme	-9.51598
▁sevgi	-9.51637
▁sun	-9.51648
▁yaşan	-9.51782
▁arı	-9.5187
▁pa	-9.51888
▁bisiklet	-9.51931
▁şans	-9.52042
▁parti	-9.52046
▁sizinle	-9.52069
▁kullanıyor	-9.52124
▁rahat	-9.52141
iliyor	-9.52241
▁hissetme	-9.52265
▁pi	-9.52271
▁kendimiz	-9.5236
▁mimari	-9.52389
▁çalışıyorum	-9.52409
▁ofis	-9.52562
ılır	-9.52572
▁duruyor	-9.52582
▁görürsünüz	-9.5264
luyor	-9.52783
▁birinci	-9.52818
▁çalışmaya	-9.52844
ad	-9.52879
dığınız	-9.52901
▁şa	-9.52987
▁müthiş	-9.52995
▁tehdit	-9.52995
as	-9.52997
▁imkansız	-9.53051
▁sür	-9.53094
▁görünen	-9.53105
▁verileri	-9.53158
ışı	-9.53181
▁çalıştığım	-9.53267
▁kurma	-9.53272
▁bağımsız	-9.53353
▁ortam	-9.53368
▁gör	-9.53413
ğini	-9.53415
cık	-9.53432
dıkları	-9.53517
▁sistemin	-9.53672
▁edir	-9.53675
▁hücreler	-9.5369
▁zeki	-9.53702
▁boyutlu	-9.53737
yo	-9.53754
▁sınır	-9.5379
▁edildi	-9.53812
▁yaratma	-9.53859
▁adamı	-9.53865
▁tur	-9.54002
▁kağıt	-9.5407
▁işbirliği	-9.5407
▁görə	-9.54074
▁pahalı	-9.54123
▁olduğumu	-9.54134
▁şimdiye	-9.54287
▁spor	-9.5447
▁makale	-9.54488
▁eğlenceli	-9.54491
ry	-9.54527
▁devre	-9.54532
▁biyolojik	-9.54554
▁tehlikeli	-9.54568
mıştım	-9.54644
▁açıklama	-9.54717
▁hızla	-9.54731
▁oluştur	-9.54732
▁malzeme	-9.54755
▁bulunduğu	-9.54761
laşma	-9.54831
▁söyler	-9.54861
liyor	-9.54874
▁man	-9.54984
▁ter	-9.55202
ıyorum	-9.55231
ber	-9.55291
▁13	-9.55375
▁kural	-9.55377
▁biyoloji	-9.55399
seydi	-9.55461
abileceği	-9.55482
layıcı	-9.55509
▁tuhaf	-9.55522
▁üretim	-9.55575
▁adına	-9.55693
▁qu	-9.55766
▁çöp	-9.55888
▁saygı	-9.5589
▁davranış	-9.5591
mü	-9.56
▁araçlar	-9.56029
▁sorunları	-9.5603
▁amma	-9.56045
sunu	-9.56071
landır	-9.56092
▁beyni	-9.56122
▁matematik	-9.56192
▁olduk	-9.56248
▁pro	-9.56256
▁düşür	-9.56268
yon	-9.56297
umuz	-9.56364
▁ölü	-9.56402
▁kaza	-9.56469
▁başlama	-9.56503
▁anı	-9.56654
▁dile	-9.56677
diler	-9.56705
▁kum	-9.56849
▁duyu	-9.5687
laştır	-9.56873
▁uyan	-9.56876
▁diş	-9.56981
tör	-9.57167
▁bol	-9.57194
▁kaldı	-9.57196
▁hepiniz	-9.57217
▁yük	-9.57233
▁tarafı	-9.57278
▁umarım	-9.57367
▁anlatmak	-9.57497
birine	-9.57522
▁miktarda	-9.57556
▁sergi	-9.57569
▁motor	-9.57576
▁kurtul	-9.57659
ğü	-9.57676
▁gösterme	-9.57719
▁edici	-9.5778
madı	-9.5789
▁sıradan	-9.57932
▁gücünü	-9.57935
dikleri	-9.57972
ist	-9.58046
▁gelecekte	-9.58107
▁reklam	-9.58116
▁çapında	-9.58129
▁ada	-9.58169
nü	-9.58268
▁beden	-9.5835
▁çocuğun	-9.58376
▁düşünmek	-9.58445
▁sürdürülebilir	-9.5849
▁ingilizce	-9.58549
▁endişe	-9.58553
▁olmayı	-9.58654
▁sağlığı	-9.58691
▁istiyor	-9.58713
ize	-9.58797
▁başarısız	-9.58958
▁kaya	-9.59009
▁birincisi	-9.59105
▁chris	-9.59247
▁devrim	-9.59359
▁mahalle	-9.59369
ayım	-9.59402
▁geçerli	-9.59412
▁bahçe	-9.59454
▁boya	-9.59558
▁yaşındaki	-9.59591
▁parçaları	-9.59644
▁lo	-9.59688
imizin	-9.5972
▁net	-9.59793
▁öncelikle	-9.59846
ümüz	-9.59859
▁tehlike	-9.59864
..	-9.59874
▁öğrendim	-9.59888
▁olmaları	-9.5995
ay	-9.59963
▁plastik	-9.60009
▁parmak	-9.60025
muştu	-9.60053
miştim	-9.60123
▁sıkı	-9.60279
▁gerekiyordu	-9.60314
▁ja	-9.60415
▁dönüştür	-9.60437
▁yaklaşım	-9.60497
tra	-9.60515
kleri	-9.6053
▁sessiz	-9.60566
▁yapay	-9.60641
maz	-9.60792
▁gaz	-9.6087
▁gazete	-9.60958
▁yapmış	-9.60959
▁olduğumuzu	-9.60987
▁rahatsız	-9.61097
▁doğum	-9.6117
yordu	-9.61274
▁imkan	-9.61331
▁şirketi	-9.61345
ör	-9.61403
▁alanda	-9.61472
▁gu	-9.61528
▁suyun	-9.61547
▁standart	-9.6155
▁bilmiyor	-9.61586
lıyız	-9.61685
▁ettiler	-9.61716
mekte	-9.61743
▁öğrenmek	-9.6175
▁beceri	-9.61907
▁ingiltere	-9.61939
▁çocuğu	-9.61967
▁ederek	-9.61975
amaz	-9.62003
lığını	-9.62067
▁cihaz	-9.62078
▁çoğunlukla	-9.62132
▁ağaç	-9.62137
▁geçiş	-9.62217
▁geleceği	-9.62219
▁boyu	-9.62292
ılıyor	-9.6231
▁kullanıl	-9.62323
▁iddia	-9.6233
▁bomba	-9.6233
▁grafik	-9.6233
▁bulunuyor	-9.62345
▁olmaz	-9.62414
▁diğeri	-9.62523
▁çalıştık	-9.62574
lanır	-9.62574
▁cam	-9.62742
üyor	-9.62746
▁evrenin	-9.62794
▁değişikliği	-9.62795
acaktır	-9.62858
▁not	-9.62987
▁bitir	-9.63
▁ilə	-9.63017
tt	-9.63067
▁geçiyor	-9.63072
▁çatışma	-9.63118
▁sarı	-9.63124
▁hi	-9.63138
mək	-9.63144
▁isteyen	-9.63184
larınız	-9.63233
şa	-9.63317
ho	-9.63332
▁etmiş	-9.63344
▁yorum	-9.63387
▁arası	-9.634
▁fizik	-9.63449
dığında	-9.6345
▁fi	-9.63472
▁sağlayacak	-9.63482
▁kısmını	-9.63488
▁anlay	-9.63505
▁istediğiniz	-9.6351
▁keşif	-9.63511
▁zayıf	-9.63511
▁deri	-9.63559
▁adlandır	-9.63575
▁azalt	-9.63599
▁almaya	-9.63824
▁dokun	-9.63848
▁göreceksiniz	-9.63924
▁isim	-9.63984
▁eminim	-9.64027
lərin	-9.6403
kları	-9.64076
▁evde	-9.64085
▁hesaplama	-9.64193
▁bakar	-9.64196
▁alet	-9.64259
oloji	-9.64273
mamız	-9.64287
▁protein	-9.64308
▁hayatımı	-9.64413
▁radyo	-9.64491
ebil	-9.64514
ebileceği	-9.64527
▁hissi	-9.64582
▁gemi	-9.64595
▁sorumlu	-9.64604
▁savaşı	-9.64621
▁qədər	-9.64706
luğu	-9.64715
▁ismi	-9.64777
meyecek	-9.64851
▁bildiğiniz	-9.64967
▁km	-9.64983
▁hafif	-9.65108
▁yakıt	-9.65131
▁ölçü	-9.65245
▁sordu	-9.65246
▁nesne	-9.65277
▁yazılım	-9.65413
▁olmamız	-9.65462
▁ünlü	-9.65516
▁kullanımı	-9.6554
▁gördü	-9.65577
▁ikincisi	-9.65618
▁birine	-9.6562
nizin	-9.65689
▁ab	-9.65703
▁rakam	-9.65713
▁mısır	-9.65918
▁kilometre	-9.65919
▁gay	-9.65923
▁bulunma	-9.65926
▁benzeri	-9.65937
▁gözü	-9.6594
▁duygusal	-9.65943
▁kitle	-9.65951
nca	-9.65958
▁ettiğim	-9.65981
▁verilen	-9.66007
▁sonuçta	-9.66073
▁giy	-9.66102
nızın	-9.66142
▁ödeme	-9.6621
▁sır	-9.66249
▁yo	-9.66263
▁nefret	-9.66322
▁buçuk	-9.66328
▁giriş	-9.66433
sen	-9.66526
ram	-9.66617
▁önem	-9.66676
▁say	-9.6671
emez	-9.66832
▁toplumun	-9.66837
▁görmeye	-9.66922
▁sp	-9.66961
▁gelişmiş	-9.67035
▁niye	-9.67081
▁topluluk	-9.67143
▁vur	-9.67177
▁işçi	-9.6725
▁bende	-9.67347
miştir	-9.67435
▁çalıştım	-9.67499
▁buldu	-9.67511
▁yemeği	-9.67529
▁renk	-9.67534
▁şiir	-9.6757
▁deli	-9.67604
▁yeteneği	-9.67854
▁sabit	-9.67965
▁yarım	-9.67993
▁kullanır	-9.68048
ğım	-9.68068
▁sonuçları	-9.68081
▁barış	-9.68124
▁dediler	-9.68197
▁dokuz	-9.68207
ırken	-9.68244
▁çoğunu	-9.6837
▁ku	-9.68374
▁galaksi	-9.6838
▁gelişmekte	-9.68393
▁hiv	-9.68414
▁toplantı	-9.68437
▁dolaş	-9.68574
mayacak	-9.6867
▁alanlar	-9.6875
▁kahraman	-9.68797
▁yaxşı	-9.68797
▁gerçekleştir	-9.68807
▁birleştir	-9.68916
eri	-9.6893
▁bal	-9.68933
▁kullanılan	-9.68939
leyen	-9.68952
▁çal	-9.69015
▁dediği	-9.69097
▁şeklinde	-9.69109
▁keşfed	-9.69198
▁giderek	-9.6925
▁üstüne	-9.69304
ic	-9.69322
▁kalbi	-9.69414
▁buydu	-9.69454
▁eriş	-9.6954
▁ülkelerde	-9.69589
▁q	-9.69595
▁ekran	-9.69691
wa	-9.69703
▁bakmak	-9.6977
▁değerli	-9.69781
diğinde	-9.69849
▁balığı	-9.69854
▁yönetim	-9.69874
▁yay	-9.6988
▁önemlidir	-9.69906
▁verdiği	-9.69985
▁gid	-9.70043
▁yönlendir	-9.70054
ıyorsunuz	-9.70123
▁dost	-9.70143
▁sordum	-9.70219
ebilmek	-9.70263
▁yak	-9.70294
▁alanında	-9.70508
▁siyasi	-9.7053
sən	-9.70541
▁olabileceği	-9.70572
▁nüfus	-9.70629
▁çevir	-9.70697
▁hey	-9.70711
▁yeme	-9.70847
▁besin	-9.70859
▁değiller	-9.70932
▁24	-9.70985
tür	-9.70993
bil	-9.7102
▁yapabilirsiniz	-9.71023
▁je	-9.71057
▁elimizde	-9.71067
▁arama	-9.71116
▁ed	-9.71214
▁olmadı	-9.71268
▁birer	-9.71496
▁önün	-9.71537
▁hız	-9.71718
larca	-9.71757
▁obje	-9.71763
▁öldür	-9.71805
▁zorundayız	-9.71874
▁yılın	-9.71915
▁sağlay	-9.71979
▁yön	-9.71991
▁terk	-9.72105
▁hakları	-9.72174
▁go	-9.72194
▁unut	-9.72197
▁yolculuk	-9.72201
▁edə	-9.72207
▁asya	-9.72263
▁isteme	-9.72302
▁ala	-9.72319
▁par	-9.72495
▁fikirleri	-9.7255
▁adalet	-9.72637
ünün	-9.72648
▁arzu	-9.7265
▁belirt	-9.72707
larım	-9.72759
▁köşe	-9.72777
▁fotoğrafı	-9.72862
▁miktar	-9.72874
▁değiliz	-9.72948
▁bakteri	-9.7298
▁yolunu	-9.73041
▁olanı	-9.73066
▁sokak	-9.73146
▁inanç	-9.73158
▁kalk	-9.73252
▁gülüş	-9.73314
▁adamın	-9.73316
kal	-9.73323
▁görevi	-9.73362
ster	-9.73388
▁herşeyi	-9.73406
▁gözleri	-9.73498
▁aktivite	-9.73498
▁hatırlıyorum	-9.73523
▁yaşamak	-9.73536
▁böyük	-9.73575
▁yazma	-9.7362
▁öğrenciler	-9.73711
▁yapıldı	-9.73716
▁oyunu	-9.73771
▁organ	-9.73782
▁kral	-9.73862
▁zihni	-9.73929
▁afganistan	-9.73937
▁dışarıda	-9.73973
▁neyin	-9.73997
▁tasarruf	-9.74001
▁bekliyor	-9.7403
lerimizin	-9.74055
▁mantıklı	-9.74067
▁hareketi	-9.74087
▁duvar	-9.74091
▁isə	-9.74109
▁dek	-9.7411
▁eşi	-9.74137
▁ölç	-9.74163
▁koku	-9.74166
▁düşündü	-9.74213
▁paylaşmak	-9.74293
▁ulaşma	-9.74318
▁nükleer	-9.74377
▁sağlama	-9.74428
▁uyum	-9.74433
▁yollar	-9.7445
kça	-9.7448
▁söyley	-9.74483
▁sorunlar	-9.74515
▁parlak	-9.74535
▁robotlar	-9.74574
▁dikkatli	-9.74597
▁yapıyorum	-9.74655
▁sağlar	-9.74679
cak	-9.74743
sidir	-9.74761
▁altyapı	-9.7482
▁hukuk	-9.74821
▁görünür	-9.74835
▁koru	-9.74839
▁sap	-9.74876
▁oluşturuyor	-9.74891
▁girişimci	-9.74935
▁istediği	-9.74986
▁taşı	-9.75012
▁değiştirdi	-9.75185
▁hali	-9.7519
▁epey	-9.75264
▁ödül	-9.75278
▁komik	-9.75297
▁verimli	-9.75377
he	-9.75443
▁türü	-9.75474
▁sevdiğim	-9.75544
▁nevi	-9.75568
layacak	-9.75581
▁saç	-9.75664
abileceğimiz	-9.75705
▁yetiştir	-9.75714
▁ayar	-9.75751
▁açtı	-9.75761
▁boy	-9.75774
ırsınız	-9.75888
▁yaptığınız	-9.75945
lerim	-9.7597
▁yerler	-9.76111
▁gerçeklik	-9.7615
▁kendinizi	-9.7629
▁etmeyi	-9.763
▁diyorum	-9.76342
▁yola	-9.76351
gun	-9.76353
▁işletme	-9.76369
▁ila	-9.76384
▁sesleri	-9.76395
▁ser	-9.76544
▁nereden	-9.76549
▁oran	-9.76607
▁yanıt	-9.76655
▁lider	-9.76691
▁kör	-9.76717
▁arkadaşları	-9.76755
leştirme	-9.76838
▁bilmek	-9.76909
▁oluşturmak	-9.76965
lılar	-9.76982
▁buradan	-9.77051
▁arkadaşlarım	-9.77066
▁500	-9.77066
ren	-9.77072
▁cinsel	-9.77074
▁kopya	-9.77079
▁işleri	-9.77128
▁bilinen	-9.7714
▁yılı	-9.77158
▁edip	-9.7721
▁birbirleri	-9.77225
ayet	-9.77229
▁ən	-9.77237
▁kıl	-9.77336
▁çılgın	-9.77428
▁yaptığını	-9.77483
▁ailem	-9.77502
▁john	-9.77502
▁çiçek	-9.77517
dy	-9.7752
▁aklım	-9.77566
▁getirme	-9.77645
lanması	-9.77661
ınız	-9.77679
▁delik	-9.77706
▁duydu	-9.77721
▁kaba	-9.77774
▁don	-9.77855
▁şeyden	-9.77865
▁dili	-9.77877
▁verecek	-9.77897
▁daire	-9.77918
▁dizayn	-9.77974
▁gurur	-9.77974
▁kalıyor	-9.77974
▁dava	-9.77984
▁karşılaştır	-9.78
▁amerikalı	-9.78005
▁mutluluk	-9.7803
▁olabileceğini	-9.78036
▁tık	-9.7806
▁tıbbi	-9.78094
nizde	-9.7826
ilmesi	-9.78292
▁veriler	-9.78308
▁olmuştu	-9.78313
▁girme	-9.78339
▁si	-9.78342
▁içer	-9.7838
▁özgür	-9.78409
▁şeker	-9.78435
▁cinsiyet	-9.78436
▁kulak	-9.78438
▁ruh	-9.7847
▁şansı	-9.78726
▁öykü	-9.78911
▁kamu	-9.78913
müş	-9.78926
▁sistemleri	-9.78936
▁geçer	-9.79023
lerimi	-9.79101
▁kamp	-9.79103
▁maliyet	-9.79124
▁şeydir	-9.79154
▁olabilecek	-9.79209
▁çalışmaları	-9.79239
▁şüphe	-9.79259
▁ettir	-9.79311
imin	-9.79324
▁atom	-9.79365
▁başkan	-9.79377
landırma	-9.79377
▁insanlardan	-9.79382
▁makina	-9.7941
▁oyuncu	-9.79495
▁kapat	-9.79497
▁kapalı	-9.79508
tor	-9.79531
üz	-9.79558
▁istiyorlar	-9.79622
▁bölümü	-9.79684
diniz	-9.79788
▁çıkma	-9.79816
▁dürüst	-9.79821
▁buluş	-9.79824
▁dön	-9.79881
▁kaçır	-9.79936
miyorum	-9.79941
▁ağı	-9.79945
▁kanseri	-9.79957
▁potansiyel	-9.79973
tığını	-9.7998
▁uçuş	-9.80105
▁geldiğinde	-9.80141
ırdı	-9.80221
▁söylediğim	-9.80246
▁öldü	-9.80274
▁sivil	-9.80288
▁şefkat	-9.8029
ınca	-9.80334
▁heç	-9.80407
▁ip	-9.8043
▁tablo	-9.80507
▁patlama	-9.80529
leniyor	-9.80589
▁yaka	-9.80613
van	-9.80616
▁halka	-9.80711
▁yetişkin	-9.80763
▁etkilen	-9.8088
yum	-9.80899
▁olanak	-9.80962
▁bes	-9.8106
▁vatandaş	-9.81087
▁ingiliz	-9.81155
▁uçak	-9.81176
▁mer	-9.81206
▁çekme	-9.81215
▁cümle	-9.81229
▁analiz	-9.81263
▁alacak	-9.81271
▁edebilirsiniz	-9.81325
mıştır	-9.81413
▁aktif	-9.81436
▁ters	-9.81444
▁yönet	-9.81446
umu	-9.81492
▁kesi	-9.81544
▁organizasyon	-9.81574
▁haklı	-9.81629
▁anlaşma	-9.8165
▁ulus	-9.81676
▁fiyat	-9.81949
▁bağış	-9.81982
▁değişimi	-9.82
▁düşündüğüm	-9.82006
arı	-9.82142
▁saf	-9.82147
▁doğrudan	-9.82163
▁kullandığı	-9.82187
ebilirim	-9.82332
▁fazlasını	-9.82336
▁kriz	-9.82339
▁olacağı	-9.82433
▁dediğimiz	-9.82449
▁hikayeler	-9.82501
ğin	-9.82547
▁gittik	-9.82687
▁yık	-9.82689
▁aş	-9.82703
▁değiştirme	-9.82716
▁evrensel	-9.82722
▁çıkart	-9.8277
ırlar	-9.82792
▁uzakta	-9.82841
▁içi	-9.82904
▁yerleştir	-9.82927
▁şehri	-9.82928
▁kimin	-9.82987
▁katıl	-9.83005
▁edilme	-9.83029
▁bahsetmek	-9.83036
yseniz	-9.83092
▁bekle	-9.83143
▁fo	-9.83159
larınızı	-9.8319
▁okuy	-9.83264
land	-9.83268
▁deniyor	-9.83353
▁kullanıcı	-9.83404
larsa	-9.83412
▁girişim	-9.83429
,	-9.83453
indeki	-9.83479
▁afrikalı	-9.8353
▁kuvvet	-9.83545
▁başı	-9.8356
▁gittikç	-9.83565
▁kablo	-9.83612
▁londra	-9.83622
▁balina	-9.83625
inizi	-9.83703
▁yüzyılda	-9.8375
mer	-9.83801
▁götür	-9.83834
▁artış	-9.83839
▁yaratıyor	-9.83854
▁arkasında	-9.83858
▁bunlara	-9.83898
▁endüstri	-9.83903
rak	-9.83933
abilen	-9.83941
▁adamları	-9.84013
▁insanlık	-9.84014
▁duyar	-9.84021
▁korumak	-9.84214
▁sorunun	-9.84331
▁başladılar	-9.84365
▁yaşay	-9.84369
▁konum	-9.84446
▁ri	-9.84478
leyici	-9.84506
▁olabilirsiniz	-9.84525
▁berbat	-9.84595
▁sandalye	-9.84595
▁serbest	-9.84595
▁kıta	-9.846
lari	-9.84614
▁birbirin	-9.84615
▁bakıyor	-9.84617
▁uyar	-9.84618
▁ötesinde	-9.8464
▁bulut	-9.8467
▁ju	-9.84674
▁marka	-9.84818
▁koyu	-9.84856
▁eyalet	-9.84896
▁kay	-9.84898
cek	-9.84912
▁çeki	-9.84967
▁gez	-9.84986
▁dik	-9.84995
lerdeki	-9.85017
lıq	-9.85055
▁tespit	-9.85085
▁taklit	-9.85086
▁deneyimi	-9.85128
▁karşılaş	-9.85167
▁karşısında	-9.85195
▁mimar	-9.85213
▁aksine	-9.85285
▁kullandığımız	-9.85328
ırız	-9.8539
▁ölme	-9.85407
▁bilgisayarlar	-9.85426
▁ölçüde	-9.85456
gü	-9.85467
larındaki	-9.85479
▁şehirler	-9.85516
▁biçim	-9.85529
▁alanları	-9.85553
leşti	-9.8557
▁sıtma	-9.85579
▁ekibi	-9.85581
medi	-9.85593
▁teknolojiyi	-9.85608
fer	-9.85713
▁kendileri	-9.85782
▁suçlu	-9.85791
▁yaptılar	-9.85795
▁hayata	-9.85857
▁kedi	-9.85907
▁girdi	-9.86005
▁domuz	-9.86021
▁toplan	-9.86049
▁david	-9.86074
▁mercan	-9.86085
▁harf	-9.86118
▁gerekirse	-9.86196
▁projesi	-9.86217
abilirim	-9.86274
▁artır	-9.86299
▁necə	-9.86337
▁dediğim	-9.86378
▁uğra	-9.86379
▁geliştirme	-9.86384
▁ürünleri	-9.86438
▁ilgilen	-9.86439
▁yapacağı	-9.86501
▁kısaca	-9.86508
▁benden	-9.86517
▁grubu	-9.86548
şe	-9.86553
▁saha	-9.86568
▁pencere	-9.8657
▁vaka	-9.8659
per	-9.86639
▁üstün	-9.86692
▁boz	-9.86711
▁ediliyor	-9.86743
▁performans	-9.8675
lenen	-9.86774
madan	-9.86821
tal	-9.86844
▁yapacağım	-9.86914
▁kurallar	-9.86938
▁tarafında	-9.86951
▁harcama	-9.8699
▁adet	-9.87007
▁tuvalet	-9.87077
▁300	-9.8708
▁farkı	-9.87108
▁sürece	-9.8715
▁ihtiyacınız	-9.87262
▁çıkarmak	-9.87269
▁insana	-9.87288
▁sert	-9.87312
▁açısı	-9.87343
▁atık	-9.87404
▁ürünü	-9.87477
▁ceza	-9.87493
lamaya	-9.87501
▁kredi	-9.87573
▁mağara	-9.87574
▁nöron	-9.87608
▁kayıp	-9.87642
▁vermeye	-9.87654
▁çalıştığımız	-9.87675
tro	-9.87765
▁parçalar	-9.87825
▁seçenek	-9.87838
▁dönüşüm	-9.87873
▁dişi	-9.8799
▁mantar	-9.88087
▁diyelim	-9.88101
▁harca	-9.88126
▁koyar	-9.88129
▁anlaşıl	-9.88196
▁kok	-9.88222
▁kullanıyoruz	-9.88225
▁oluşturma	-9.88247
▁ameliyat	-9.88324
▁gelişim	-9.88454
▁işim	-9.8849
▁mənim	-9.88492
▁başlangıç	-9.88512
kür	-9.88543
▁büyüt	-9.88613
▁gelmiş	-9.88617
▁fil	-9.88636
▁yalan	-9.88683
▁his	-9.88683
▁baz	-9.88696
▁isterim	-9.88748
ımızı	-9.88773
▁üniversitesi	-9.88816
▁bağlan	-9.88905
▁olmaktan	-9.88909
▁kuralları	-9.88949
▁soy	-9.89048
▁üste	-9.8908
▁ticari	-9.89096
▁paylaşma	-9.89096
▁şaşır	-9.89104
▁internette	-9.89115
▁ülkelerin	-9.89157
▁80	-9.89183
id	-9.89247
▁yapılması	-9.89272
muyor	-9.89315
▁saye	-9.8939
▁anahtar	-9.89522
▁yönetici	-9.89625
▁taşın	-9.89668
▁görür	-9.89701
▁bulur	-9.89719
stik	-9.89855
▁kimya	-9.89888
larımı	-9.89929
▁nadir	-9.89974
▁hə	-9.90052
lardaki	-9.901
▁çekti	-9.90101
▁elektronik	-9.90149
malı	-9.90237
▁diyoruz	-9.90358
iyorsunuz	-9.90418
0.000	-9.90426
▁kaybol	-9.90443
▁laboratuvar	-9.90457
▁istemiyor	-9.90629
ebilen	-9.90635
▁oksijen	-9.90642
▁rekabet	-9.90642
▁sermaye	-9.90643
▁karışık	-9.90643
▁düşman	-9.90686
▁katman	-9.90688
▁tanıma	-9.90693
lenmesi	-9.90779
▁yaşıyoruz	-9.90785
▁istedi	-9.90787
▁çağ	-9.90801
▁istedik	-9.90846
▁çağı	-9.90871
▁düzenleme	-9.90894
ydim	-9.90945
▁yaşamın	-9.91005
▁sok	-9.91046
▁müşteri	-9.91062
▁yaşamı	-9.91064
▁mesafe	-9.91078
tri	-9.91097
▁oradaki	-9.91101
▁hikayesi	-9.91128
lüğü	-9.91139
▁yavru	-9.91165
▁değişiklik	-9.91196
ladığı	-9.91222
▁kültüre	-9.91638
▁karşılık	-9.91681
▁israil	-9.91687
▁nihayet	-9.91687
▁gördüğüm	-9.91699
▁boşluk	-9.91731
malısınız	-9.91738
▁şeydi	-9.91754
▁çalıştığı	-9.91774
▁isterseniz	-9.9179
▁görüyorum	-9.91801
▁mor	-9.91869
▁anlamıyla	-9.9188
▁izle	-9.91891
▁çizim	-9.91898
saydı	-9.92043
▁bireyler	-9.92102
ince	-9.92122
▁izley	-9.92131
ji	-9.92157
▁acil	-9.92218
▁elinde	-9.92247
▁firma	-9.92247
▁yerden	-9.92247
▁irak	-9.92249
ff	-9.92259
▁yumurta	-9.92283
▁yöntemi	-9.92294
▁edebiliriz	-9.92304
▁engelli	-9.92364
diklerini	-9.92366
▁musun	-9.92432
▁kişiye	-9.92452
▁duyuyor	-9.92544
dıklarını	-9.92694
▁askeri	-9.92724
▁cesaret	-9.92731
▁istatistik	-9.92742
▁toplumsal	-9.9284
▁uygulan	-9.92928
▁kıs	-9.92965
▁görüşü	-9.92991
▁çalışmalar	-9.93018
sizlik	-9.93065
▁olabil	-9.93072
▁kullanım	-9.93108
▁okulda	-9.93121
▁sevme	-9.93142
ebileceğimiz	-9.93204
acağınız	-9.93239
▁ücret	-9.93251
▁müslüman	-9.93274
▁sıvı	-9.93274
▁ham	-9.93295
▁kart	-9.93355
▁koca	-9.93424
▁itibar	-9.93442
ümüzü	-9.9357
▁görüşme	-9.93599
▁dolarlık	-9.93614
▁haberler	-9.9363
▁bekleme	-9.93644
▁kendisini	-9.93651
▁çoğunuz	-9.93654
▁şifre	-9.93667
▁bulmaya	-9.93694
▁değeri	-9.93724
▁kahve	-9.93809
▁bilgileri	-9.93812
▁çocuklara	-9.93824
▁böylelikle	-9.93881
ıyla	-9.93918
▁tanıştı	-9.93965
▁denen	-9.94014
▁bax	-9.94049
▁kaynakları	-9.94076
▁wi	-9.94078
eği	-9.94194
▁ulaşmak	-9.94206
▁kullanan	-9.94219
▁çıkı	-9.94246
▁sürdür	-9.94251
ydü	-9.94254
gan	-9.94292
▁degil	-9.94384
liyim	-9.94427
▁bizimle	-9.94443
▁filmi	-9.94444
layarak	-9.94451
▁düşünüyoruz	-9.94486
▁gösterir	-9.9451
▁yakında	-9.94606
▁tren	-9.94614
▁özelliği	-9.94744
▁yolla	-9.94797
▁2000	-9.94883
▁tavsiye	-9.94887
▁zevk	-9.94887
▁yarar	-9.94911
▁ihtimalle	-9.94956
▁basitçe	-9.95004
diğiniz	-9.95004
▁aşk	-9.95162
lerinizi	-9.95199
▁gruplar	-9.95229
▁seri	-9.95283
▁ihtiyaçları	-9.95296
▁1.	-9.95401
▁anlatıyor	-9.95428
▁kurmak	-9.95428
▁duru	-9.95442
▁izleyici	-9.95519
▁kom	-9.95694
acaksınız	-9.958
ilebilir	-9.95802
▁tarzı	-9.95928
▁olmaması	-9.95938
▁yaşadığı	-9.95963
▁takımı	-9.95971
▁hafıza	-9.95977
▁gönüllü	-9.95986
▁eğitimi	-9.96003
▁buzul	-9.96099
▁atmosfer	-9.96132
▁koyma	-9.96194
▁wa	-9.96259
▁dedik	-9.96334
▁zamanla	-9.96367
▁etiket	-9.9638
▁banka	-9.96399
▁detay	-9.9642
▁ihtiyacım	-9.96423
▁bildiği	-9.96493
ladığımız	-9.96501
▁hassas	-9.96518
▁facebook	-9.96526
▁talep	-9.96528
▁finansal	-9.96542
▁iran	-9.96607
▁misin	-9.96631
▁edersiniz	-9.96701
▁merkezinde	-9.96717
▁etrafı	-9.9677
▁olacaktı	-9.96877
ral	-9.96881
▁etmək	-9.96935
▁bü	-9.96956
▁uyu	-9.96988
memiz	-9.97054
▁yerlere	-9.97073
les	-9.97077
▁olaraq	-9.97084
▁dol	-9.97094
▁uzman	-9.97185
▁diz	-9.97203
ev	-9.97282
▁olursak	-9.97299
▁gü	-9.97301
har	-9.97319
ut	-9.97377
lat	-9.9739
▁kıyasla	-9.97419
▁araçları	-9.97434
▁krizi	-9.9745
mis	-9.97474
▁dönme	-9.97482
▁küçü	-9.97532
▁fikrini	-9.97591
tar	-9.97631
▁bütçe	-9.97634
▁kavram	-9.97669
▁karış	-9.97673
▁gelin	-9.97689
▁sizler	-9.97756
▁farkın	-9.97792
▁bitkiler	-9.97816
amıyor	-9.97842
▁geçmişte	-9.97867
▁servis	-9.97915
▁gazeteci	-9.97931
▁kadının	-9.97949
▁çağır	-9.98058
▁miydi	-9.98068
▁evin	-9.98075
ində	-9.9809
▁ilki	-9.98137
▁tamamı	-9.98171
▁müdahale	-9.98193
▁brezilya	-9.98193
▁gözüküyor	-9.98193
▁devasa	-9.98204
▁bugünkü	-9.98245
▁maymun	-9.98513
▁edebiliyor	-9.98526
ner	-9.98542
▁azal	-9.98562
▁anladım	-9.98638
▁ayakkabı	-9.98653
▁başlayan	-9.98689
▁gibiydi	-9.98737
▁mekan	-9.9875
▁alternatif	-9.98755
▁rastgele	-9.98755
▁heykel	-9.98757
amayacak	-9.98803
üm	-9.9885
▁yolda	-9.98935
▁kesim	-9.98973
▁geçtiğimiz	-9.98992
▁atı	-9.99019
ladık	-9.99101
▁sü	-9.99123
▁çalıştığını	-9.99142
ciler	-9.99142
▁yaptır	-9.99179
▁lise	-9.99258
▁kıyafet	-9.9932
▁əvvəl	-9.9932
▁sinyal	-9.99357
▁istiyorsanız	-9.99384
▁kıyı	-9.99386
▁çoğunluğu	-9.99413
▁günün	-9.99422
▁tutma	-9.9948
▁karşıya	-9.99527
▁genom	-9.99563
cılar	-9.99622
▁bilimi	-9.99668
▁hastalıklar	-9.99703
▁kemik	-9.99769
▁geldik	-9.99808
▁toplu	-9.99813
ilir	-9.99824
▁klinik	-9.99888
▁materyal	-9.99888
▁profesyonel	-9.99888
▁özgürlük	-9.99903
▁uyku	-9.99936
▁bilin	-9.99938
▁dayalı	-9.99944
meli	-9.99952
▁sim	-9.9997
▁yerini	-10.0006
▁olamaz	-10.0006
▁dinle	-10.0016
eyim	-10.0025
▁bahsettiğim	-10.0033
▁ailesi	-10.0035
ysanız	-10.0035
▁durdur	-10.0044
▁kazandı	-10.0045
▁düzgün	-10.0046
▁ancaq	-10.0046
▁fonksiyon	-10.0046
▁ola	-10.0049
▁yazık	-10.0052
▁dünyasında	-10.0055
▁karıştır	-10.0057
isi	-10.0065
▁yaşadığımız	-10.0073
▁öğrendik	-10.0079
▁bıraktı	-10.0079
mıyorum	-10.008
▁izleme	-10.0085
▁yet	-10.0088
iyordu	-10.009
tme	-10.0092
▁bulundu	-10.0095
▁eğit	-10.0096
▁hızlıca	-10.0097
▁ekosistem	-10.0103
▁beğen	-10.0104
▁fosil	-10.0104
▁başkanı	-10.0104
▁bileşen	-10.0105
▁af	-10.0109
▁fırsatı	-10.0119
▁hayatım	-10.0119
▁gor	-10.0121
▁yaşı	-10.0122
sti	-10.0126
▁fayda	-10.0133
▁takdir	-10.0138
▁edilebilir	-10.0139
▁çıkarma	-10.0142
mıyoruz	-10.0148
▁tel	-10.0153
▁yenilik	-10.0154
▁arkadaşı	-10.016
▁kendiniz	-10.016
▁ibaret	-10.0161
▁radikal	-10.0161
▁manzara	-10.0161
▁başqa	-10.0161
▁yetiş	-10.0163
likle	-10.0165
▁tasarımcı	-10.0165
lerse	-10.0168
iği	-10.0168
▁komşu	-10.0169
▁vergi	-10.0169
hu	-10.0171
▁kü	-10.0183
lma	-10.0183
res	-10.0187
▁bırakma	-10.0188
▁benze	-10.0189
▁ettiğini	-10.0193
▁sahiptir	-10.02
▁hay	-10.0203
▁tırman	-10.0203
▁oh	-10.0205
▁kızlar	-10.0207
▁trilyon	-10.0219
▁öğle	-10.0219
▁imza	-10.0219
▁popüler	-10.0219
▁blog	-10.0219
▁no	-10.0221
▁mezun	-10.0223
▁oyna	-10.0223
▁diğerleri	-10.0232
▁tatlı	-10.0232
işi	-10.0233
▁tesis	-10.0233
tif	-10.0233
▁olmanız	-10.0243
▁eksik	-10.0251
▁çalışması	-10.0252
▁tap	-10.0257
▁yoluyla	-10.0258
▁olduğunuzu	-10.0258
▁bölgede	-10.0263
▁yapmıyor	-10.0264
▁bakma	-10.0266
▁elleri	-10.0266
▁ticaret	-10.0267
uldu	-10.0268
▁seçme	-10.0275
▁diy	-10.0277
▁öfke	-10.0278
▁acaba	-10.0278
▁psikoloji	-10.0278
üs	-10.0291
larımızda	-10.0292
▁oluşturan	-10.0296
▁türden	-10.0299
▁imkanı	-10.0302
▁sözü	-10.0308
5'	-10.031
▁etmemiz	-10.0315
▁belge	-10.0335
▁vahşi	-10.0337
▁yayıl	-10.0337
fet	-10.0337
▁dağıt	-10.0339
▁gelebilir	-10.034
▁zemin	-10.034
▁koyuyor	-10.0348
▁durumun	-10.0354
▁kanun	-10.0354
▁hastalar	-10.0355
▁yapılma	-10.0356
▁değişti	-10.0357
let	-10.0359
▁za	-10.036
miyoruz	-10.0362
ket	-10.0365
▁tutar	-10.0374
▁dün	-10.0381
▁biçimi	-10.0384
▁çarp	-10.0385
uru	-10.0386
yorlar	-10.0395
▁okulu	-10.0396
▁merhamet	-10.0396
▁teşhis	-10.0396
maları	-10.0397
▁paket	-10.0397
▁islam	-10.0398
▁sistemler	-10.0399
▁milyarlarca	-10.04
ib	-10.04
▁başlat	-10.04
▁kenya	-10.04
▁durumunda	-10.0402
acağımız	-10.0402
▁aklın	-10.0408
ker	-10.041
▁edilmesi	-10.0411
▁yürüme	-10.0412
▁japonya	-10.0414
▁uygula	-10.0414
▁2.	-10.0416
▁almanya	-10.0418
▁dönüştü	-10.0419
▁küre	-10.0423
▁savunma	-10.043
▁gö	-10.0436
▁lif	-10.0448
▁bah	-10.0453
▁yörünge	-10.0455
▁platform	-10.0455
▁oranda	-10.0458
mizden	-10.046
▁alabilir	-10.0461
▁çiftçi	-10.0467
▁mekanizma	-10.0472
▁çatı	-10.0476
▁dönemde	-10.0479
▁doğdu	-10.0485
▁birliği	-10.0487
▁kalite	-10.0489
▁şudur	-10.049
▁varlığı	-10.0491
aj	-10.0496
▁içerik	-10.0503
▁oluşuyor	-10.0503
▁katılma	-10.0504
▁uzaklaş	-10.0507
hane	-10.051
▁etmesi	-10.051
▁havada	-10.0513
▁kanada	-10.0516
▁düştü	-10.0517
▁kilit	-10.0517
▁metal	-10.0521
▁etrafta	-10.0527
▁anlatı	-10.0528
▁konuşmaya	-10.0529
▁dolara	-10.0536
▁depo	-10.0538
▁yapabiliyor	-10.0539
▁toz	-10.0549
▁sonrası	-10.0553
lerindeki	-10.0567
▁alarak	-10.0569
▁vakit	-10.0576
▁kurban	-10.0576
▁kocaman	-10.0577
▁durma	-10.0579
▁birbirlerin	-10.0579
▁değerlendir	-10.0579
▁devrimi	-10.058
net	-10.0588
▁bilmiyoruz	-10.0589
▁satış	-10.059
▁baktığınızda	-10.059
diğinizde	-10.0597
▁aldığı	-10.0597
ecektir	-10.0602
▁müze	-10.0603
▁sö	-10.062
ğim	-10.0621
▁etmiyor	-10.0623
▁yapabileceğimiz	-10.0627
▁çözümler	-10.0628
▁düşünür	-10.0629
▁görünüş	-10.0635
▁kutsal	-10.0637
▁deyişle	-10.0638
▁götürdü	-10.0642
▁babası	-10.0646
▁oluşturur	-10.0649
▁zamanlı	-10.065
▁ahlaki	-10.0657
▁ederken	-10.0659
▁uy	-10.0661
▁eğri	-10.0662
unuz	-10.0666
▁kitabın	-10.0668
▁kutup	-10.0674
▁bayan	-10.0676
▁yaptıklarını	-10.0676
▁çalıştır	-10.068
▁inanma	-10.0683
mayın	-10.0694
▁yaşadı	-10.0694
▁moda	-10.0695
▁depresyon	-10.0697
▁uyuşturucu	-10.0697
▁güvenilir	-10.0699
▁yenilikçi	-10.0699
dınız	-10.07
▁oyuncak	-10.07
▁ihtimali	-10.0703
▁oynama	-10.0705
▁çıkardı	-10.0705
▁cha	-10.072
▁çağrı	-10.0723
▁sınırları	-10.0724
▁gri	-10.0725
▁parayı	-10.0729
▁nedeniyle	-10.0733
▁dinley	-10.0736
▁yığın	-10.0746
▁neyi	-10.0746
▁sonucunda	-10.0746
syon	-10.0747
ron	-10.0752
abileceğini	-10.0753
▁hiçbiri	-10.0755
▁anlamlı	-10.0756
▁fikrim	-10.0756
▁patent	-10.076
▁eli	-10.0766
▁hissediyorum	-10.0766
▁odada	-10.0766
▁söylüyorum	-10.0774
▁çekiyor	-10.0774
▁isimli	-10.0776
▁üçte	-10.0783
zo	-10.0783
▁400	-10.0789
▁uğraş	-10.079
leşmiş	-10.0809
▁çünk	-10.0815
▁tartış	-10.082
▁tohum	-10.082
▁yen	-10.0821
▁bağır	-10.0821
▁fransız	-10.0821
leyecek	-10.0822
ft	-10.0826
▁şehirde	-10.0827
▁önemi	-10.0829
▁çözümü	-10.083
▁alalım	-10.0836
▁resimler	-10.0837
▁maliyeti	-10.0839
▁yaşa	-10.0846
▁yuva	-10.0848
▁getiren	-10.0852
▁makinesi	-10.0857
▁tutmak	-10.086
çu	-10.0863
▁çalıştı	-10.0864
▁konuya	-10.0866
▁doğrusu	-10.0871
▁biliyordu	-10.0872
▁başla	-10.0873
▁olası	-10.0876
▁seyirci	-10.0876
▁istedikleri	-10.0876
▁çerçeve	-10.0882
▁idare	-10.0882
▁oturuyor	-10.0885
▁çözmek	-10.0885
▁yönetme	-10.0887
ğimiz	-10.0888
▁şişe	-10.0892
ladım	-10.0893
abilirler	-10.0893
▁özellikleri	-10.0893
▁edi	-10.0894
▁yapması	-10.0895
ğında	-10.0902
▁ağrı	-10.0902
▁dönüyor	-10.0906
▁temelde	-10.0908
▁ordu	-10.0908
▁yazdı	-10.0909
▁şekillendir	-10.091
▁baktı	-10.0915
▁istey	-10.0919
▁hissediyor	-10.0926
▁problemleri	-10.0929
▁tu	-10.093
və	-10.0933
▁adamlar	-10.0934
▁sınırlı	-10.0935
▁sıklıkla	-10.0936
▁kulağa	-10.0945
▁tarif	-10.0945
▁kelimeler	-10.0945
▁nehir	-10.0946
▁bağımlı	-10.0952
izm	-10.0953
▁kalmış	-10.0955
▁ekip	-10.0959
▁alıcı	-10.0964
▁giriyor	-10.097
▁koruy	-10.097
▁almış	-10.0977
▁yöne	-10.0978
gin	-10.0989
▁ac	-10.0991
▁zorundaydı	-10.0991
▁kişiyi	-10.0995
▁90	-10.0998
▁faaliyet	-10.1008
▁zirve	-10.1008
▁vaxt	-10.1008
▁rengi	-10.1009
abileceğiniz	-10.1009
mızdan	-10.101
▁sil	-10.1011
layabilir	-10.1019
▁ağzı	-10.102
▁yiy	-10.1025
sıdır	-10.1028
▁kişilik	-10.1028
▁pr	-10.1031
▁başlamak	-10.1039
likte	-10.1044
▁oluş	-10.1046
▁arabalar	-10.1047
▁verdiler	-10.1049
▁geliyordu	-10.106
▁bahsetti	-10.1063
▁öngörü	-10.1066
manız	-10.1069
▁alış	-10.1069
▁teklif	-10.1072
▁istə	-10.1072
▁getirir	-10.1072
▁terim	-10.1073
▁aniden	-10.1073
▁edebil	-10.1076
▁hayvanların	-10.1079
▁sakin	-10.108
▁değişme	-10.1082
▁çekmek	-10.1083
▁yönelik	-10.1084
▁ederiz	-10.1087
▁hâle	-10.1096
▁salgın	-10.1098
▁80'	-10.1099
▁normalde	-10.1101
▁ayrıl	-10.1101
so	-10.1105
▁ahlak	-10.1115
▁diyorlar	-10.1118
dığınızda	-10.1125
▁dördüncü	-10.1135
▁cesur	-10.1135
▁vakti	-10.1135
duğunu	-10.1139
▁birinde	-10.1148
▁gra	-10.1148
liler	-10.1149
▁çıkarıyor	-10.1151
lla	-10.1153
▁düşündüğümüz	-10.1156
▁yoksul	-10.1156
▁kor	-10.1157
▁elektro	-10.1159
▁ederse	-10.116
▁düzenli	-10.1181
▁çocukken	-10.1186
▁koloni	-10.1187
▁olayı	-10.1192
▁eğlence	-10.1194
▁avukat	-10.1199
▁trafik	-10.1199
▁cihazı	-10.1202
▁sorumluluk	-10.1202
melisiniz	-10.1206
bilirsin	-10.1206
▁fu	-10.1211
▁rapor	-10.1211
▁dini	-10.1212
▁grubun	-10.1213
lıkla	-10.1214
▁anlatma	-10.1215
▁car	-10.1215
▁planı	-10.1215
▁konferans	-10.1223
▁bilinç	-10.1226
dar	-10.1228
▁hayatlarını	-10.1228
▁olmasa	-10.1233
▁hayatımız	-10.1239
▁değiştirebilir	-10.1251
▁çök	-10.1253
▁yarattı	-10.1253
▁sürede	-10.1256
▁şok	-10.1263
▁iyimser	-10.1263
▁bireysel	-10.1264
▁mit	-10.1269
▁kendim	-10.1272
▁kanat	-10.1275
▁soyut	-10.1277
▁içeren	-10.1277
▁baktığımızda	-10.1277
▁başlayalı	-10.1282
▁öner	-10.1282
▁uzan	-10.1286
▁yargı	-10.1287
▁aids	-10.1289
▁büyüdü	-10.1291
▁etkin	-10.1295
▁görmüş	-10.1302
▁çöl	-10.1318
▁beslenme	-10.1318
▁verdiğimiz	-10.132
▁balon	-10.1322
▁olgu	-10.1324
▁hapishane	-10.1328
▁esnek	-10.1328
▁görü	-10.1331
▁hamile	-10.1331
▁kurdu	-10.1331
▁organik	-10.1334
▁kore	-10.1336
▁konuşuyor	-10.1341
▁yüzyılın	-10.1345
yalım	-10.135
▁həm	-10.1354
▁teknolojileri	-10.1355
▁or	-10.1358
▁sanayi	-10.1364
▁yapmanız	-10.1366
ydım	-10.1369
▁demokratik	-10.1371
▁ölçüm	-10.1372
▁kızı	-10.1377
nuzu	-10.1383
▁anlatacağım	-10.1386
▁twitter	-10.1394
▁blok	-10.1394
▁sıkıntı	-10.1394
▁etkileyici	-10.1396
▁onay	-10.14
par	-10.1403
landığı	-10.1403
▁çalışırken	-10.1408
▁yansıt	-10.1414
dışı	-10.1416
▁olasılık	-10.1418
▁kapasite	-10.1421
▁ag	-10.1424
gel	-10.1425
▁organizma	-10.143
süz	-10.1435
lıyoruz	-10.1445
▁düzey	-10.1446
qu	-10.1453
▁bulabil	-10.1455
her	-10.1456
▁örnekler	-10.1457
▁felaket	-10.1459
▁isveç	-10.1459
▁köprü	-10.1459
▁tahta	-10.1459
▁allah	-10.146
▁şaka	-10.146
▁kilise	-10.1462
▁olabilirdi	-10.1465
▁annesi	-10.1468
▁kazandır	-10.1469
▁sebeple	-10.1473
▁söyleyen	-10.1474
ris	-10.1475
likten	-10.1477
ard	-10.1483
▁yarışma	-10.1485
▁yapılıyor	-10.1485
▁başlıyoruz	-10.1486
▁olmuştur	-10.1487
▁yıllarda	-10.1493
▁araştır	-10.15
▁hızı	-10.1508
▁liderlik	-10.1509
▁sürdü	-10.1511
▁geçirme	-10.1511
▁ediyordu	-10.1514
▁siyahi	-10.1515
▁doktorlar	-10.152
▁algoritma	-10.1526
▁meksika	-10.1526
▁otomatik	-10.1526
▁iğne	-10.1526
▁simetri	-10.1526
▁sahte	-10.1526
▁rüya	-10.1526
▁kapan	-10.1529
▁paul	-10.153
▁civarında	-10.1534
▁kitaplar	-10.1539
amazsınız	-10.1546
▁arttı	-10.1553
▁düşme	-10.1554
▁daim	-10.1558
▁150	-10.1561
▁gelmek	-10.157
♫	-10.1573
▁karınca	-10.1574
▁arttır	-10.1575
▁evi	-10.1576
▁eşim	-10.1577
▁hastalığın	-10.1579
▁tanrım	-10.1583
▁zi	-10.1583
lemeye	-10.1588
▁ideal	-10.1593
nizle	-10.1598
▁bulduğumuz	-10.1599
▁dergi	-10.1604
ıldığı	-10.1615
▁zinciri	-10.1615
▁ilaçlar	-10.1618
eceksiniz	-10.1618
▁keşfetme	-10.1622
han	-10.1627
inə	-10.1631
▁dinleme	-10.1636
▁sağlam	-10.1636
▁doldur	-10.1639
▁arıyor	-10.1648
▁kitapları	-10.1649
ıldığında	-10.1651
üne	-10.1654
▁yarattığı	-10.1656
▁olmuyor	-10.1661
▁yolunda	-10.1662
▁molekül	-10.1663
▁sorma	-10.1667
▁kullandık	-10.1669
▁ger	-10.1669
▁gelince	-10.167
rseniz	-10.1674
▁döngü	-10.1675
▁erkeklerin	-10.1677
▁çözme	-10.1682
▁yapılar	-10.1685
lakin	-10.1687
▁işleme	-10.1693
▁alıyoruz	-10.1694
▁gezegende	-10.1698
▁seviyede	-10.1698
▁199	-10.1711
▁taşıma	-10.1712
▁teknolojiler	-10.1723
▁eylül	-10.1727
▁resme	-10.1729
▁yaşındayken	-10.1731
▁bilinci	-10.1733
▁vereceğim	-10.1738
▁inancı	-10.174
▁oynay	-10.1742
▁toplama	-10.1742
▁kardeşim	-10.1745
▁zamana	-10.176
▁duran	-10.1765
▁hakim	-10.177
▁zordur	-10.177
▁tasarımı	-10.1771
irken	-10.1772
▁zorlu	-10.1776
▁kullanmaya	-10.178
▁olaylar	-10.1781
▁inceledi	-10.1792
▁mahkeme	-10.1795
▁yunus	-10.1795
▁düşüş	-10.1796
▁meslek	-10.1796
▁hatırla	-10.1799
▁pis	-10.1802
▁olmam	-10.1806
▁oku	-10.1807
▁dilim	-10.1809
▁yükselt	-10.1812
amayacağı	-10.1813
▁saatte	-10.1815
▁hasar	-10.1817
▁ez	-10.1821
▁sürecin	-10.1825
▁gezegenin	-10.1826
▁miktarı	-10.1833
▁görünmez	-10.1848
▁geleceğin	-10.1849
▁kontrolü	-10.1853
▁hareketleri	-10.1862
▁geliştirmek	-10.1863
▁hayret	-10.1864
ja	-10.1865
▁ekmek	-10.1865
▁polen	-10.1867
▁mə	-10.187
▁bahsedeceğim	-10.1872
▁yarış	-10.1875
▁değişken	-10.1875
▁sahil	-10.1877
▁gezi	-10.1878
ligi	-10.1883
▁tersine	-10.1891
▁canlandır	-10.1891
▁çeken	-10.1896
▁oluşturu	-10.1902
▁sığ	-10.1906
▁yönel	-10.1913
▁sormak	-10.1919
▁inanıyor	-10.1922
▁varsayım	-10.1922
▁ulaşım	-10.1922
lendirme	-10.1924
▁vücudun	-10.1927
▁şanslı	-10.1928
▁göç	-10.1928
▁ziyade	-10.1932
▁stres	-10.1934
▁falan	-10.1939
▁zamanında	-10.194
▁damar	-10.194
▁böcek	-10.1944
▁sıkıcı	-10.1945
▁aldığım	-10.1949
▁etraf	-10.1949
▁çıktığı	-10.1956
▁mühendislik	-10.1956
▁geçiriyor	-10.1963
▁içeriği	-10.1965
▁konuşmayı	-10.1966
larımıza	-10.1968
▁zorluk	-10.197
▁özü	-10.1972
meleri	-10.1974
▁aldığımız	-10.1976
▁ürünler	-10.1988
▁değişiklikler	-10.199
▁beklenti	-10.1995
▁elle	-10.1997
▁taşıyor	-10.2001
▁slayt	-10.2002
▁kariyer	-10.2002
▁büyükanne	-10.2002
▁yazdım	-10.2003
▁organize	-10.2003
▁oturup	-10.2004
▁söyleyebilirim	-10.2008
▁teknolojisi	-10.2008
▁boyut	-10.2011
▁ederler	-10.2011
▁savaşın	-10.2014
▁45	-10.2015
▁testi	-10.2024
▁şirketlerin	-10.2028
▁soruyor	-10.2039
▁kurumlar	-10.2039
▁fon	-10.2053
we	-10.2055
▁bill	-10.2063
lüyor	-10.2064
▁biriydi	-10.2064
▁gürültü	-10.207
▁biliyordum	-10.207
▁yapmam	-10.2071
▁kritik	-10.2072
▁olumlu	-10.2072
▁otobüs	-10.2072
▁steve	-10.2072
▁cadde	-10.2072
▁sıradışı	-10.2073
▁kaybetme	-10.2075
layabiliriz	-10.2077
▁göçmen	-10.2078
▁geçmişi	-10.2084
▁90'	-10.2086
▁çalışıyorlar	-10.2089
▁açma	-10.209
▁kayded	-10.2099
mizle	-10.2103
▁yapıyordu	-10.2108
▁195	-10.2115
▁kolu	-10.2116
menin	-10.212
▁etmə	-10.2123
ben	-10.2135
▁milli	-10.2138
▁aracılığıyla	-10.2142
▁denilen	-10.2144
▁planlama	-10.2146
▁işlev	-10.2147
rek	-10.2151
▁kanal	-10.2153
▁tipik	-10.2155
▁sinek	-10.2156
▁renkli	-10.2158
▁isteği	-10.2162
▁tom	-10.2163
▁öne	-10.2163
▁sektör	-10.2166
▁özgü	-10.2171
lup	-10.2181
▁hizmeti	-10.2182
ebileceğiniz	-10.2184
▁kaynaklar	-10.2188
▁attı	-10.2193
if	-10.2202
▁haz	-10.2211
▁kuantum	-10.2213
▁merhaba	-10.2213
▁kabile	-10.2213
▁nesli	-10.2215
▁196	-10.2217
▁ayında	-10.2218
▁aylık	-10.2219
leyerek	-10.222
od	-10.2221
▁üretmek	-10.2225
▁yerleri	-10.2226
▁ilişkiler	-10.2238
▁kampanya	-10.2249
▁toplay	-10.225
▁sahipler	-10.2252
kat	-10.2254
▁20.	-10.2255
▁köken	-10.2259
lidir	-10.2263
▁taban	-10.227
▁alman	-10.2275
com	-10.2279
▁beyniniz	-10.2285
▁usta	-10.2285
▁istifadə	-10.2285
dr	-10.2287
ımda	-10.2287
lerimizde	-10.2287
yorsunuz	-10.2289
▁kırsal	-10.2292
ebileceğini	-10.2293
▁olmasıdır	-10.2299
▁etdi	-10.23
▁inceleme	-10.2304
lması	-10.2306
▁balıkları	-10.2309
▁avcı	-10.2312
▁yaşar	-10.2314
▁bat	-10.2315
▁ırk	-10.2316
▁hükümeti	-10.2317
▁tas	-10.2317
▁dünyası	-10.2322
leyebilir	-10.2329
▁soruları	-10.2342
men	-10.2347
▁korkutucu	-10.2356
▁nijerya	-10.2356
▁einstein	-10.2356
▁hediye	-10.2357
▁dosya	-10.2357
▁nano	-10.2361
chi	-10.2363
▁elimde	-10.2368
ğiniz	-10.2371
▁projeler	-10.2376
▁bekley	-10.2376
▁anlayış	-10.2385
▁bilmə	-10.2385
▁olacağız	-10.2388
posta	-10.2391
▁bakteriler	-10.2396
▁gerçekleş	-10.2398
▁bazılarınız	-10.2403
▁gerekti	-10.241
▁sever	-10.2414
lıyordu	-10.2414
acaklar	-10.2416
▁eğilim	-10.2417
▁bilimin	-10.2419
▁mesajı	-10.2422
ecekler	-10.2422
▁öğrendiğim	-10.2423
▁baktım	-10.2424
biriyle	-10.2426
▁george	-10.2429
▁sohbet	-10.2429
▁kömür	-10.2429
▁yürüyüş	-10.2429
▁yox	-10.2431
▁kalem	-10.2431
ılabilir	-10.2431
▁ısınma	-10.2434
▁mekanik	-10.2434
▁getirdiği	-10.2438
▁dua	-10.2441
ğümüz	-10.2446
▁uzat	-10.245
▁ayn	-10.245
▁ağırlığı	-10.2452
▁basın	-10.2455
graf	-10.2462
▁öğreniyor	-10.2462
▁vazgeç	-10.2467
ulmuş	-10.247
▁genleri	-10.247
ımızın	-10.2476
▁araştırmacı	-10.2477
miyordu	-10.2482
▁altındaki	-10.2488
▁problemler	-10.2492
▁izliyor	-10.2493
▁tasarla	-10.2495
▁bölgesi	-10.2501
▁dayanıklı	-10.2502
▁dehşet	-10.2502
▁kasaba	-10.2502
▁dunya	-10.2502
▁lisans	-10.2503
manyetik	-10.2503
▁üzeri	-10.2507
▁yasal	-10.2512
▁değiştiriyor	-10.2513
mezsiniz	-10.2514
▁öğretmenler	-10.2516
▁oyunları	-10.2517
abiliyoruz	-10.2517
▁faydalı	-10.2522
▁doktora	-10.2524
▁tək	-10.2526
▁durdu	-10.2527
▁yolları	-10.2528
▁asker	-10.253
▁gi	-10.2535
▁birbirimize	-10.2537
▁yasak	-10.2542
▁farkettim	-10.2545
▁başlangıcı	-10.2545
▁sir	-10.2547
▁koşullar	-10.2548
▁değerlendirme	-10.2554
▁taşıy	-10.2555
▁noktalar	-10.2558
▁tüket	-10.2563
▁ze	-10.2566
▁çoktan	-10.2568
▁memnun	-10.2575
▁deneyi	-10.2575
▁darwin	-10.2575
▁dinamik	-10.2575
▁kaliforniya	-10.2575
▁operasyon	-10.2576
▁maaş	-10.2576
▁prensip	-10.2577
▁anında	-10.2581
▁koymak	-10.2585
▁halkın	-10.2586
▁ayağı	-10.2588
müştü	-10.2591
▁halkı	-10.2591
▁dusun	-10.2592
▁düşen	-10.2597
▁yönde	-10.2601
▁hissettim	-10.2602
2'	-10.2607
▁düşünül	-10.261
▁ağaçlar	-10.261
▁hisseder	-10.2615
▁varlık	-10.2622
▁çeşitliliği	-10.2623
▁geçirdim	-10.2625
▁üretme	-10.2627
düşünebilirsiniz	-10.2629
8'	-10.2632
▁ihtimal	-10.2633
▁koşu	-10.2635
dunuz	-10.2636
▁zamanın	-10.2636
▁ölçek	-10.2637
▁çiftlik	-10.2638
duğu	-10.2638
▁pozisyon	-10.2646
▁kategori	-10.265
əgər	-10.2655
▁direkt	-10.2659
▁istemiyorum	-10.2661
▁sunuyor	-10.2663
ılacak	-10.2666
▁hikayesini	-10.2672
iyordum	-10.2674
ədə	-10.2678
▁evrende	-10.2678
▁teknolojik	-10.2681
▁günümüz	-10.2686
▁geliş	-10.2688
rat	-10.2688
▁los	-10.2701
▁tuz	-10.2703
▁söyledim	-10.2708
▁söyledikleri	-10.2714
▁ilerley	-10.2719
▁alışveriş	-10.2724
▁favori	-10.2724
▁mektup	-10.2724
▁gölge	-10.2725
▁kurtarma	-10.2726
▁güzellik	-10.2727
▁döner	-10.2729
mar	-10.2733
▁qal	-10.2736
▁kullanabiliriz	-10.2739
▁bulabilir	-10.2741
▁alıntı	-10.2747
▁mantık	-10.2748
▁kalın	-10.2748
sch	-10.2748
▁artıyor	-10.275
▁resimde	-10.2757
▁hap	-10.2778
araya	-10.2778
▁kullanılıyor	-10.2791
▁cerrah	-10.2792
▁oranında	-10.2794
▁geldim	-10.2796
▁avustralya	-10.2799
▁fırtına	-10.2799
▁kamyon	-10.2799
▁sigara	-10.2799
▁çanta	-10.2799
▁peşinde	-10.28
▁pas	-10.28
ğın	-10.2806
▁eseri	-10.2809
▁tutuyor	-10.2811
▁tv	-10.2816
▁aday	-10.282
▁saçma	-10.2821
▁kaybetti	-10.2822
▁sesini	-10.2833
emiyor	-10.2838
▁au	-10.2841
▁varsay	-10.2846
▁binalar	-10.285
▁hü	-10.2855
▁yatak	-10.2855
▁uyarı	-10.2863
▁sevdiği	-10.2866
▁öğretti	-10.2867
▁ucu	-10.2867
əcək	-10.2867
▁anladı	-10.287
▁getiril	-10.287
▁ayakta	-10.2875
▁dükkan	-10.2875
▁səbəb	-10.2875
▁meyve	-10.2875
▁gördünüz	-10.2879
▁hayatımda	-10.2881
▁güvenliği	-10.2882
▁buyuk	-10.2885
▁deneyler	-10.2889
▁çeker	-10.2901
▁hücresi	-10.2902
▁yapısı	-10.2904
▁hissettir	-10.2904
▁bildir	-10.2907
▁çat	-10.2909
▁aralarında	-10.2914
▁tersi	-10.2916
▁mənə	-10.2916
▁kullanıyorlar	-10.2919
▁bakan	-10.2924
▁olursanız	-10.2925
emeyiz	-10.2928
▁cun	-10.2929
▁etdiyi	-10.2929
liydi	-10.2939
leştirmek	-10.294
▁dakikada	-10.2942
umun	-10.2945
▁sahipti	-10.2947
▁gelmişti	-10.2949
dd	-10.295
▁karikatür	-10.2951
▁meşgul	-10.2951
▁tr	-10.2964
leştirilmiş	-10.2967
▁uygulay	-10.2967
▁girdiği	-10.2971
▁düzelt	-10.2972
▁girer	-10.2972
▁nasa	-10.2977
▁ölüyor	-10.2978
▁buluyor	-10.2979
▁düzeyde	-10.2981
▁kazanma	-10.2986
▁seviyor	-10.2988
ğını	-10.2989
▁düşünüyordum	-10.2991
▁doğduğu	-10.2994
▁görmez	-10.2997
▁ardı	-10.2998
▁çıkış	-10.2999
ildiği	-10.3001
larımdan	-10.3004
▁derdi	-10.3005
▁tüketici	-10.3008
▁bacak	-10.3008
▁gördüğü	-10.3012
▁şimdiki	-10.3013
rik	-10.3014
▁araştırmalar	-10.3018
▁yürüy	-10.3026
▁mucize	-10.3028
▁restoran	-10.3028
▁teleskop	-10.3028
▁gövde	-10.3028
▁görülen	-10.3029
▁times	-10.3029
▁oğlum	-10.3032
▁uzaktan	-10.3038
▁geçtiği	-10.304
düm	-10.3043
▁bağlantılı	-10.3049
▁denklem	-10.3051
▁verebilir	-10.3052
▁bırakıyor	-10.3052
▁özgürlüğü	-10.3052
▁mc	-10.3054
▁21	-10.3055
▁günlerde	-10.3056
▁ayna	-10.3057
▁süreçte	-10.3058
▁pan	-10.3061
▁gösterdiği	-10.3061
▁ölçekte	-10.3061
hat	-10.3062
bur	-10.3066
▁yerin	-10.3068
▁malzemeler	-10.3072
▁ödülü	-10.3073
for	-10.3073
▁sistemini	-10.3081
▁geçmek	-10.3083
▁tanıt	-10.3087
▁tutun	-10.3089
▁destekle	-10.309
▁kalmak	-10.3092
lıyım	-10.3095
▁aptal	-10.3097
▁oturma	-10.3098
▁saklan	-10.3099
▁eğlen	-10.31
▁mutlak	-10.3106
▁uşaq	-10.3106
▁bedava	-10.3106
▁oranları	-10.3109
▁alanlarda	-10.3113
▁isterse	-10.3114
▁tatil	-10.3121
▁tarama	-10.3124
▁besle	-10.3125
▁klasik	-10.313
▁tümör	-10.3134
▁anlattığı	-10.3141
▁çıx	-10.3149
meden	-10.3173
▁rus	-10.3177
▁çalışıyordu	-10.3179
▁bey	-10.3181
▁topu	-10.3182
lduğu	-10.3183
▁mahkum	-10.3184
▁empati	-10.3184
▁barındır	-10.3184
▁haqda	-10.3184
▁benzeyen	-10.3184
▁nehri	-10.3184
▁üreme	-10.3184
▁ru	-10.3187
▁ekoloji	-10.3188
▁21.	-10.319
▁görebiliriz	-10.3191
▁yapalım	-10.3191
▁başlangıçta	-10.3195
▁mon	-10.3196
▁sorgu	-10.3197
lərini	-10.3199
lıyorlar	-10.32
kop	-10.3202
▁istemez	-10.3203
▁35	-10.3209
▁ortamda	-10.3212
▁uçur	-10.3213
▁herkesi	-10.3213
olog	-10.3218
meyeceğim	-10.3221
▁hızlandır	-10.3224
▁topluluğu	-10.3225
▁erişim	-10.3226
▁etkileri	-10.3227
▁bilinçli	-10.3232
▁olmama	-10.3235
▁odaklanma	-10.3241
▁şekilleri	-10.3246
▁kızım	-10.325
▁kişilerin	-10.325
▁kalır	-10.3256
▁richard	-10.3263
▁yirmi	-10.3263
▁ajan	-10.3263
▁tanıyor	-10.3264
▁yoksulluk	-10.3266
▁tarihte	-10.3273
▁çıkmış	-10.3276
▁anlayışı	-10.3279
▁utan	-10.3284
▁algılama	-10.3288
▁kurul	-10.3289
▁süren	-10.3294
▁elə	-10.3295
▁şirketleri	-10.3296
▁nüfusun	-10.3296
▁vo	-10.3302
▁çabuk	-10.3308
▁çıkmak	-10.3311
▁dağı	-10.3311
▁gidecek	-10.3312
ham	-10.3317
▁konuşan	-10.3321
▁oto	-10.3329
▁koydu	-10.333
▁karşılaştı	-10.3331
eceğiniz	-10.3335
▁kütle	-10.334
▁diyordu	-10.334
▁enerjisi	-10.334
▁söylediler	-10.3342
▁pozitif	-10.3342
▁refah	-10.3342
▁pil	-10.3343
▁kaybı	-10.3343
▁konser	-10.3343
▁düşüyor	-10.3344
▁sistemimiz	-10.3348
▁yaparsa	-10.3366
▁yazdığı	-10.338
▁22	-10.3382
▁türleri	-10.3383
▁değiştiren	-10.3385
▁kullanabilir	-10.3387
▁ucunda	-10.3389
▁bazılarını	-10.339
▁yaratır	-10.3394
▁çevirme	-10.3396
▁satıl	-10.3396
▁faydalan	-10.3402
▁ilgisi	-10.3403
▁vücudunuz	-10.3407
▁okyanusun	-10.3409
▁bulduğum	-10.3418
▁masraf	-10.3422
▁yaratan	-10.3423
▁terörist	-10.3423
▁büyüyen	-10.3423
▁siyaset	-10.3423
▁pratik	-10.3424
▁tamir	-10.3425
▁bakarsak	-10.3427
▁müziği	-10.3427
▁kö	-10.343
▁gelişen	-10.3432
▁bebekler	-10.3435
▁sağlayabilir	-10.3436
▁bölgesinde	-10.3437
▁değerleri	-10.3439
▁sav	-10.3439
var	-10.3441
emedi	-10.3442
▁üz	-10.3444
▁eşsiz	-10.3444
▁boyutu	-10.3448
için	-10.345
▁vücudu	-10.3451
▁hatırlat	-10.3452
▁zorla	-10.3459
▁hat	-10.346
▁oluşur	-10.3467
▁üstesinde	-10.3467
▁gideceği	-10.3468
▁tanımlama	-10.3476
tığımız	-10.3476
▁edeceğim	-10.3476
▁pal	-10.3485
▁başardı	-10.3496
▁penguen	-10.3503
▁macera	-10.3503
▁ayağa	-10.3503
▁donanım	-10.3503
▁oğlu	-10.351
▁yeti	-10.351
▁sürüyor	-10.3513
▁anket	-10.3513
▁yeteri	-10.352
▁bilgiler	-10.352
▁fikirlerin	-10.3522
kinden	-10.3526
▁kadınlara	-10.3533
▁sıcaklık	-10.3533
▁kültürü	-10.3538
▁formu	-10.3539
▁kurum	-10.3542
▁köle	-10.3543
▁inek	-10.3546
raq	-10.3548
▁üstü	-10.3549
▁dökü	-10.3554
▁riski	-10.3554
▁tanıy	-10.3558
▁hizmetleri	-10.3559
▁hatırlay	-10.356
inizin	-10.3569
▁wal	-10.3571
▁liderler	-10.3573
form	-10.358
▁metafor	-10.3584
▁ediyorsunuz	-10.3586
▁insanlığın	-10.3586
▁edelim	-10.3587
▁bahsediyorum	-10.3591
jen	-10.3594
▁yaşlanma	-10.36
▁oynat	-10.361
▁insani	-10.3612
▁and	-10.3615
▁döndüm	-10.3619
▁eti	-10.3624
▁ettikleri	-10.3626
▁roman	-10.3626
▁kent	-10.3626
▁oluyorlar	-10.3635
▁oturdu	-10.3635
▁tasarlanmış	-10.3635
▁olasılığı	-10.3647
▁izledi	-10.3647
▁çalışmayı	-10.3648
asyonu	-10.3656
▁konuşacağım	-10.3659
▁akademi	-10.3666
▁düğme	-10.3666
▁prototip	-10.3666
▁pilot	-10.3667
▁büyüleyici	-10.3668
▁göstereyim	-10.3668
▁yapıştır	-10.3669
▁uça	-10.367
▁makineler	-10.3675
▁orda	-10.3675
ebiliyoruz	-10.3679
▁üretken	-10.3681
fo	-10.3681
▁bahsetme	-10.3684
▁fotoğraflar	-10.3684
3'	-10.369
▁karşılıklı	-10.3692
▁inşaat	-10.3694
irdi	-10.3698
▁hile	-10.3704
▁demiş	-10.3705
▁görüntüler	-10.3724
lanabilir	-10.3729
▁biten	-10.3734
▁danış	-10.3737
▁anti	-10.3737
sındaki	-10.3745
▁washington	-10.3749
▁sensör	-10.3749
▁meme	-10.3749
▁öneri	-10.375
▁umudu	-10.3751
▁fizikçi	-10.3753
▁aklımız	-10.3755
▁ölen	-10.3757
▁matematiksel	-10.3759
▁duyarlı	-10.3759
▁puan	-10.3763
▁hücrelerin	-10.3764
▁yapımı	-10.3768
▁yetersiz	-10.377
▁men	-10.377
▁çalışarak	-10.3773
▁60'	-10.3774
▁büyüklüğünde	-10.3777
ebilirler	-10.3778
▁aileler	-10.3781
▁değişiyor	-10.3783
▁açığ	-10.3787
▁örgüt	-10.3787
▁elektron	-10.3796
▁özellikler	-10.3796
▁aralık	-10.3801
▁japon	-10.3807
▁karakteri	-10.381
shi	-10.3814
▁çeşitlilik	-10.3818
ceği	-10.382
▁gök	-10.3821
▁çiftçiler	-10.3823
▁okur	-10.3829
▁kullandı	-10.383
ty	-10.3832
▁egzersiz	-10.3832
▁enfeksiyon	-10.3832
▁stüdyo	-10.3832
▁elbise	-10.3832
▁qarşı	-10.3832
▁kaydı	-10.384
▁belirleme	-10.3843
▁oyunun	-10.3845
▁edilir	-10.3846
▁şart	-10.3847
▁kısmında	-10.385
▁sha	-10.3857
▁veril	-10.3857
▁üretimi	-10.3858
▁bakacak	-10.3859
▁bot	-10.3863
▁kimlik	-10.3868
ğine	-10.3868
▁əl	-10.3868
▁profesör	-10.3872
▁yarın	-10.3878
▁ekley	-10.3879
▁kış	-10.3885
▁potansiyeli	-10.3889
▁dök	-10.3889
▁pazarlama	-10.3894
▁tarihin	-10.3899
▁yararlı	-10.3901
muzu	-10.3901
▁hastaların	-10.3905
▁akciğer	-10.3916
▁tiyatro	-10.3916
▁sivrisinek	-10.3916
▁görülüyor	-10.3917
▁ettiğiniz	-10.3917
▁üretici	-10.392
▁fikrin	-10.392
▁kalıcı	-10.3927
▁tim	-10.3927
▁zorundasınız	-10.3936
lerimize	-10.3936
▁teorisi	-10.3939
mekten	-10.394
▁durumlarda	-10.394
▁yukarıda	-10.3948
▁modeller	-10.3952
▁bahsed	-10.3955
▁bırakmak	-10.3956
▁değerler	-10.3957
eceğimiz	-10.3961
▁maden	-10.3962
bet	-10.3966
▁yardımı	-10.3967
▁çocuklarımız	-10.3969
▁hatırlama	-10.3976
▁yakalay	-10.3982
▁sıradaki	-10.3988
▁gibidir	-10.3988
▁bacakları	-10.399
4'	-10.3991
▁söyleyebilir	-10.3994
▁tecavüz	-10.4001
▁youtube	-10.4001
▁limit	-10.4001
▁oynuyor	-10.4001
▁gitmeye	-10.4003
▁kurduk	-10.4004
▁oluyordu	-10.4004
▁fransa	-10.4005
▁market	-10.4005
gal	-10.4005
▁bant	-10.4007
▁otel	-10.4008
▁1000	-10.401
▁arap	-10.401
▁biridir	-10.4015
cik	-10.4016
acağımızı	-10.4018
sıydı	-10.402
▁hazırladı	-10.402
▁yetiştirme	-10.4023
▁kalıp	-10.4026
▁tarihinde	-10.4027
▁özgün	-10.4032
etti	-10.4042
▁dersi	-10.4044
▁sırt	-10.4045
▁ışığın	-10.4046
▁ceb	-10.4047
▁farketti	-10.4051
▁katılım	-10.4053
lərə	-10.4057
▁aileleri	-10.4058
▁23	-10.4058
▁olabiliriz	-10.4061
▁dolan	-10.4065
▁konuşur	-10.4075
▁anderson	-10.4086
▁iphone	-10.4086
▁senaryo	-10.4086
▁travma	-10.4086
▁hidrojen	-10.4086
▁kongre	-10.4087
▁gelenek	-10.4089
▁ücretsiz	-10.4091
▁duygusu	-10.4091
ınızı	-10.4099
▁aşağıda	-10.4099
▁yor	-10.41
▁hikayeleri	-10.4103
▁bayanlar	-10.4106
▁isti	-10.4106
▁unutma	-10.4106
▁hisse	-10.4109
▁birileri	-10.4115
▁saniyede	-10.412
▁açar	-10.4121
▁ekranda	-10.4125
▁duvarı	-10.413
▁zar	-10.413
▁düşünen	-10.4134
▁kova	-10.4134
▁kütüphane	-10.4139
dığımda	-10.414
▁gezin	-10.4141
▁ayda	-10.4144
▁atmosferi	-10.4148
▁resimleri	-10.415
leşiyor	-10.4153
iriz	-10.4159
▁kaz	-10.4163
▁takıl	-10.4164
▁onar	-10.4167
▁yapın	-10.4168
▁ikisini	-10.4171
sində	-10.4172
▁dokunma	-10.4172
▁global	-10.4172
▁sigorta	-10.4172
▁medeniyet	-10.4172
▁tüp	-10.4173
▁yazıyor	-10.4174
▁yaprak	-10.4176
ğımız	-10.4177
▁kaybed	-10.4178
ıb	-10.4179
▁geçici	-10.4182
50	-10.4184
▁gücün	-10.4189
şü	-10.4194
▁gösterdiğim	-10.4196
▁tanıdık	-10.4196
▁üreten	-10.4196
▁duyduğum	-10.4196
▁bölgelerde	-10.4197
▁evim	-10.4208
▁gelecekteki	-10.4211
▁öncü	-10.4216
▁tabaka	-10.4217
▁gittiğini	-10.4218
▁yaşın	-10.4219
▁salon	-10.422
▁3.	-10.4222
▁istiyordum	-10.4224
▁gizem	-10.4225
▁sanatı	-10.4227
▁yüksel	-10.4231
▁mac	-10.4231
▁yaşındaydı	-10.4234
▁yönetimi	-10.4237
▁haritası	-10.424
▁yetki	-10.4243
▁gençler	-10.4248
▁sorduk	-10.4251
ct	-10.4253
oz	-10.4253
oo	-10.4254
▁gore	-10.4254
▁iyisini	-10.4255
▁borç	-10.4259
▁angeles	-10.4259
▁mağaza	-10.4259
▁unsur	-10.4259
▁düşünceleri	-10.4262
▁çarpıcı	-10.4264
məyə	-10.4266
▁görürüz	-10.4267
▁uğraşma	-10.4268
baba	-10.4269
▁yapmalıyız	-10.4272
▁bel	-10.4273
▁yerli	-10.4274
▁fırlat	-10.4279
▁azalma	-10.4281
▁duyur	-10.4281
▁20'	-10.4285
▁içeriyor	-10.4292
▁organizmalar	-10.4299
▁damla	-10.4301
ülmüş	-10.4302
fat	-10.4304
▁oldular	-10.4319
▁faktör	-10.4321
▁döv	-10.4323
▁liderleri	-10.4327
ebildi	-10.4327
▁kalanı	-10.4332
▁tamamıyl	-10.4336
▁ilişkileri	-10.4347
▁digər	-10.4347
▁futbol	-10.4347
▁kavga	-10.4347
▁kaçınılmaz	-10.4347
▁kompleks	-10.4347
▁vermiş	-10.4352
▁küme	-10.4352
▁sembol	-10.4356
▁beynimiz	-10.4359
▁oluşturdu	-10.436
lərində	-10.4361
üş	-10.4361
▁derken	-10.4363
▁benimse	-10.4368
▁hissettiği	-10.4369
▁işini	-10.4369
▁problemin	-10.4371
▁bilmiyordum	-10.4376
rit	-10.4379
▁deyə	-10.4379
▁enstitüsü	-10.438
▁etkiledi	-10.438
▁yapabil	-10.4388
▁sağladığı	-10.4391
▁tavan	-10.4394
ebildiği	-10.4394
▁yaşamış	-10.4394
▁gülme	-10.4399
▁gene	-10.44
▁raf	-10.4401
▁düşüncesi	-10.4408
▁çevresinde	-10.441
▁seviyesi	-10.441
▁laboratuvarı	-10.4411
▁ilgileniyor	-10.4415
▁devamlı	-10.4423
▁tat	-10.4424
▁geçirmek	-10.4431
▁yarıyor	-10.4432
▁harvard	-10.4436
▁kalabalık	-10.4436
▁teslim	-10.4436
▁terapi	-10.4436
▁kardeş	-10.4436
tə	-10.4437
▁yapılacak	-10.4441
▁üretiyor	-10.4448
▁adil	-10.4448
▁haftada	-10.445
▁iniş	-10.445
mıştık	-10.445
▁anlattı	-10.4456
▁devletleri	-10.4461
▁doktoru	-10.4467
▁sürücü	-10.4468
▁söyleyecek	-10.4468
▁finans	-10.447
▁seçimler	-10.4472
▁solu	-10.4475
▁foto	-10.4477
▁şe	-10.4479
▁kalacak	-10.4481
▁99	-10.4485
▁şeklini	-10.4485
▁toplumda	-10.4486
▁şeyle	-10.4491
▁nota	-10.4493
▁ayırma	-10.4497
▁tutan	-10.4497
artan	-10.4504
▁kullanılabilir	-10.4507
▁yapabilmek	-10.4508
▁bölün	-10.4509
▁gidebilir	-10.4515
▁kendisinin	-10.4516
▁ağın	-10.4517
▁maalesef	-10.4526
▁kiçik	-10.4526
▁şahit	-10.4527
▁kurgu	-10.4529
▁yakalan	-10.4532
lamaz	-10.4532
▁üyesi	-10.4533
▁zorluklar	-10.4536
▁bahsediyor	-10.4537
▁orası	-10.454
▁fotoğrafları	-10.4544
▁yapabilirim	-10.4546
▁korunma	-10.4549
▁veriyorlar	-10.4551
▁görebiliyor	-10.4552
amayız	-10.4554
by	-10.456
düğü	-10.456
▁yaparlar	-10.456
görebiliyorsunuz	-10.4561
▁bakmaya	-10.4563
▁kimliği	-10.4564
▁baktık	-10.4567
▁tekne	-10.4567
▁geride	-10.4568
▁sesler	-10.4569
▁aramızda	-10.4571
▁başım	-10.4575
emeyeceği	-10.458
▁yararlan	-10.458
▁çocuğ	-10.4581
▁ebeveyn	-10.4589
▁olabiliyor	-10.459
▁sera	-10.459
mışlardı	-10.4591
▁çekim	-10.4594
dığımızda	-10.4597
▁kaldım	-10.4597
▁modelleri	-10.4598
▁düzeltme	-10.4602
tasyon	-10.4603
▁ima	-10.4604
▁işle	-10.4609
▁sorar	-10.4612
▁ellerinde	-10.4613
▁sisteme	-10.4613
▁millet	-10.4613
▁başlayı	-10.4615
▁şef	-10.4615
▁ötürü	-10.4615
▁göğüs	-10.4615
▁seçeneği	-10.4615
▁otorite	-10.4615
▁titan	-10.4618
▁akım	-10.4619
▁öğrencilerin	-10.4627
ıydı	-10.4629
▁cr	-10.463
leyip	-10.4631
▁ağacı	-10.4649
▁kurulu	-10.465
▁kutusu	-10.4651
▁kızın	-10.4653
▁vay	-10.4657
▁calis	-10.4664
▁değilse	-10.467
▁yaşadığım	-10.467
▁duyguları	-10.468
▁açan	-10.4682
▁tasarlan	-10.4683
▁ocak	-10.4684
▁bildiğim	-10.4686
▁sisteminin	-10.4686
▁programları	-10.4693
▁işlerini	-10.4694
▁of	-10.4696
▁renkler	-10.4696
▁charles	-10.4706
▁neçə	-10.4706
▁obama	-10.4706
▁ilkel	-10.4708
▁vs	-10.4708
▁entegr	-10.4709
▁saatler	-10.4709
▁etkileyen	-10.4709
▁kodu	-10.4714
▁kuruluş	-10.4717
▁boşluğu	-10.4719
lacak	-10.4722
▁gezegenler	-10.4724
▁topladı	-10.4725
▁hastalıkları	-10.4726
▁ulaştı	-10.4727
▁gül	-10.4727
▁çoğumuz	-10.4729
▁duyduğumuz	-10.4729
dakı	-10.4733
▁olurlar	-10.4734
▁oturan	-10.4737
▁görüntüleri	-10.474
▁mülteci	-10.4741
▁panel	-10.4742
likleri	-10.4751
▁yıldızlar	-10.4753
▁yapısını	-10.4765
▁danışman	-10.4769
▁görülme	-10.4776
▁yürüyor	-10.4777
▁hayran	-10.4782
▁birçoğu	-10.4784
▁şurada	-10.4789
▁ölümcül	-10.4798
▁umuyorum	-10.4798
▁tarla	-10.4798
▁dilin	-10.4799
▁2010	-10.4799
▁tatmin	-10.48
▁düşünürseniz	-10.4801
▁tanış	-10.4803
▁kira	-10.4804
▁fotoğrafçı	-10.4805
cisi	-10.4809
▁korkuyor	-10.481
▁görebileceğiniz	-10.4812
str	-10.4819
▁söylemeye	-10.482
▁göze	-10.4825
▁ekledi	-10.4827
▁belirsiz	-10.4829
▁iyidir	-10.4832
▁terör	-10.4835
▁per	-10.4842
lerimden	-10.4843
ıyorlardı	-10.4851
▁geçirdiği	-10.4852
▁koş	-10.4854
▁kitab	-10.4855
▁hayvanları	-10.4855
▁elma	-10.486
▁savun	-10.486
▁çekildi	-10.4861
▁mr	-10.4868
▁başlayacak	-10.4871
▁yüzünü	-10.4872
▁parçasını	-10.4876
lenir	-10.4879
▁sag	-10.4882
▁şaşırt	-10.4887
▁merdiven	-10.489
▁müzisyen	-10.489
▁koltuk	-10.489
▁otizm	-10.489
▁bulgu	-10.4891
▁davranışı	-10.4891
▁sözcük	-10.4892
▁çalma	-10.4897
▁194	-10.4897
▁seyirciler	-10.49
emeyecek	-10.4909
▁sız	-10.4918
larımın	-10.4919
▁dönemi	-10.4922
▁olursunuz	-10.4924
▁yapabilecek	-10.4924
▁uzmanı	-10.4931
▁dersiniz	-10.4933
▁öğrencisi	-10.4934
▁konuşmalar	-10.494
▁veriyoruz	-10.494
▁yapmaları	-10.4946
▁gönderdi	-10.4947
▁hedefi	-10.4947
▁bulmuş	-10.4947
amam	-10.4956
▁zararlı	-10.4958
lərdə	-10.496
▁güçlendir	-10.4962
tiğimiz	-10.4965
▁50'	-10.4971
▁yaratıcılık	-10.4971
▁yüzeyi	-10.4972
▁ekleme	-10.4977
▁ilacı	-10.4978
▁cazibe	-10.4984
▁orkestra	-10.4984
▁tavuk	-10.4984
▁örümcek	-10.4984
▁akraba	-10.4984
▁tesadüf	-10.4984
▁garanti	-10.4984
▁bayağı	-10.4984
▁nitelik	-10.4984
▁isa	-10.4987
▁che	-10.4987
▁kuşlar	-10.4987
▁sokakta	-10.4988
▁boru	-10.4989
▁koyun	-10.4994
▁istediğini	-10.4995
luğun	-10.4997
▁ruhu	-10.4998
ılmıştı	-10.5002
▁grip	-10.5008
▁açıyor	-10.5008
▁rusya	-10.5014
▁geldiler	-10.5018
abilecekleri	-10.502
▁alınan	-10.5022
▁savaşta	-10.5022
ledik	-10.5023
▁ölümün	-10.5023
▁bekler	-10.5024
▁katlan	-10.503
▁eser	-10.5044
▁toplumu	-10.5046
ney	-10.5049
▁sunum	-10.5058
▁mutluluğu	-10.5059
▁başlamıştı	-10.5061
▁kızların	-10.5062
▁endişelen	-10.5063
gar	-10.507
▁atar	-10.5073
▁dinlemek	-10.5078
▁fenomen	-10.5078
▁ümit	-10.5078
▁lamba	-10.5078
▁huzur	-10.5078
▁etkiler	-10.5078
▁roket	-10.508
▁çizme	-10.508
▁tasarımcılar	-10.5081
cilik	-10.5082
▁hareketli	-10.5083
▁posta	-10.5084
▁konuştuk	-10.5084
▁bulunur	-10.5087
▁yazılmış	-10.5088
ləş	-10.5089
▁baktığı	-10.5093
▁deneyimleri	-10.5098
▁oysa	-10.5099
▁kararlar	-10.51
▁əslin	-10.5101
▁sorumluluğu	-10.5105
abildiği	-10.5106
▁özür	-10.5106
▁etmekte	-10.5107
▁pu	-10.512
▁yapabileceğiniz	-10.5122
▁tasarladı	-10.5123
▁sayıları	-10.5124
▁konuşu	-10.513
▁hiss	-10.5132
▁listesi	-10.5138
▁çözü	-10.5139
▁farklılık	-10.5139
▁içme	-10.5144
▁mıydı	-10.5146
▁gelişti	-10.5148
▁gönderme	-10.5149
▁aldılar	-10.5156
▁sonuc	-10.5159
▁bitirmek	-10.5163
▁istekli	-10.5165
▁sahnede	-10.5165
▁amerikalılar	-10.5167
▁düşünüyorsunuz	-10.5167
▁özellik	-10.517
▁keşfi	-10.5173
▁matematiğ	-10.5173
▁protesto	-10.5173
▁keyif	-10.5173
▁nasil	-10.5173
▁ayrıntı	-10.5174
▁eyni	-10.5174
▁uzağ	-10.5174
▁söylemeliyim	-10.5175
▁çəki	-10.5175
▁kablosuz	-10.5175
▁başlayacağı	-10.5177
vr	-10.5177
▁milletler	-10.5178
▁gar	-10.5181
▁seferinde	-10.5182
▁istiyorsunuz	-10.5184
▁şah	-10.5185
▁sadə	-10.5188
▁giderken	-10.5197
▁atma	-10.5199
▁olunca	-10.5203
▁öncesi	-10.5205
lanmıştı	-10.522
▁ulaştır	-10.5222
▁keşfetmek	-10.5227
▁for	-10.5229
▁ebeveynleri	-10.5242
▁açlık	-10.5246
siydi	-10.5247
▁tez	-10.5249
▁soğu	-10.5259
▁ötesin	-10.5261
▁telefonları	-10.5261
şık	-10.5264
laşmış	-10.5265
▁görüntüsü	-10.5266
▁gec	-10.5267
▁felsefe	-10.5269
▁köpeği	-10.5269
▁röportaj	-10.5269
▁cennet	-10.5269
▁felci	-10.5269
▁james	-10.5269
▁ispat	-10.527
▁evlilik	-10.5271
▁maç	-10.5274
▁eksen	-10.5278
▁tanışma	-10.5281
▁elinizde	-10.5282
▁başladığı	-10.5286
▁görebilir	-10.5286
▁izlemek	-10.5291
▁üretti	-10.5296
▁önde	-10.5297
▁istiyordu	-10.5298
▁antik	-10.5303
lediğimiz	-10.5312
▁kuruyor	-10.5321
▁gəl	-10.5322
▁gözle	-10.5324
▁sınıfı	-10.5333
▁sw	-10.5336
▁kadınları	-10.5342
▁büyüklüğü	-10.5353
▁durdurma	-10.5353
▁sizə	-10.5356
▁avantaj	-10.5363
layın	-10.5363
▁600	-10.5366
▁higgs	-10.5367
▁bəzi	-10.5367
▁apple	-10.5367
▁pembe	-10.5367
ladığını	-10.5367
▁animasyon	-10.5367
▁belirgin	-10.5368
▁amazon	-10.5368
▁olduğudur	-10.5371
▁mali	-10.5371
laştırma	-10.5371
▁versiyonu	-10.5375
▁sihirli	-10.5379
▁yatağı	-10.538
▁onlarca	-10.538
▁çap	-10.538
▁hayatları	-10.5382
unuzu	-10.5395
▁alıyorlar	-10.5399
▁ürettiği	-10.54
▁noktaları	-10.5406
▁ağırlık	-10.541
▁yaratıklar	-10.5413
▁uzunluğunda	-10.5416
▁başkalarının	-10.5417
▁kapasitesi	-10.5424
▁iyileşme	-10.5429
▁haberi	-10.543
▁ortamı	-10.543
▁evlen	-10.5431
▁yarama	-10.5435
▁həyat	-10.5436
...	-10.5438
▁seti	-10.544
▁göstər	-10.544
▁görüntüleme	-10.5447
▁keşfettik	-10.545
▁kazanmak	-10.545
▁gelmesi	-10.545
▁birleşmiş	-10.5452
▁yoldan	-10.5453
▁üye	-10.5453
▁katıldı	-10.5454
dığımı	-10.5455
▁demişti	-10.5459
lli	-10.546
▁yaklaşımı	-10.5461
▁tasarlama	-10.5462
▁pakistan	-10.5465
▁pompa	-10.5465
▁ertesi	-10.5465
▁yəni	-10.5465
▁getirdik	-10.5469
cılık	-10.547
▁aranızda	-10.5473
▁sanıyorum	-10.5474
rey	-10.5477
▁yat	-10.5477
▁atış	-10.5489
▁uçağı	-10.5497
bilirsek	-10.5503
ünüzü	-10.5504
lüğ	-10.5506
▁sars	-10.5511
bilir	-10.5517
▁geçirdi	-10.5521
▁dinler	-10.5526
▁yoğunlaş	-10.5531
▁babamın	-10.5532
▁kaynaklı	-10.5535
▁nesneler	-10.5535
▁denir	-10.5536
▁mobil	-10.5541
▁istek	-10.5544
▁heyecanlı	-10.555
▁sto	-10.555
▁döneminde	-10.5553
▁sevgili	-10.5553
▁konuşmamı	-10.5553
▁bilgisayarı	-10.5553
gre	-10.5558
▁sürme	-10.556
▁eh	-10.556
▁karbondioksit	-10.5564
▁olumsuz	-10.5564
▁çirkin	-10.5564
▁deprem	-10.5564
▁yunan	-10.5564
▁biyolog	-10.5564
▁parmağı	-10.5564
▁redded	-10.5567
▁internetin	-10.5571
▁gerçekleşen	-10.558
▁demir	-10.5584
▁değişen	-10.5591
▁inceley	-10.5597
▁çıkacak	-10.5601
▁muz	-10.5603
▁bez	-10.5606
▁hayatımızı	-10.5609
▁okumak	-10.5623
▁2009	-10.5625
▁kut	-10.5627
▁izni	-10.5627
▁artışı	-10.5628
▁sınıfta	-10.5631
,5	-10.5634
▁etmez	-10.5634
lendiği	-10.5636
▁yazıcı	-10.5638
▁aradı	-10.564
▁sorusu	-10.5645
▁açıklamak	-10.5647
▁denk	-10.5649
abilirdi	-10.5655
▁politikacılar	-10.5663
▁michael	-10.5664
▁yumuşak	-10.5664
▁felç	-10.5664
▁əsas	-10.5664
▁işlemi	-10.5665
▁kozm	-10.5665
▁kucak	-10.5665
▁desteği	-10.5665
▁ilerliyor	-10.5668
▁topluluğun	-10.5671
▁tetik	-10.5677
▁taşıyan	-10.5681
▁edildiği	-10.5684
▁yıldızı	-10.5686
ğına	-10.5695
▁kılan	-10.5696
▁katılımcı	-10.5698
stan	-10.57
▁anlatmaya	-10.5702
▁yansı	-10.5703
ylə	-10.5712
▁bebeği	-10.5716
▁geldiğimiz	-10.5723
art	-10.5723
▁yerleştirdi	-10.5723
▁olmalıdır	-10.5726
ttiği	-10.573
▁bırakır	-10.5731
▁üretil	-10.5736
▁kayda	-10.5737
tta	-10.5738
▁kullanacağı	-10.5739
▁çocuklarını	-10.5741
▁etkisini	-10.5743
▁öğrenir	-10.5744
ebilmesi	-10.5745
emem	-10.5746
umuzun	-10.575
▁atmak	-10.5754
ilecek	-10.5759
▁bağışıklık	-10.5765
▁efsane	-10.5765
▁geleceğe	-10.5765
▁sürpriz	-10.5765
▁thomas	-10.5765
▁endüstriyel	-10.5765
▁rolü	-10.5766
▁bilmir	-10.5768
▁ilgilidir	-10.5769
▁kafatası	-10.5771
▁düşer	-10.5772
▁toparla	-10.5775
▁uyumlu	-10.5777
▁oturur	-10.5777
▁65	-10.5777
▁inanıyoruz	-10.5783
▁eleman	-10.5785
▁böcekler	-10.5789
▁gerçekliği	-10.5792
riyi	-10.5798
▁kaldığı	-10.5805
▁detaylı	-10.5806
▁ilerledi	-10.5808
▁doğada	-10.5811
▁tanesini	-10.5817
nizden	-10.5821
▁tara	-10.5821
▁koyduk	-10.5821
▁bag	-10.5822
▁yürüdü	-10.583
▁akışı	-10.5836
▁kelimesini	-10.5837
▁mühendisliği	-10.5838
▁duymak	-10.5839
▁yil	-10.5841
▁çalışıyordum	-10.5843
▁kurumu	-10.5854
▁direk	-10.5856
lıydı	-10.586
▁şirketin	-10.5863
▁perspektif	-10.5867
▁çıplak	-10.5867
▁canavar	-10.5867
▁francisco	-10.5867
▁online	-10.5867
▁görebil	-10.5867
▁ödey	-10.5868
▁memur	-10.5869
▁yapabilme	-10.588
▁içe	-10.5881
▁bariz	-10.5884
▁kavramı	-10.5887
▁olmalıyız	-10.5889
▁iyileştirme	-10.5894
▁kullanabileceği	-10.5898
dığımızı	-10.5908
▁bio	-10.5909
▁yapacağımız	-10.5919
▁değin	-10.5921
▁söyleyeceğim	-10.5926
▁hatırlar	-10.593
▁gelmiyor	-10.593
▁çalışmanın	-10.5935
▁yazarı	-10.5935
▁yarattık	-10.5936
▁araştırmacılar	-10.5938
ser	-10.5939
abileceğim	-10.5941
▁frank	-10.5947
▁kazanan	-10.5947
bilimci	-10.5956
▁ph	-10.5956
▁nesneleri	-10.5958
▁olabildiğin	-10.5959
▁edən	-10.596
dəki	-10.596
▁çoklu	-10.5962
mayacağım	-10.5965
▁aydın	-10.5965
▁mary	-10.5966
▁anlayabil	-10.5967
▁şekillerde	-10.5967
▁saldır	-10.5968
▁genişlet	-10.5969
▁belediye	-10.597
▁frekans	-10.597
▁çamaşır	-10.597
▁protez	-10.597
▁anımsa	-10.597
▁gökada	-10.597
▁resif	-10.597
▁şi	-10.5972
▁umutsuz	-10.5973
▁derler	-10.5975
▁vadede	-10.5975
▁okulun	-10.5981
▁temin	-10.5984
▁güzelliği	-10.5985
▁çip	-10.5985
▁edilemez	-10.5988
▁simdi	-10.5991
▁benzin	-10.5991
▁edebilme	-10.5994
gram	-10.5994
▁amacıyla	-10.5994
eger	-10.5998
▁kurtulma	-10.5998
▁sevin	-10.5998
▁tanık	-10.5999
ılıp	-10.6
lenebilir	-10.6001
▁yaratıcılığı	-10.6005
▁toplumumuz	-10.6005
▁anlıyor	-10.6015
▁etrafındaki	-10.6017
▁gelişimi	-10.6022
▁neşe	-10.6027
▁hazırlama	-10.603
▁düşünmemiz	-10.603
▁yolculuğu	-10.6039
▁oldugu	-10.6041
org	-10.6042
▁gökyüzü	-10.6043
▁birbirlerini	-10.6043
ow	-10.6046
▁noktasında	-10.6049
▁parkı	-10.6049
▁gelmez	-10.6051
▁olmalıydı	-10.6053
▁pul	-10.6056
bar	-10.6059
mediği	-10.6063
▁bölgeler	-10.6064
▁türlerin	-10.6065
▁türün	-10.6066
▁güvende	-10.6069
▁sudan	-10.6069
▁başlık	-10.6072
abildi	-10.6073
▁kusur	-10.6073
▁itiraf	-10.6074
▁orijinal	-10.6074
▁şikayet	-10.6074
▁korteks	-10.6074
▁utanç	-10.6078
▁pasifik	-10.6078
▁dikey	-10.6078
▁çelişki	-10.6078
▁paris	-10.6079
▁etmesini	-10.6079
▁matematikçi	-10.6079
▁latin	-10.608
▁ulaştığı	-10.6083
▁aslin	-10.6088
▁has	-10.609
▁ayrıldı	-10.6092
sün	-10.6096
▁grupları	-10.6101
▁görünme	-10.6102
▁tele	-10.6105
▁mikroplar	-10.6107
▁kadarıyla	-10.6113
▁okudum	-10.6122
bert	-10.6123
ografi	-10.6123
▁verdiğim	-10.6126
▁gittiği	-10.6129
sünü	-10.6129
deyken	-10.6132
▁şiddetli	-10.6146
▁odadaki	-10.6146
▁sevdikleri	-10.6148
▁süt	-10.6156
▁anneler	-10.6159
▁etik	-10.6164
örü	-10.6166
▁roma	-10.6168
▁kule	-10.6171
▁doğası	-10.6178
▁alzheimer	-10.6179
▁golf	-10.6179
▁tedarik	-10.6179
▁gps	-10.6179
▁filtre	-10.618
yacağı	-10.6181
▁kurumsal	-10.6182
▁sınav	-10.6184
▁müziğin	-10.6186
▁oyunlar	-10.6186
irsek	-10.619
▁olmazdı	-10.6194
▁tüy	-10.6197
▁bağlam	-10.6201
▁sayısını	-10.6204
▁adeta	-10.621
▁yararı	-10.6211
▁kazı	-10.6214
▁değiştirecek	-10.622
▁gizemli	-10.6223
▁edebileceğiniz	-10.6223
▁çektiği	-10.623
mağa	-10.6236
leştiği	-10.6238
▁soyu	-10.6248
▁ayrılma	-10.6249
▁ismini	-10.625
▁bilmediği	-10.6251
▁kullanmayı	-10.6252
▁duyduğunuz	-10.6261
▁duygular	-10.6264
ent	-10.6267
emezsiniz	-10.6267
▁yönü	-10.627
▁aletler	-10.6274
▁cins	-10.6283
▁ilişkin	-10.6284
▁motivasyon	-10.6286
▁kılavuz	-10.6286
▁silikon	-10.6286
▁şarap	-10.6286
▁hakikat	-10.6286
▁lazer	-10.6286
▁zorunlu	-10.6287
▁göreceğiz	-10.6288
▁dönelim	-10.6289
▁aktör	-10.629
▁öngör	-10.6293
▁nüfusu	-10.6294
▁çelik	-10.6295
▁kesme	-10.6297
▁bekleyen	-10.63
▁dalış	-10.6301
▁bulunduğumuz	-10.6305
▁yetenek	-10.6306
▁izleyen	-10.6307
▁düşündüğü	-10.6309
▁bakıyoruz	-10.6317
▁korkma	-10.6317
▁rica	-10.6318
▁hapse	-10.632
lərlə	-10.6325
▁öğrencileri	-10.6328
▁qə	-10.6332
▁bilgisayarın	-10.6337
▁karşılaştığı	-10.6341
▁yaşlarında	-10.6342
▁havaya	-10.6345
ebilirdi	-10.635
▁onur	-10.6351
▁kardeşi	-10.6352
lanacak	-10.6355
▁eğitme	-10.6356
▁geliyorlar	-10.6358
▁dh	-10.636
▁bahseder	-10.6361
▁devletin	-10.6361
▁ap	-10.6364
▁şehirlerin	-10.6367
▁ışın	-10.6368
▁homo	-10.6369
▁gelmeye	-10.6372
▁insansız	-10.6374
mıyordu	-10.6375
▁göründüğü	-10.6375
▁çay	-10.6377
ymış	-10.6379
▁elini	-10.6381
▁muhtemel	-10.6384
▁olayın	-10.6386
▁öden	-10.6387
abilmesi	-10.6388
▁değişimin	-10.6391
▁şempanzeler	-10.6393
▁sizleri	-10.6393
▁rehber	-10.6393
▁dinozor	-10.6393
▁mikroskop	-10.6393
▁istasyonu	-10.6393
▁görmüyor	-10.6394
▁kaydetti	-10.6395
▁trans	-10.6395
ttığı	-10.6396
▁olabilirler	-10.6399
▁bankası	-10.6399
▁yönünde	-10.6405
▁nüfusunu	-10.6409
▁yapabileceği	-10.6409
▁düşünerek	-10.6413
▁öğrendiğimiz	-10.6414
▁evinde	-10.6422
▁sorduğum	-10.6423
▁bm	-10.6426
▁istiyorsak	-10.6429
▁perde	-10.643
▁diyecek	-10.6432
▁kısme	-10.6434
▁hara	-10.6437
▁ülkedeki	-10.6437
▁yapama	-10.6439
▁farketme	-10.6441
▁baylar	-10.6441
▁kanı	-10.6442
▁başardık	-10.6443
▁papa	-10.6446
▁şartlar	-10.6446
▁uzmanları	-10.6447
▁rakamlar	-10.6448
▁dağıtım	-10.6458
▁gerçekleşiyor	-10.646
mişlerdi	-10.6466
▁buradayım	-10.6468
▁arabanın	-10.6469
▁sual	-10.6478
▁soyle	-10.6481
▁yetişkinler	-10.6482
▁arkadaşlar	-10.6483
▁bölgeleri	-10.6483
▁kaldık	-10.6492
▁okyanusu	-10.6493
▁olacağım	-10.6501
▁beklenmedik	-10.6502
▁önyargı	-10.6502
▁fotograf	-10.6502
▁keskin	-10.6503
▁kutbu	-10.6504
▁yangın	-10.6504
▁biriktir	-10.6504
▁görünüm	-10.6504
▁sanmıyorum	-10.6505
▁ekipman	-10.6506
▁kuyruklu	-10.6506
▁öğrenmeye	-10.6507
▁harcay	-10.6508
ov	-10.6509
▁konuşurken	-10.6511
▁sistemlerin	-10.6512
luğ	-10.6513
▁arayüz	-10.6513
▁gerçekleşti	-10.6516
▁seçti	-10.6516
▁inanır	-10.6517
▁çılgınca	-10.6523
▁poster	-10.6524
▁10.000	-10.6525
▁seviyesinde	-10.6529
▁gülüşler	-10.6529
▁özet	-10.653
ymiş	-10.6531
▁kainat	-10.6532
▁işimiz	-10.6533
▁yanımda	-10.6537
▁evrimin	-10.6538
▁arkasındaki	-10.6539
mah	-10.6539
▁tasarımın	-10.6543
stro	-10.6546
▁sam	-10.6555
▁kurt	-10.6555
▁programlama	-10.6556
▁arayı	-10.6557
▁ros	-10.6557
▁ağız	-10.6558
▁hatırlayın	-10.656
▁izlediği	-10.6563
▁she	-10.6569
▁çıkması	-10.6574
▁bozu	-10.6581
▁erişimi	-10.6584
▁giri	-10.6587
▁söylüyorlar	-10.6587
▁heyecanlandır	-10.6588
▁pre	-10.659
▁sitesi	-10.6591
▁yetenekleri	-10.6594
ınızda	-10.6597
▁özüm	-10.6603
tıcı	-10.6605
▁kapak	-10.6606
duğunda	-10.6611
▁alışkanlık	-10.6612
▁gübre	-10.6612
▁koruyucu	-10.6612
▁meclis	-10.6612
▁somut	-10.6612
eceğimizi	-10.6613
▁mühendis	-10.6615
▁vereyim	-10.6616
▁diyebiliriz	-10.6617
▁yaparız	-10.6619
▁yaparsınız	-10.6619
▁başlayabilir	-10.6622
▁annemin	-10.6622
▁ekonomisi	-10.6623
▁hattı	-10.6624
▁çocuklarım	-10.6637
▁yaşta	-10.664
▁haberleri	-10.6643
20	-10.6644
▁etmişti	-10.6645
▁evreni	-10.6646
▁bob	-10.6651
▁böl	-10.6655
larımızla	-10.6661
▁gerçekçi	-10.6661
▁okyanuslar	-10.6664
▁yazılı	-10.6665
▁incil	-10.6668
▁kaybettiği	-10.6668
▁işlerin	-10.6672
▁genomu	-10.6675
mektir	-10.6682
▁yiyor	-10.6691
▁edebileceği	-10.6691
▁fiyatı	-10.6693
▁büyüdüm	-10.67
▁pop	-10.67
▁işlet	-10.6701
▁çoğal	-10.6704
▁birbirimiz	-10.6709
▁ağacın	-10.6711
▁pasif	-10.672
▁ülkeleri	-10.6721
▁jenerasyon	-10.6723
▁liberal	-10.6723
▁radyasyon	-10.6723
▁sıkıştır	-10.6723
▁bilinmeyen	-10.6725
ğr	-10.6727
▁komut	-10.6729
▁siber	-10.6729
▁çekilmiş	-10.673
▁ağlar	-10.6733
▁söylemişti	-10.6734
▁görebiliyoruz	-10.6735
▁ray	-10.6738
zaman	-10.674
▁öğretme	-10.6742
▁içlerinde	-10.6749
▁yükle	-10.6749
▁gücüne	-10.6754
▁hükümetler	-10.6756
▁sinema	-10.6761
▁özen	-10.6766
ph	-10.6767
▁kelimeleri	-10.6775
▁aşık	-10.6776
▁yetenekli	-10.6778
▁jim	-10.6786
▁kartı	-10.6788
▁kırık	-10.679
▁asi	-10.6795
▁yapamaz	-10.6795
▁bölgelerinde	-10.6797
▁boyle	-10.6802
▁ms	-10.6804
▁öğrendi	-10.6806
▁sola	-10.6813
▁müdür	-10.6814
▁nöronlar	-10.6825
▁bölümünü	-10.6825
▁oynamak	-10.6826
sızlık	-10.6826
lıktan	-10.6826
▁tabiki	-10.6829
▁yolculuğ	-10.6829
▁məktəb	-10.6835
▁sebze	-10.6835
▁boston	-10.6835
▁konsept	-10.6835
▁cidden	-10.6835
▁həqiqətən	-10.6835
▁metod	-10.6837
▁element	-10.6837
▁demək	-10.6838
▁yollarını	-10.6839
▁türde	-10.684
▁oluşturduğu	-10.6841
▁yaparsanız	-10.6853
▁con	-10.6856
▁aslın	-10.6859
▁durur	-10.686
▁tüken	-10.686
▁öldürme	-10.6865
▁tanımı	-10.6867
▁görünüyordu	-10.687
▁amca	-10.687
▁gittiğimde	-10.6871
▁sade	-10.6875
▁gidiyoruz	-10.6875
yacağım	-10.688
▁değiştirir	-10.6881
▁inanı	-10.6884
▁hy	-10.6885
▁kültürün	-10.6891
▁biliyorlar	-10.6895
▁açmak	-10.6897
▁duyduğu	-10.6899
▁yarısını	-10.6899
▁değiştirmeye	-10.6905
▁32	-10.6905
asiya	-10.6917
ant	-10.6919
▁hip	-10.692
▁boşal	-10.6926
▁sala	-10.6927
▁əla	-10.6927
▁oldugunu	-10.693
ble	-10.6935
▁geliştirdik	-10.6937
digim	-10.6937
▁odak	-10.6938
▁koştu	-10.6939
▁dışarıya	-10.6942
▁deyir	-10.6946
▁intihar	-10.6949
▁kapitalizm	-10.6949
▁kağıdı	-10.6949
▁rejim	-10.6949
▁kendiliğinden	-10.6949
▁yurt	-10.6949
▁oğlan	-10.6949
▁nakli	-10.6949
▁getirecek	-10.695
▁kusursuz	-10.695
▁reform	-10.6951
▁portre	-10.6952
▁simge	-10.6953
▁hedefler	-10.6953
▁oluruz	-10.6956
▁anlamamız	-10.6956
▁üyeleri	-10.6958
▁edeceğiz	-10.696
▁davranışları	-10.6962
▁duyuyorum	-10.6966
▁öncesinde	-10.6968
▁önemsiz	-10.6971
▁etkiliyor	-10.6972
▁vererek	-10.6979
▁gide	-10.6981
▁çalışmıyor	-10.6985
▁engeller	-10.6991
▁tamamını	-10.6993
▁ulaşabil	-10.6996
▁başlamış	-10.6997
▁güncel	-10.6998
▁edebilecek	-10.7001
▁canlılar	-10.7002
▁eksikliği	-10.7003
masından	-10.7003
ıldığını	-10.7004
▁gəlir	-10.7007
▁katil	-10.7007
▁hekayə	-10.7007
▁geçtik	-10.7009
▁projeyi	-10.7009
▁bildikleri	-10.7016
▁kalmıyor	-10.7021
▁dönüm	-10.7025
▁ildə	-10.7025
müyor	-10.7027
▁denedi	-10.7028
lüğün	-10.7028
▁zehir	-10.7029
▁gösterecek	-10.7032
▁hani	-10.7034
▁sınırı	-10.7037
▁sent	-10.7038
▁paylaştı	-10.704
▁akış	-10.7043
▁dönmek	-10.7045
▁dışındaki	-10.7045
▁ettirme	-10.7049
▁taşındı	-10.7053
▁öğretmenleri	-10.7054
▁yaradı	-10.7054
▁geleceğini	-10.7055
▁hatırlıyor	-10.7057
▁bilişsel	-10.7064
▁meşhur	-10.7064
▁ömür	-10.7064
iken	-10.7064
▁kabuk	-10.7064
▁istəyirəm	-10.7064
▁qadın	-10.7067
▁bilge	-10.7068
▁sokağ	-10.7071
▁metin	-10.7073
▁tümü	-10.7073
▁peter	-10.7073
▁oynar	-10.7078
▁kaçınız	-10.7078
▁kuvvetli	-10.7079
▁port	-10.7081
▁kapsam	-10.7082
▁örtüsü	-10.7086
▁bütünü	-10.7086
▁dönen	-10.7088
▁ülkeye	-10.7091
▁paylaşıyor	-10.7091
▁çocukluk	-10.7097
▁seçimi	-10.7097
ğunu	-10.7098
▁karıncalar	-10.71
lamıyor	-10.7102
dıq	-10.7102
▁elimizdeki	-10.7105
▁geçirir	-10.7108
▁tekerlek	-10.711
tigi	-10.711
▁yaşıyorlar	-10.7112
▁yıldızların	-10.7114
▁düşündüğünüz	-10.7115
▁vadisi	-10.7118
▁ölmüş	-10.712
▁gidin	-10.7121
▁veriyorum	-10.7122
▁ölümü	-10.7122
▁okullar	-10.7122
▁genelinde	-10.7124
▁uc	-10.7137
▁güneşin	-10.7137
▁şehirlerde	-10.7139
▁bulundur	-10.7139
▁yüzleş	-10.7141
▁varmış	-10.7145
▁istemedi	-10.7147
▁geni	-10.7147
inizde	-10.7148
▁oluştu	-10.7149
▁istediler	-10.7153
▁düşünüyordu	-10.7157
▁kapatma	-10.7159
▁besleme	-10.7163
▁yılan	-10.7163
▁süresin	-10.7179
▁yerleştirme	-10.7179
▁boyutta	-10.718
▁cömert	-10.718
▁disiplin	-10.718
▁dâhil	-10.718
▁piyano	-10.718
▁istisna	-10.718
▁kemiği	-10.718
▁terörizm	-10.7181
▁gereği	-10.7181
▁unutmayın	-10.7182
keresinde	-10.7182
▁kəs	-10.7184
▁uzayda	-10.7185
▁qız	-10.7186
▁şüphesiz	-10.7187
▁iskelet	-10.7189
▁disk	-10.719
▁sıcaklığı	-10.7192
▁kazanç	-10.7195
▁alındı	-10.7196
▁büyüyor	-10.7203
▁istersiniz	-10.7211
▁yapardı	-10.7213
▁zehirli	-10.7216
tmak	-10.7221
luyoruz	-10.7222
▁ağları	-10.7227
▁korkusu	-10.7234
▁ilan	-10.7237
▁davam	-10.724
▁almayı	-10.7242
▁aldığınız	-10.7244
▁meselesi	-10.7246
▁kalitesi	-10.7246
liğimiz	-10.7251
▁görebilme	-10.7252
▁taşımak	-10.7255
▁yazmak	-10.7255
▁benlik	-10.726
▁tuttu	-10.7264
▁varlığını	-10.7267
▁yürü	-10.7268
▁karmaşıklığı	-10.7271
▁sure	-10.7273
tion	-10.7274
lərdən	-10.7281
▁karşılaşma	-10.7288
▁vizyon	-10.7288
▁filmin	-10.7288
▁ileride	-10.7289
▁kariyerim	-10.7297
▁yepyeni	-10.7298
▁tarayıcı	-10.7298
▁kullanışlı	-10.7298
▁vesaire	-10.7298
▁hariç	-10.7298
▁sunucu	-10.7298
▁kaybetmiş	-10.7298
▁yapımcı	-10.7298
▁patron	-10.73
▁açtığı	-10.73
▁mutasyon	-10.7302
▁kentsel	-10.7304
▁herşeyin	-10.7305
▁minik	-10.7305
▁zira	-10.7305
▁gösterilen	-10.7306
▁konuştuğumuz	-10.7306
▁tasarlamak	-10.7311
▁yapılabilir	-10.7313
▁mantığı	-10.7314
▁martin	-10.7314
▁yakaladı	-10.732
▁kalktı	-10.7321
▁bahar	-10.7322
▁tedavisi	-10.7332
yabilir	-10.7333
▁okyanusta	-10.7333
ling	-10.7335
▁moleküle	-10.7335
▁mühendisler	-10.7336
▁çözmeye	-10.7336
▁alabilirsiniz	-10.7341
bire	-10.7342
altı	-10.7346
▁istediğimi	-10.7348
▁maymunlar	-10.7349
▁topluluklar	-10.7354
cük	-10.7355
▁sunmak	-10.7359
▁müzesi	-10.7362
▁etmeniz	-10.7363
▁amaçlı	-10.7363
▁once	-10.7368
laşıyor	-10.737
▁formları	-10.7371
▁alması	-10.7373
▁yapıldığı	-10.7375
▁oluşturduk	-10.7381
sy	-10.7385
▁kurtarmak	-10.7385
yüz	-10.7387
▁yazan	-10.7393
▁temas	-10.7394
▁kullandım	-10.7394
▁yerlerinde	-10.7395
▁ayırt	-10.7398
▁250	-10.7399
▁açıp	-10.7401
▁kalmadı	-10.7405
▁kolaylaştır	-10.7405
▁sezgi	-10.7412
▁sanatın	-10.7413
▁kromozom	-10.7417
▁filistin	-10.7417
▁mutsuz	-10.7417
▁maddi	-10.7417
▁sevimli	-10.7417
▁aktivist	-10.7417
▁sorgulama	-10.7417
▁mezar	-10.7418
▁fırın	-10.7418
▁qoy	-10.7418
▁alkol	-10.7421
▁metro	-10.7424
▁2005	-10.7426
▁yayınladı	-10.7426
▁eviniz	-10.7427
▁kaos	-10.7427
▁başlattı	-10.7427
▁cerrahi	-10.7429
▁uygulamalar	-10.7429
▁kötüsü	-10.743
▁tüketimi	-10.7434
▁bitkilerin	-10.7435
çü	-10.7438
▁ekonominin	-10.7439
▁yatır	-10.7439
▁makineleri	-10.7439
▁ileti	-10.7441
▁düşünüyorlar	-10.7441
▁hint	-10.7441
▁yaşanan	-10.7454
▁beyninin	-10.746
▁hücrelerini	-10.7461
▁uçma	-10.7462
▁soldaki	-10.7466
▁hayatında	-10.7468
▁olmayabilir	-10.747
▁çıkarıp	-10.7474
▁bebeğin	-10.7474
▁sıkışı	-10.7476
▁etkileme	-10.7482
▁işliyor	-10.7483
▁ayakları	-10.7484
▁ilişkili	-10.7486
▁çıktık	-10.7495
▁bilimciler	-10.7497
▁şekiller	-10.7497
▁kayna	-10.7504
▁lab	-10.7508
▁inanmak	-10.7511
▁olmasından	-10.7514
▁atalarımız	-10.7517
▁askerler	-10.752
▁kırılgan	-10.7537
▁uğultu	-10.7537
▁çember	-10.7537
▁şov	-10.7537
▁yahudi	-10.7537
▁mikrofon	-10.7537
▁alakası	-10.7537
▁dizüstü	-10.7538
▁torba	-10.754
▁selam	-10.754
▁karşılaştırma	-10.7545
▁bulabilirsiniz	-10.7547
:	-10.7548
▁oradaydı	-10.7548
▁emekli	-10.7552
▁işareti	-10.7556
▁robotik	-10.7561
▁değişir	-10.7563
▁öldürdü	-10.7572
▁olmayacağı	-10.7576
▁nöro	-10.7577
▁açıklay	-10.7579
▁gözlerini	-10.7582
▁kaplı	-10.7585
biliyorum	-10.7586
▁keç	-10.7587
▁ekim	-10.7595
▁hangisi	-10.7596
▁geçmişe	-10.7598
▁fırsatlar	-10.761
▁kâr	-10.7611
▁görevli	-10.7614
layabileceği	-10.7614
▁maliyetli	-10.7619
▁silahlı	-10.7621
▁yapıldığını	-10.7625
▁koydum	-10.7633
laştı	-10.7633
▁verildi	-10.7637
▁şeffaf	-10.7638
▁mola	-10.7638
▁kuruluşları	-10.7639
mezler	-10.7639
▁nedenini	-10.7643
▁süreli	-10.7648
▁azaltma	-10.7654
▁vermesi	-10.7655
▁ressam	-10.7659
▁üzgünüm	-10.7659
▁190	-10.7661
▁edirəm	-10.7662
▁dizilim	-10.7663
▁diyebilirsiniz	-10.7666
▁duymuş	-10.7666
▁başladığımda	-10.7669
▁öğrencilerim	-10.7671
▁yolcu	-10.7672
▁kul	-10.7673
▁söylemem	-10.7675
ləşdir	-10.7679
▁hayd	-10.7679
▁alırsınız	-10.7683
▁sektörü	-10.7691
ustu	-10.77
▁olayları	-10.7701
▁yatan	-10.7704
▁olacağına	-10.7708
▁yapış	-10.7708
▁aksi	-10.7711
▁etken	-10.7711
▁ağaçları	-10.7712
mazlar	-10.7715
▁yapıcı	-10.7715
▁farklılıklar	-10.7717
▁düşünmüyoru	-10.772
▁kitapta	-10.7723
▁aramak	-10.7724
▁okuyor	-10.7724
▁poli	-10.7725
▁malzemeleri	-10.7726
▁örnekleri	-10.7727
▁yaratabilir	-10.7734
▁getirebilir	-10.7738
▁zincir	-10.7741
emediği	-10.7745
▁arılar	-10.7746
▁19.	-10.7752
▁derinden	-10.7754
▁bağlıdır	-10.7757
▁eğ	-10.776
▁döngüsü	-10.7773
▁isterdi	-10.7775
▁dönüştürül	-10.7776
▁adaları	-10.778
▁feminist	-10.7783
▁muhabir	-10.7783
▁şebeke	-10.7783
▁gerektirir	-10.7783
▁optik	-10.7783
▁ölkə	-10.7784
▁ödev	-10.7784
▁ulaşılabilir	-10.7784
▁kumanda	-10.7784
▁anki	-10.7786
▁zıp	-10.7786
▁destekleyen	-10.7786
▁dibin	-10.779
luğunu	-10.7791
▁yükselme	-10.7793
▁uğraşıyor	-10.7793
▁taşır	-10.7794
▁yapmıştı	-10.7795
▁sözlük	-10.7796
▁gönderiyor	-10.7797
▁yapmakta	-10.7799
▁farz	-10.78
▁sopa	-10.781
çok	-10.7811
metre	-10.7815
▁yapıyorsunuz	-10.782
▁okudu	-10.7826
▁kızıl	-10.7835
meyeceğini	-10.7838
▁yapacağını	-10.7841
11	-10.7842
▁ilgilenme	-10.7844
▁dördü	-10.7845
▁topluyor	-10.7852
▁yayıldı	-10.7854
▁iyice	-10.786
abiliyorlar	-10.786
▁fit	-10.7868
▁pra	-10.7871
▁yaşıyordu	-10.7871
▁geceleri	-10.7873
▁çarpma	-10.7882
▁bozuk	-10.7885
▁miras	-10.7885
▁demo	-10.7886
▁bacağı	-10.7887
9'	-10.789
▁kaybediyor	-10.7892
▁kabiliyeti	-10.7898
▁savaşa	-10.79
▁göremedi	-10.7903
▁dinazor	-10.7908
▁enstrüman	-10.7908
▁otomobil	-10.7908
▁yerleşim	-10.7908
▁tören	-10.7908
▁hacker	-10.7909
▁seyred	-10.7911
▁hic	-10.7912
▁torunları	-10.7913
▁varlıklar	-10.7913
▁boğul	-10.7917
▁küreselleşme	-10.7917
▁bıraktığı	-10.7919
▁etmeliyiz	-10.7919
▁düşünürken	-10.792
▁bahsediyoruz	-10.792
▁çalışacak	-10.7922
▁olmalısınız	-10.7925
▁36	-10.7926
30	-10.793
▁buzun	-10.7935
▁geliştiril	-10.7935
▁bölümünde	-10.7936
▁göl	-10.7939
rayı	-10.7942
▁tanıştığım	-10.7944
digi	-10.7946
▁eğitimin	-10.795
▁konuşmanın	-10.7955
▁vali	-10.7955
▁cihazlar	-10.7957
▁silahları	-10.7961
▁devri	-10.7963
▁aydınlat	-10.7968
▁yaratmaya	-10.7971
▁bugünün	-10.7974
▁kuran	-10.7978
▁yavaşlat	-10.7989
amadığı	-10.7989
▁yapmasını	-10.7991
sünüz	-10.7995
▁italya	-10.7997
▁aklınız	-10.7998
▁şehr	-10.8
▁yut	-10.8002
▁çocuklarımızı	-10.8005
▁örgütü	-10.8005
▁yaptığımı	-10.8006
▁konularda	-10.8008
▁2004	-10.8009
▁edebilmek	-10.8011
▁aşkın	-10.8018
▁vücudumuz	-10.8019
▁yaraya	-10.8022
▁şuan	-10.8023
ttı	-10.8031
▁hüküm	-10.8031
▁salla	-10.8033
▁kuralı	-10.8034
▁psiko	-10.8034
▁antibiyotik	-10.8034
▁hipotez	-10.8034
▁mutfak	-10.8034
▁figür	-10.8034
▁maske	-10.8034
▁korktu	-10.8034
▁maddə	-10.8034
▁günəş	-10.8034
▁kaygı	-10.8034
▁haiti	-10.8035
▁gerektiren	-10.8035
▁formül	-10.8036
▁kalkınma	-10.8036
uşu	-10.8038
▁satıcı	-10.8042
▁atıyor	-10.8044
▁yapılır	-10.8046
▁biliyorsun	-10.8046
▁kapsamlı	-10.8047
▁çağında	-10.8052
▁ölür	-10.8055
▁galeri	-10.8058
▁molekülleri	-10.8065
▁kazanıyor	-10.8068
▁ex	-10.8075
▁odası	-10.8075
▁şarkısı	-10.8086
▁başladığını	-10.8095
▁ikisinin	-10.8097
▁dayanıyor	-10.8099
▁başladığım	-10.81
▁uyuş	-10.81
▁doz	-10.8106
▁dinledi	-10.8113
▁kutlama	-10.8114
▁kullanıldı	-10.8115
▁davranışlar	-10.8115
▁yaşamaya	-10.8117
▁söyleyin	-10.8119
▁davranma	-10.8122
▁yanındaki	-10.8125
▁koşul	-10.8134
▁derek	-10.8136
▁sessizlik	-10.8142
landığını	-10.8146
▁aleti	-10.8151
▁verip	-10.8158
mekle	-10.8159
▁severi	-10.8161
▁məsələ	-10.8162
▁çeşidi	-10.8162
▁nəticə	-10.8162
▁olacaq	-10.8162
▁ideoloji	-10.8162
▁ekstra	-10.8162
▁tünel	-10.8163
▁meraklı	-10.8163
▁suriye	-10.8163
▁sonuçlarını	-10.8163
the	-10.8164
▁ölçeği	-10.8165
▁duman	-10.8166
▁adapt	-10.8168
tığınızda	-10.8168
▁bono	-10.8169
▁beton	-10.8169
▁kurucu	-10.8169
amadım	-10.8173
▁gerekecek	-10.8174
▁kardeşleri	-10.8178
▁hamur	-10.8181
▁sizce	-10.8183
▁abart	-10.8184
▁endüstrisi	-10.8186
▁temizleme	-10.8189
▁yayılan	-10.8189
▁iyiydi	-10.819
▁öl	-10.8197
▁bastır	-10.8199
▁interneti	-10.8206
▁virüsü	-10.8215
▁örtü	-10.8216
▁artı	-10.8218
▁big	-10.8221
▁büyür	-10.8221
▁duvara	-10.8223
▁kılı	-10.8226
▁kenarında	-10.8226
▁diyet	-10.8228
▁hastanede	-10.8229
▁kalması	-10.823
▁yatıyor	-10.8236
▁kapa	-10.8238
▁ağaçların	-10.824
▁gidiş	-10.8247
▁götürüyor	-10.8253
▁mes	-10.8254
▁yeryüzünde	-10.8257
▁inanan	-10.826
▁seçimleri	-10.8261
▁far	-10.8263
▁ilişkisi	-10.8266
leşir	-10.8268
▁balıklar	-10.828
▁harcıyor	-10.8286
▁kuyruk	-10.8287
▁tri	-10.829
▁sinyalleri	-10.8292
▁partner	-10.8292
▁çubuk	-10.8292
▁çukur	-10.8292
▁ulduz	-10.8293
▁şerit	-10.8293
▁büyüklükte	-10.8293
▁kulağı	-10.8294
▁şimdilerde	-10.8295
▁tekniği	-10.8297
▁hükümetin	-10.8299
▁tümüyle	-10.83
▁ciddiye	-10.83
▁süresi	-10.83
▁anlıyorum	-10.8301
▁sırrı	-10.8303
▁havalı	-10.8303
▁işgal	-10.8304
▁kalmayı	-10.8305
▁aptalca	-10.8307
▁şair	-10.8309
▁eğil	-10.831
▁içinizde	-10.831
▁sayılar	-10.8311
▁düşünmüştü	-10.8315
▁birbirimizi	-10.8324
▁hayatınızı	-10.8328
▁kullandıkları	-10.833
▁kaldırma	-10.833
▁yuvarlak	-10.8331
▁kullanılma	-10.8333
▁başlığı	-10.8333
▁çıkaran	-10.8335
▁alqışlar	-10.8336
▁çekimi	-10.8337
▁hoca	-10.8338
indən	-10.8339
▁çıkardık	-10.8341
▁bugünlerde	-10.8343
▁hastası	-10.8343
▁28	-10.8343
▁alınma	-10.8346
▁anlatır	-10.8346
▁dakikalık	-10.8349
▁hesabı	-10.8354
▁bazılarının	-10.8358
▁korkar	-10.8366
▁gördüğümde	-10.8366
▁yazılımı	-10.8372
▁ülkeyi	-10.8374
▁anladık	-10.8375
məyi	-10.8376
▁kısıt	-10.8377
▁çevril	-10.8377
▁hastalıkların	-10.8378
▁işimi	-10.838
▁ısır	-10.838
▁şiddetin	-10.8382
▁üçüncüsü	-10.8386
▁haklarını	-10.8386
▁hâlin	-10.8391
leştiriyor	-10.8399
▁memeli	-10.84
▁yeter	-10.84
berg	-10.8404
ort	-10.8409
▁verdikleri	-10.8412
▁salonun	-10.8413
▁çeviri	-10.8422
▁hepinizi	-10.8422
▁diyalog	-10.8424
▁karaciğer	-10.8424
▁ısrar	-10.8424
▁anatomi	-10.8424
▁federal	-10.8424
▁inovasyon	-10.8424
▁uganda	-10.8424
▁dəfə	-10.8424
▁kuzen	-10.8424
▁zıt	-10.8424
▁sezon	-10.8424
▁kosmos	-10.8424
▁mizah	-10.8424
▁nobel	-10.8424
▁paralel	-10.8425
▁netice	-10.8425
▁təsir	-10.8425
▁cisim	-10.8426
▁baktığımda	-10.8426
▁başladığımız	-10.8436
▁giz	-10.8437
▁pay	-10.844
ışını	-10.844
▁çocukluğum	-10.8441
▁göstermeye	-10.8446
▁boyutlar	-10.8449
▁nazik	-10.8451
başı	-10.8454
▁dönüştürme	-10.8454
▁kullanıyorum	-10.8455
ılmasını	-10.8461
▁dokusu	-10.8463
▁desen	-10.8468
▁geçirdik	-10.8468
bel	-10.8469
▁keşfettim	-10.847
▁götürür	-10.8472
▁ilişkilendir	-10.8475
▁resmini	-10.848
▁yüzme	-10.8482
▁duyan	-10.8483
▁gazı	-10.8486
▁geçecek	-10.8488
▁çarpışma	-10.8491
▁kaplan	-10.8491
▁yüzeye	-10.8493
▁üs	-10.8496
▁oluşmuş	-10.8496
▁saklı	-10.8498
▁girmek	-10.8508
▁aramaya	-10.8511
▁anlatan	-10.8515
▁isteyeceği	-10.8518
▁düşünmeniz	-10.8532
▁rastla	-10.8535
▁kararlı	-10.8536
▁girdim	-10.8539
▁kanserin	-10.854
dıklarında	-10.854
▁giysi	-10.8542
▁üretebil	-10.8547
sunuzdur	-10.8548
▁kalmıştı	-10.8549
▁çevirdi	-10.8554
▁dinleyici	-10.8557
▁geometri	-10.8557
▁enteresan	-10.8557
▁haqqında	-10.8557
▁istikrar	-10.8557
▁sekilde	-10.8557
▁simülasyon	-10.8557
▁tropik	-10.8557
▁cavab	-10.8557
▁fiziği	-10.8557
▁acımasız	-10.8557
▁doğmuş	-10.8558
▁ironi	-10.8558
▁sentez	-10.8558
▁telif	-10.8558
▁göreceğiniz	-10.8558
▁robert	-10.8559
▁keçi	-10.8559
▁kalırsa	-10.856
liydim	-10.8561
▁yarışı	-10.8562
▁oluşum	-10.8563
▁yetecek	-10.8564
tre	-10.8564
▁ediyordum	-10.8565
yıllardır	-10.8567
▁eşya	-10.8569
▁tor	-10.8569
▁mod	-10.857
▁ödüllendir	-10.8581
▁ticareti	-10.8582
▁oturduğu	-10.8584
▁uçurum	-10.8585
lüğünü	-10.8586
▁hita	-10.8589
▁bakanlığı	-10.859
▁mısın	-10.8592
▁okuduğum	-10.8593
▁rio	-10.8593
▁organizasyonu	-10.8594
▁küp	-10.8594
▁laboratuvarda	-10.8596
ment	-10.8596
▁canlandırma	-10.8597
▁yüzeyinde	-10.861
▁tasarlay	-10.8611
▁yarısında	-10.8613
▁kg	-10.8619
▁motoru	-10.862
▁bilinir	-10.8624
▁düşünmüyor	-10.8627
▁gitmiş	-10.8629
▁silin	-10.8636
▁birbiri	-10.8646
▁edinme	-10.8648
▁seninle	-10.865
▁öğretmek	-10.8653
▁geliştirdi	-10.8654
▁bakanı	-10.8658
▁bitti	-10.8659
▁tanıştır	-10.8659
▁yollarla	-10.8662
▁kelimesi	-10.8666
▁balıkçı	-10.8667
labilir	-10.8672
▁ilaçların	-10.8673
▁başarısızlık	-10.8679
▁titre	-10.868
▁büyüdüğü	-10.8682
▁dikkatini	-10.8686
▁ödedi	-10.8686
▁edemez	-10.8691
▁helikopter	-10.8692
▁şapka	-10.8692
▁eşcinsel	-10.8692
▁hükumet	-10.8692
▁batarya	-10.8692
▁istəyir	-10.8692
▁santral	-10.8694
▁molekülü	-10.8694
▁1960'	-10.8694
▁2011	-10.8695
▁düşünürsek	-10.8697
▁dinleyiciler	-10.8698
▁attığı	-10.8698
▁davranışsal	-10.87
▁yapamayacağı	-10.8707
▁kaydetme	-10.8708
▁birçoğunuz	-10.8709
▁tərəfində	-10.871
▁düşünecek	-10.8711
▁kısıtlama	-10.8712
▁kurar	-10.8714
▁gözlük	-10.8714
▁başvur	-10.8721
▁bakıyorum	-10.8723
▁bırakıp	-10.8727
▁duyduk	-10.873
rdım	-10.8734
etmek	-10.874
▁elektriği	-10.8744
▁eşitlik	-10.875
▁çocuğum	-10.8751
▁bittiğini	-10.8753
▁denedim	-10.8754
▁vazgeçme	-10.8758
▁gidiyordu	-10.876
▁sanatçılar	-10.8761
▁karşılaştığımız	-10.8761
▁hesaba	-10.8762
▁düzenledi	-10.8763
▁olmaq	-10.8764
▁satır	-10.8768
▁dünyamızı	-10.8769
layabiliyor	-10.8773
▁çit	-10.8776
.♫	-10.8778
▁performansı	-10.878
▁vermeyi	-10.8781
▁kuram	-10.8784
▁yönden	-10.8786
▁çaresiz	-10.8788
dayken	-10.8789
▁düzenlen	-10.8795
▁etmeli	-10.8798
▁durumunu	-10.8804
▁grub	-10.8804
▁yayma	-10.8806
▁okumaya	-10.8814
▁yenilikler	-10.8819
▁gelişmeler	-10.8821
▁aslı	-10.8826
▁gezegeni	-10.8829
▁hollywood	-10.8829
▁istihbarat	-10.8829
▁street	-10.8829
▁çikolata	-10.8829
▁emniyet	-10.8829
▁rekor	-10.883
▁vadeli	-10.883
▁bozukluk	-10.8832
▁taşıyıcı	-10.8833
▁düğüm	-10.8834
▁noel	-10.8836
▁aşamada	-10.884
▁ayni	-10.8842
▁becer	-10.8843
▁mega	-10.8844
▁uzmanlar	-10.8846
▁üretilen	-10.8847
▁güce	-10.8848
abildik	-10.8853
▁çıktığını	-10.8853
▁içimizde	-10.8859
▁aşkı	-10.886
▁gereksiz	-10.886
▁pound	-10.8861
▁sorduğu	-10.8862
▁müh	-10.8865
▁akıllıca	-10.8868
▁bitirdi	-10.887
▁vatandaşları	-10.8871
▁sorunumuz	-10.8874
▁şiddeti	-10.8875
▁omuz	-10.8876
▁fikrimiz	-10.8877
▁yerleştiril	-10.8879
▁içimde	-10.888
ildiğinde	-10.8893
▁parçacıkları	-10.8901
▁diken	-10.8909
▁elli	-10.8909
▁finanse	-10.891
▁gidiyorlar	-10.8912
▁telefonunuz	-10.8912
▁gitmesi	-10.8912
▁arar	-10.8912
▁getirmeye	-10.8913
▁qar	-10.8913
▁bozukluğu	-10.8916
▁yaramaz	-10.8917
▁pişirme	-10.8933
rəm	-10.8935
▁diğerlerinin	-10.8941
▁sakla	-10.8941
▁çıkarır	-10.8943
▁rob	-10.8945
▁hintli	-10.8947
▁trend	-10.8947
▁yeryüzü	-10.8947
▁vurma	-10.8948
malıdır	-10.8949
▁benzediğini	-10.895
▁vermiyor	-10.8951
ebileceğim	-10.8951
▁yayılması	-10.8953
▁denedik	-10.8954
▁rota	-10.896
eşke	-10.8967
▁tüketim	-10.8968
▁olağan	-10.8968
▁hollanda	-10.8968
▁hristiyan	-10.8968
▁kurbağa	-10.8968
▁referans	-10.8968
▁manhattan	-10.8968
▁çətin	-10.8968
▁çamur	-10.8968
▁çevrimiçi	-10.8968
▁beləliklə	-10.8968
ight	-10.8969
▁ürünün	-10.8969
▁gergin	-10.8969
▁okun	-10.897
▁iyileştir	-10.897
▁eşitsizlik	-10.897
▁ceo	-10.8971
▁degis	-10.8975
duğumuz	-10.8975
▁önlem	-10.898
▁şəkildə	-10.8984
▁bitiş	-10.8991
▁cihazları	-10.8996
▁edemiyor	-10.8997
▁robotun	-10.8998
deydim	-10.8999
▁yapmadı	-10.9003
ksiyon	-10.9007
laşır	-10.9007
▁uygulamaya	-10.9009
▁dedikleri	-10.9011
▁eserleri	-10.9016
▁kirli	-10.9019
▁yoksun	-10.9019
▁muydu	-10.902
▁moleküller	-10.9021
▁yöntemleri	-10.9021
▁içten	-10.9025
▁metan	-10.9026
▁asit	-10.9028
▁farkındalık	-10.903
▁mart	-10.903
▁dolduru	-10.9037
▁cami	-10.9043
▁düşünmeyi	-10.9045
▁olmasaydı	-10.9047
▁enstitü	-10.9058
▁tepesinde	-10.9064
▁seslerini	-10.9067
ülü	-10.907
▁bireylerin	-10.9071
▁dönüşüyor	-10.9072
▁çarpı	-10.9074
üsü	-10.908
▁harcadı	-10.9081
▁zordu	-10.909
▁pm	-10.91
▁sınırlar	-10.9102
▁california	-10.9109
▁koridor	-10.9109
▁musiqi	-10.9109
▁pirinç	-10.9109
▁şablon	-10.9109
▁cocuk	-10.9109
▁meslektaşlarım	-10.9109
▁hiçbirşey	-10.9109
▁vb	-10.911
abiliyordu	-10.9111
▁basamak	-10.9113
▁yitir	-10.9113
▁ipek	-10.9115
▁basınç	-10.9115
▁kabin	-10.9115
▁komşuları	-10.9121
▁uçtu	-10.9122
▁değişiklikleri	-10.9124
▁fotoğrafta	-10.9125
▁geliyoruz	-10.9125
▁my	-10.9125
▁26	-10.9126
▁bakıyorsunuz	-10.9127
ebileceğimizi	-10.9128
▁100.000	-10.9131
▁10,000	-10.9133
▁kavrama	-10.9136
▁bozulma	-10.9136
▁çıkarak	-10.9139
▁krallık	-10.9144
▁pişir	-10.9145
▁1990'	-10.9146
duğunuzda	-10.9154
lduğunu	-10.9155
▁evlenme	-10.9159
▁burun	-10.9167
▁evimiz	-10.917
▁oluşumu	-10.917
ğünü	-10.917
10	-10.9175
▁giren	-10.9177
▁yaxın	-10.9184
▁birbirini	-10.9184
▁eleştiri	-10.919
▁yaşayacak	-10.9191
▁bardak	-10.9193
▁elinizi	-10.9193
▁yayımla	-10.9197
▁tutum	-10.9198
old	-10.9205
▁birikim	-10.9206
▁alınmış	-10.9215
landırıl	-10.9222
▁fotoğrafını	-10.9223
▁kesti	-10.9225
akt	-10.9226
mezdi	-10.9227
▁şansımız	-10.9227
▁açıkladı	-10.923
▁anlamsız	-10.923
cy	-10.9231
▁120	-10.9235
▁şiş	-10.9237
▁istediklerini	-10.9237
▁düşünebilir	-10.9239
▁imkân	-10.9239
▁köyün	-10.9241
▁dersleri	-10.925
▁opera	-10.9251
▁iplik	-10.9252
▁aygıt	-10.9252
▁bıçak	-10.9252
▁gecekondu	-10.9252
▁hərəkət	-10.9252
▁karmaşa	-10.9252
▁mevsim	-10.9252
▁negatif	-10.9252
▁psikolog	-10.9252
▁qalaktika	-10.9252
▁reçete	-10.9252
▁yolsuzluk	-10.9252
▁öbür	-10.9252
▁emisyon	-10.9252
▁kraliçe	-10.9252
▁vakfı	-10.9252
▁sentetik	-10.9252
▁ebola	-10.9252
▁ultra	-10.9252
▁esnasında	-10.9252
▁kalori	-10.9252
▁kızgın	-10.9252
▁profil	-10.9253
▁çöküş	-10.9253
▁denizaltı	-10.9255
▁məni	-10.9255
▁açılma	-10.926
▁işlevsel	-10.9261
▁yasası	-10.9263
üstü	-10.9269
▁nerde	-10.9274
▁kuruluşu	-10.9274
▁yaşımda	-10.9274
▁oynayan	-10.9275
▁apar	-10.9281
▁kısıtlı	-10.9283
▁isimlendir	-10.9283
▁fran	-10.9287
▁yosun	-10.9287
▁dizisi	-10.9289
▁eğitimli	-10.929
▁gam	-10.929
▁baska	-10.9293
▁arkadaşlarınız	-10.9294
▁fikr	-10.9294
▁davranışlarını	-10.9295
▁konuştuğum	-10.9296
▁değerini	-10.9297
▁yıkıl	-10.9298
▁gerçeğ	-10.9299
▁koşulları	-10.9301
▁genler	-10.9305
▁hissetti	-10.9308
▁götürü	-10.9311
▁bela	-10.9314
▁ilgimi	-10.9314
▁alabil	-10.9317
▁fikrine	-10.9318
▁beraberinde	-10.9321
▁adımı	-10.9326
▁ilgiliydi	-10.9327
▁yetkili	-10.9328
▁rast	-10.933
▁gerekmiyor	-10.9332
▁yaratık	-10.9335
▁duruş	-10.9339
▁düşündüğünüzde	-10.9348
▁yaşadık	-10.9351
▁yoğunluğu	-10.9359
▁dönüştürmek	-10.9359
▁ormanlar	-10.936
▁olayların	-10.936
▁sesle	-10.9363
▁isterler	-10.9363
▁umur	-10.9367
▁duydukları	-10.9368
.5	-10.9368
▁yapmaz	-10.9368
▁böcekleri	-10.9368
▁azaldı	-10.9369
▁keşfetti	-10.9371
▁gelişimin	-10.9381
▁akla	-10.9385
ırıq	-10.9388
kən	-10.9392
layabilirsiniz	-10.9394
▁başlatma	-10.9394
▁akıntı	-10.9397
▁koltuğu	-10.9397
▁nöroloji	-10.9397
▁kumaş	-10.9397
▁transfer	-10.9398
▁söyleyeyim	-10.9398
▁aşina	-10.9399
▁yapabilirler	-10.9399
▁prens	-10.94
▁artıq	-10.9402
▁mutluyum	-10.9402
▁kongo	-10.9403
▁istemem	-10.9403
▁tuttuğu	-10.9404
▁etkinlik	-10.9405
▁yeraltı	-10.9405
▁yoğunluk	-10.9406
▁parmakları	-10.9408
▁sürecinde	-10.9408
▁konuştu	-10.9411
▁yiyeceği	-10.9412
▁inkar	-10.9412
▁yenilenebilir	-10.9413
rika	-10.9414
▁kurumların	-10.9418
▁korumaya	-10.9421
▁vermişti	-10.9422
▁haliyle	-10.9424
laştığı	-10.9424
▁hazırlık	-10.9427
▁ilgilenen	-10.9427
▁desteklemek	-10.9439
▁şunlar	-10.9439
▁lüks	-10.9447
▁inci	-10.945
▁miktarını	-10.9451
▁sebebiyle	-10.9452
▁sundu	-10.9454
▁kast	-10.9465
oto	-10.9467
daydım	-10.947
▁üretir	-10.947
▁bölü	-10.9472
nny	-10.9476
▁mark	-10.9477
▁öteki	-10.948
▁almaz	-10.9484
▁fena	-10.9487
leşen	-10.9489
▁alqış	-10.9494
▁bankacı	-10.9494
▁verdiğiniz	-10.9495
▁eg	-10.9498
▁sanıyor	-10.95
▁riskli	-10.9506
▁konuşmacı	-10.9508
▁yakalanma	-10.9509
▁olasılıkla	-10.9511
▁çalışmasını	-10.9517
▁sağdaki	-10.9517
▁boyutları	-10.9518
▁incelemek	-10.9518
▁bilgisayarların	-10.952
▁başlarında	-10.953
▁bağlaya	-10.9534
▁çalıyor	-10.9537
▁dramatik	-10.9544
▁halihazırda	-10.9544
▁motive	-10.9544
▁rüşvet	-10.9544
▁haziran	-10.9544
▁varoluş	-10.9544
▁görünmüyor	-10.9545
▁yapabileceğim	-10.9545
▁imalat	-10.9546
▁eşyaları	-10.9546
▁korsan	-10.9548
▁pişmanlık	-10.9548
▁yuzde	-10.9549
▁yıkıcı	-10.9549
▁söylenen	-10.955
▁bakımından	-10.955
▁hələ	-10.955
▁benzetme	-10.9551
▁2006	-10.9552
▁değiştiğini	-10.956
▁titreşim	-10.9562
▁ilacın	-10.9563
▁tank	-10.9569
▁uğraşan	-10.957
▁zorundadır	-10.9572
▁yakalama	-10.9574
▁matt	-10.9576
▁kurduğu	-10.9579
düğünü	-10.9579
▁ormanların	-10.9585
▁deneysel	-10.9585
▁yansıma	-10.9587
▁fotoğraflarını	-10.9587
▁çakı	-10.9588
▁bla	-10.9592
▁şehirleri	-10.9592
▁kültürler	-10.9596
kül	-10.9602
▁inandı	-10.9607
▁çıxar	-10.961
▁sinyali	-10.9611
▁faydası	-10.9613
▁bulamadı	-10.9616
▁lideri	-10.9617
▁alıyordu	-10.9617
▁çalın	-10.9619
▁adlandırıla	-10.9621
▁dinliyor	-10.9624
ğum	-10.9627
▁toplamak	-10.9635
▁çıktığında	-10.9635
▁bahsettiği	-10.9637
▁sesli	-10.9646
-2	-10.9647
▁gercekte	-10.965
▁fiber	-10.9651
▁ormanın	-10.9658
▁wall	-10.9658
▁dergisi	-10.9663
▁üretimin	-10.9673
▁arttırma	-10.9675
list	-10.9675
▁danışma	-10.968
▁yaşadıkları	-10.9681
acağına	-10.9682
leştiren	-10.9684
▁çalışacağım	-10.9688
▁çar	-10.9688
▁bilmeniz	-10.9689
▁çıkmaya	-10.9692
▁bulaşıcı	-10.9693
▁güvercin	-10.9693
▁isviçre	-10.9693
▁kahverengi	-10.9693
▁qaranlıq	-10.9693
▁trajedi	-10.9693
▁üzücü	-10.9693
▁şaşkın	-10.9693
▁banyo	-10.9693
▁çürü	-10.9693
▁retina	-10.9693
▁dağınık	-10.9694
▁darbe	-10.9694
▁emek	-10.9694
▁parazit	-10.9694
▁verilere	-10.9696
▁çalışmamız	-10.9699
▁kaçak	-10.97
▁hiper	-10.9704
▁parla	-10.9704
▁forma	-10.9705
▁buluyorum	-10.9707
▁evre	-10.9707
▁zorlukları	-10.9711
pat	-10.9711
▁hastalığ	-10.9711
▁şahs	-10.9713
▁kurulmuş	-10.9719
▁etməyə	-10.9724
▁azaltmak	-10.9727
▁geleceğimiz	-10.9727
▁donmuş	-10.9732
▁kayak	-10.9734
▁salı	-10.9736
▁kafasını	-10.9738
▁giyin	-10.9738
▁programcı	-10.9745
▁konuştum	-10.9746
▁açıldı	-10.9747
▁şartları	-10.9748
▁bildirim	-10.9751
▁geçiren	-10.9751
▁giderse	-10.9752
▁bağlantıları	-10.9753
▁yöntemler	-10.9755
▁yoksulluğu	-10.9755
▁anlaş	-10.9767
▁anlayama	-10.9771
▁star	-10.9771
▁bağımlılık	-10.9772
▁ebeveynler	-10.9781
▁gezegenlerin	-10.9781
malıyım	-10.9786
larımla	-10.9788
▁köşesinde	-10.9793
▁bahsettiğimiz	-10.9801
▁derim	-10.9805
▁aletleri	-10.9805
▁parçacıklar	-10.9806
▁bağlantısı	-10.9808
▁yapmaktan	-10.9808
▁hissettiğim	-10.9808
▁batılı	-10.9812
▁başvuru	-10.9813
▁sunduğu	-10.9819
▁yönelt	-10.9834
▁doğma	-10.9835
▁milyard	-10.9838
▁ellerini	-10.9839
▁yazmaya	-10.9841
▁becerileri	-10.9841
▁böceği	-10.9845
▁çekirdek	-10.9845
▁arşiv	-10.9845
▁chicago	-10.9845
▁patates	-10.9845
▁reaksiyon	-10.9845
▁scott	-10.9845
▁britanya	-10.9845
▁onemli	-10.9845
▁gözəl	-10.9845
▁gerektiriyor	-10.9845
▁ödün	-10.9846
▁taze	-10.9846
▁şahane	-10.9847
▁solucan	-10.9847
▁rock	-10.9851
▁esinlen	-10.9851
▁oxu	-10.9851
▁maşın	-10.9852
▁tahrip	-10.9856
▁genişleme	-10.9857
▁gerçekleştirmek	-10.9858
▁karşıtı	-10.9859
▁cür	-10.9863
▁haritasını	-10.9864
▁renkleri	-10.9864
▁tutkulu	-10.9868
lanmamış	-10.9873
▁tabanı	-10.9879
▁belirleye	-10.9879
▁umursama	-10.988
▁sormaya	-10.988
▁kanalı	-10.9889
▁inceliyor	-10.989
▁anlatıcı	-10.9891
▁kirliliği	-10.9894
▁kıy	-10.9894
▁sebepten	-10.9895
▁koro	-10.9903
▁gezegenimiz	-10.9906
likdə	-10.9911
▁halı	-10.9912
▁yapamıyor	-10.9913
▁adası	-10.9917
▁kullanılır	-10.9919
▁butun	-10.9923
▁amacımız	-10.9924
▁kullanılması	-10.9925
▁görebildiği	-10.9937
▁kavray	-10.9939
▁verirse	-10.9939
▁uydur	-10.9944
▁yaban	-10.9945
▁çare	-10.9946
▁araçların	-10.9955
▁gideli	-10.9956
▁ormanları	-10.9961
▁dilini	-10.9964
▁atlat	-10.9966
▁olmasıydı	-10.9967
▁öldüğü	-10.9974
▁ordusu	-10.9974
▁aldatma	-10.9975
▁hoşlanma	-10.9976
▁oynadı	-10.9994
▁beklediği	-10.9996
▁festival	-10.9998
▁rezerv	-10.9998
▁william	-10.9998
▁paradigma	-10.9998
▁smith	-10.9998
▁stanford	-10.9998
▁şükür	-10.9998
▁aristo	-10.9998
▁yaratacak	-10.9999
▁masum	-10.9999
▁çağdaş	-11
▁kanıtı	-11.0002
▁cuma	-11.0003
▁ilave	-11.0005
▁dansçı	-11.0005
▁kaynaklanıyor	-11.0005
▁evlat	-11.0007
▁belgesel	-11.001
▁yükselen	-11.0014
▁seçer	-11.0014
▁zorlama	-11.0015
▁videosu	-11.0017
▁gösterebilir	-11.0018
▁cent	-11.002
lmaz	-11.0022
▁çölü	-11.0023
▁ömrü	-11.0024
▁toprağı	-11.0025
▁kaderi	-11.0028
▁emir	-11.0029
▁muyu	-11.003
▁rahatsızlık	-11.0035
▁yankı	-11.0036
▁yabani	-11.0041
▁italyan	-11.0043
▁bulmaca	-11.0045
▁göndermek	-11.0052
istan	-11.0053
▁görmedi	-11.0057
▁beste	-11.0058
▁oluyorsunuz	-11.0063
▁asılı	-11.0072
▁olmadıkları	-11.0078
▁çıkmaz	-11.008
▁toplulukları	-11.0085
▁yolculuğun	-11.0087
liyordu	-11.009
▁harikaydı	-11.0091
▁hoşum	-11.0093
▁səs	-11.0094
amazdı	-11.0096
▁kuramı	-11.0096
▁çıkardığı	-11.0099
▁kül	-11.0104
▁gittiğimiz	-11.0105
▁bank	-11.0105
▁sahi	-11.0106
▁aldığını	-11.0108
▁evcil	-11.0109
▁fok	-11.0109
▁tıbb	-11.0113
▁hızını	-11.0116
▁dağılımı	-11.012
▁geçirmiş	-11.0123
mazsınız	-11.0124
▁ölecek	-11.0128
▁dövme	-11.0128
▁yığ	-11.013
▁havuzu	-11.013
15	-11.0132
▁ihtiyac	-11.0132
▁gülüşme	-11.0142
▁analizi	-11.0144
▁yağış	-11.0152
▁asteroid	-11.0155
▁fakülte	-11.0155
▁hormon	-11.0155
▁oxford	-11.0155
▁vasitə	-11.0155
▁zekâ	-11.0155
▁başlıca	-11.0155
▁hidro	-11.0155
▁işkence	-11.0155
▁göğsü	-11.0155
▁hakkinda	-11.0155
▁zarif	-11.0155
▁evvel	-11.0156
▁bencil	-11.0156
▁edemeyeceği	-11.0157
▁2012	-11.0157
▁görünüşü	-11.0159
▁kemer	-11.016
▁gana	-11.0161
▁ford	-11.0164
▁kolunu	-11.0165
▁gökyüzünde	-11.0166
▁kuşku	-11.0166
▁koyduğu	-11.0168
▁gayri	-11.0173
▁istemediği	-11.0173
▁üzərində	-11.0174
wood	-11.0175
▁eğiliminde	-11.0176
▁halini	-11.0179
▁fərqli	-11.018
▁görüldüğü	-11.0184
▁alanlarında	-11.0184
▁organları	-11.0187
▁döndük	-11.0188
▁başladığımızda	-11.019
▁üçgen	-11.019
▁vücudunu	-11.0195
▁rb	-11.0202
▁həyatı	-11.0203
▁uçaklar	-11.0206
▁denemek	-11.0206
luq	-11.0211
▁alıyorum	-11.0211
▁başladığında	-11.0212
▁taşıdı	-11.0213
▁alırken	-11.0213
▁gerçekleştiği	-11.0216
▁yem	-11.0219
leştirdi	-11.0222
▁olacaksınız	-11.0223
▁öncülü	-11.023
▁aşamasında	-11.0231
▁uçuyor	-11.0231
▁salgı	-11.0237
▁yaşamını	-11.0246
▁karo	-11.0248
▁akışını	-11.0249
▁görmə	-11.025
▁etmedi	-11.025
▁verdiğini	-11.0252
▁konferansı	-11.0253
▁uzaklaştır	-11.0255
▁anlattım	-11.0262
▁elit	-11.0263
▁grafiği	-11.0269
▁iskeleti	-11.0269
▁saray	-11.0275
▁eğim	-11.0278
▁oranını	-11.0281
▁leo	-11.0282
▁çocuklarınız	-11.0289
▁toprağın	-11.0291
▁fiil	-11.0296
aret	-11.03
▁örnekte	-11.0304
▁stil	-11.0305
▁öyrə	-11.0305
▁aklımda	-11.0306
▁minnettar	-11.0313
▁muayene	-11.0313
▁mıknatıs	-11.0313
▁peynir	-11.0313
▁sandviç	-11.0313
▁estetik	-11.0313
▁ünite	-11.0313
▁olimpiyat	-11.0314
▁yüce	-11.0314
▁cihad	-11.0314
▁ogren	-11.0314
▁afgan	-11.0315
▁gram	-11.0316
▁geçin	-11.0319
leştirilmesi	-11.032
▁sayılır	-11.032
▁kuşak	-11.0322
▁imaj	-11.0323
▁önemini	-11.0325
kac	-11.0326
▁derinliklerin	-11.0326
▁kalkıp	-11.0328
▁işık	-11.033
▁türünü	-11.033
▁çektiğim	-11.0333
▁sayısal	-11.0333
▁bulunmakta	-11.0334
▁dönüşür	-11.0335
▁yardımıyla	-11.0336
▁işleyen	-11.0338
▁gençlerin	-11.0338
▁hansı	-11.0338
▁öğrenebilir	-11.0339
▁anlıyoruz	-11.0343
▁gelmedi	-11.0346
▁bedeli	-11.0347
▁zekice	-11.0347
▁göründü	-11.035
▁kel	-11.0353
▁bölgesel	-11.0355
▁sis	-11.0358
mısınız	-11.0358
▁memeliler	-11.0364
▁eric	-11.0366
▁hemşire	-11.0367
▁içsel	-11.0367
▁2008'	-11.038
▁görmüştü	-11.0383
▁alarm	-11.0391
5.000	-11.0392
▁buluşma	-11.0402
▁görülmemiş	-11.0407
▁tarafına	-11.0412
▁alem	-11.0423
▁kaldırın	-11.0426
▁takma	-11.0427
▁saklama	-11.0429
▁çalar	-11.0435
▁fiyatları	-11.0437
▁2003	-11.0443
▁bağlamda	-11.0446
▁ardında	-11.0447
şer	-11.0455
▁kolaylık	-11.0459
▁etmekten	-11.0461
▁kaynaklarını	-11.0462
▁hızda	-11.0463
▁mühendisi	-11.0465
▁temizlik	-11.0465
▁sattı	-11.0468
▁bağı	-11.0468
▁dalgaları	-11.0469
▁kafe	-11.0469
▁coğrafi	-11.0475
▁gsyih	-11.0475
▁ispanyol	-11.0475
▁laboratuar	-11.0475
▁popülasyon	-11.0475
▁sovyet	-11.0475
▁təhsil	-11.0475
▁əlaqə	-11.0475
▁gündüz	-11.0475
▁karşılığında	-11.0475
▁paraşüt	-11.0475
▁olub	-11.0475
▁eşitsizliğ	-11.0476
▁saldırgan	-11.0476
digini	-11.0476
▁insa	-11.0477
▁ırkçı	-11.0478
▁hergün	-11.0479
▁durak	-11.0479
▁lg	-11.048
▁izi	-11.048
▁isyan	-11.0486
▁geldiğimde	-11.0488
▁öldürmek	-11.0488
▁0.	-11.049
▁seçtiği	-11.0492
▁çekilme	-11.0493
eğer	-11.0493
▁gelmesini	-11.0493
▁görebiliyorum	-11.0496
▁dolusu	-11.0498
▁kapağı	-11.0501
▁müşterileri	-11.0506
▁4.	-11.0508
▁dövr	-11.0509
▁yayılmış	-11.0509
▁gizlice	-11.0518
▁binaların	-11.052
▁tüketiciler	-11.0521
▁fili	-11.0524
▁karmaşıklık	-11.0527
malısın	-11.0528
▁mirası	-11.0531
▁vadi	-11.0533
▁kirlilik	-11.0536
diyini	-11.0537
▁kırıklığın	-11.0541
▁tadı	-11.0545
▁etkilerini	-11.0546
▁virüsün	-11.0549
▁hayalim	-11.055
▁biliniyor	-11.0553
▁33	-11.0557
▁keyfi	-11.0559
▁calisma	-11.056
▁gemisi	-11.0563
▁goz	-11.0571
▁bakterilerin	-11.0572
▁katılıyor	-11.0572
▁tuş	-11.0579
▁yüzleşme	-11.0581
▁azalıyor	-11.0582
pek	-11.0586
▁led	-11.0597
▁silahlar	-11.0597
▁sokaklarda	-11.0602
▁seçtik	-11.0603
umuzu	-11.0609
▁peri	-11.0616
▁kalitesini	-11.0618
▁kaybeder	-11.062
▁tabu	-11.0628
▁özünü	-11.0629
▁esasın	-11.063
▁goru	-11.0636
▁antarktika	-11.0639
▁acayip	-11.0639
▁atlantik	-11.0639
▁aykırı	-11.0639
▁enfekte	-11.0639
▁ingilis	-11.0639
▁interaktif	-11.0639
▁sipariş	-11.0639
▁təşəkkür	-11.0639
▁umuyoruz	-11.0639
▁cinayet	-11.0639
▁prensibi	-11.0639
seksüel	-11.0639
▁rakip	-11.0639
▁klip	-11.0639
▁şempanze	-11.0639
▁beşinci	-11.0639
▁husus	-11.0639
▁mekaniği	-11.0641
▁vurgu	-11.0642
▁sürət	-11.0643
▁direnci	-11.0643
▁tanımlay	-11.0643
▁ritim	-11.0644
▁anayasa	-11.0648
▁öğrendikleri	-11.0655
▁verilmiş	-11.0655
▁düzine	-11.0659
▁duvarları	-11.0662
layacağız	-11.0664
▁liman	-11.0664
▁anahtarı	-11.0666
▁hayatınızda	-11.0667
layabilecek	-11.0667
▁çözülme	-11.0676
▁hük	-11.0676
▁tutarlı	-11.0682
▁kurumları	-11.0684
▁yöneten	-11.0685
▁ölçekli	-11.0687
▁gelis	-11.0692
▁kibar	-11.0692
▁yapabildiği	-11.0697
▁görecek	-11.0699
▁dalgalanma	-11.0701
▁endişeli	-11.0702
▁çabu	-11.071
▁ormanı	-11.072
ilmemiş	-11.0731
▁tanımlamak	-11.0747
▁öğretiyor	-11.0751
▁gerçekliğin	-11.0754
▁mekanizması	-11.0758
▁konuşuyordu	-11.0761
arası	-11.0778
▁karışımı	-11.0789
▁oluşma	-11.0789
▁odaklı	-11.0792
▁tadını	-11.0792
▁bıraktım	-11.0793
▁başlattık	-11.0799
▁çim	-11.0801
▁mürekkep	-11.0805
▁alıkoy	-11.0805
▁kombinasyon	-11.0805
▁müəllim	-11.0805
▁məlumat	-11.0805
▁dogru	-11.0805
▁ihlal	-11.0805
▁kliniğ	-11.0805
▁nəzər	-11.0805
▁düşünürsünüz	-11.0806
▁imge	-11.0806
▁editör	-11.0807
▁çene	-11.0807
▁plak	-11.0809
▁yürürken	-11.0812
▁diyebilirim	-11.0813
▁2001	-11.0816
▁məh	-11.0816
▁kadin	-11.0816
▁tema	-11.0821
▁uzayın	-11.0824
▁politikacı	-11.0827
▁savaşçı	-11.0828
▁alabiliyor	-11.0828
▁yakalamak	-11.0831
▁yatırımcılar	-11.0831
▁sanatsal	-11.0833
▁şeffaflık	-11.0835
▁dışkı	-11.0835
▁belirlen	-11.0837
▁yaşıyorum	-11.0845
▁uzaklıkta	-11.0845
▁çalı	-11.0851
▁bilmiyorduk	-11.0854
▁eğitil	-11.086
▁söylüyordu	-11.0863
▁koşma	-11.0863
▁ulaştık	-11.0863
▁yaşandı	-11.0864
▁kaçınma	-11.0865
▁kopar	-11.0869
▁gerçekleşmesi	-11.0869
▁ayrılmış	-11.0871
ılmamış	-11.0875
▁seçmek	-11.0876
▁durduru	-11.0877
▁durmak	-11.0882
▁teması	-11.0882
▁bitirme	-11.0884
▁hatırladı	-11.0886
▁destekliyor	-11.089
▁ilginçtir	-11.0894
▁geliştirdiği	-11.0903
▁özelliklerini	-11.0905
▁cevabını	-11.0917
abilmemiz	-11.0918
▁işlemci	-11.0919
▁almıştı	-11.0921
▁bell	-11.0922
▁satmak	-11.0929
digimiz	-11.0929
▁odasında	-11.0932
▁herbiri	-11.0934
▁yiyecekleri	-11.0938
bilim	-11.095
▁dürtü	-11.0963
▁firması	-11.0966
▁arjantin	-11.0975
▁coğrafya	-11.0975
▁enjekt	-11.0975
▁kuyruğu	-11.0975
▁spektrum	-11.0975
▁volkan	-11.0975
▁wikipedia	-11.0975
▁entropi	-11.0975
▁mağdur	-11.0975
▁tsunami	-11.0975
▁tweet	-11.0975
▁uzaq	-11.0975
▁timsah	-11.0975
▁sistematik	-11.0975
▁galib	-11.0975
▁green	-11.0975
▁çiğ	-11.0975
▁takıntı	-11.0975
▁sakat	-11.0978
▁romantik	-11.098
▁ortamında	-11.098
▁artırma	-11.0984
▁olalım	-11.0985
▁tutuklan	-11.0996
▁kirlet	-11.0997
▁yapabilecekleri	-11.1001
▁havuz	-11.1002
▁beyne	-11.1004
▁açıklıyor	-11.1005
▁getirip	-11.1006
▁planet	-11.1007
▁kaybettik	-11.1007
▁düşmüş	-11.101
▁dikkatinizi	-11.1012
▁yayılma	-11.1014
▁körfezi	-11.1015
▁üzül	-11.1015
▁götürme	-11.1017
▁deyin	-11.1018
leyebiliriz	-11.1021
▁vir	-11.1021
▁etiketi	-11.1026
▁1980'	-11.1028
▁kaldırım	-11.1029
leştirir	-11.1032
▁geliştirmeye	-11.1034
halde	-11.1039
▁çalan	-11.1041
kaide	-11.1044
▁diyebilir	-11.1046
▁söylerdi	-11.1046
laşması	-11.1048
▁eklem	-11.1054
▁özünde	-11.1056
▁kullanmıyor	-11.1057
▁bedenim	-11.1067
taşı	-11.1067
▁direnç	-11.1077
▁ülkelerdeki	-11.1078
ebiliyordu	-11.1088
▁başkasının	-11.1089
▁düşündüğümüzde	-11.1094
▁atlama	-11.1104
▁fakirlik	-11.1106
▁örgü	-11.1107
▁kalbim	-11.1115
low	-11.1118
▁edildiğini	-11.1122
▁yarattığımız	-11.1123
▁götürmek	-11.1124
▁sihir	-11.1125
▁filmini	-11.1125
▁alırsa	-11.1126
▁girmiş	-11.1128
▁göstergesi	-11.1133
▁muhafaza	-11.1134
▁insanoğlunu	-11.1138
▁hapiste	-11.1147
▁cambridge	-11.1147
▁florida	-11.1147
▁ispanya	-11.1147
▁kristal	-11.1147
▁oksitosin	-11.1147
▁origami	-11.1147
▁primat	-11.1147
▁süpermarket	-11.1147
▁vietnam	-11.1147
▁öldürücü	-11.1147
▁meslektaşım	-11.1147
▁ampul	-11.1147
▁yozlaşma	-11.1147
▁doğuştan	-11.1147
▁irade	-11.1148
▁aktiv	-11.1148
▁açılış	-11.1148
▁gezgin	-11.1149
▁arayışı	-11.1149
▁gereksinim	-11.1149
▁ikon	-11.115
▁kuvvetleri	-11.1152
▁hekim	-11.116
▁kabiliyet	-11.1161
▁newton	-11.1162
▁mümkündür	-11.1167
▁buralarda	-11.1171
▁çocuğunu	-11.1177
▁sakın	-11.1179
▁alıyorsunuz	-11.1181
▁tükenmiş	-11.1186
▁bakıcı	-11.1189
▁mobilya	-11.1192
▁hatırlatıyor	-11.1194
▁atlet	-11.1195
▁ilgisini	-11.1196
▁işitme	-11.1198
▁kalanını	-11.1202
▁norm	-11.1205
well	-11.1206
▁tuna	-11.1211
ebildiğimiz	-11.1216
▁oranla	-11.122
▁artması	-11.122
ərək	-11.1227
▁servisi	-11.1235
▁başarama	-11.1239
▁hayatlarında	-11.124
▁duvarlar	-11.1241
▁gömülü	-11.1245
▁baktığımız	-11.1245
▁kafamda	-11.1246
▁arkadaşlarımız	-11.1246
▁erkeğin	-11.1247
▁arkamda	-11.125
▁mülteciler	-11.1255
▁red	-11.1255
▁endişelenme	-11.1255
▁salonda	-11.1256
▁üretmeye	-11.1258
▁davranıyor	-11.1259
▁toplumlarda	-11.1263
▁maka	-11.1263
▁renkte	-11.127
▁biç	-11.1271
▁kainatın	-11.1274
▁zenginlik	-11.1278
▁lisede	-11.1279
▁gəldi	-11.1284
▁idam	-11.1287
▁çektik	-11.1292
ville	-11.1293
▁çapta	-11.1297
▁tərəf	-11.1299
▁kazandığı	-11.1304
▁ağlama	-11.1304
▁diren	-11.1308
▁bəlkə	-11.1323
▁efekt	-11.1323
▁filozof	-11.1323
▁istismar	-11.1323
▁klavye	-11.1323
▁röntgen	-11.1323
▁zanned	-11.1323
▁personel	-11.1323
▁haricinde	-11.1323
▁otoyol	-11.1323
▁pamuk	-11.1323
▁görülebilir	-11.1323
▁büyükbabam	-11.1323
▁patern	-11.1324
▁gününde	-11.1324
▁okuyucu	-11.1324
▁zafer	-11.1324
▁goster	-11.1325
▁tümörü	-11.1326
▁duymuşsunuz	-11.1326
▁evliliği	-11.1327
▁nick	-11.1329
▁lens	-11.1329
▁niyə	-11.133
▁diger	-11.1331
▁izah	-11.1331
▁çimen	-11.1335
▁məncə	-11.1337
▁yaparım	-11.1344
▁enzim	-11.1344
▁val	-11.1344
▁gözüken	-11.1349
▁şuradaki	-11.135
▁uzanan	-11.1353
ugh	-11.1355
▁jeo	-11.1358
▁ölçüsü	-11.1366
▁müdürü	-11.137
▁edilecek	-11.137
▁açıklaması	-11.1371
▁akımı	-11.1372
▁yuvarla	-11.1372
▁gidiyorum	-11.1376
▁harcadığı	-11.1378
▁sokma	-11.138
▁olamayacağı	-11.1386
burg	-11.1389
▁kanunu	-11.1391
lendiğini	-11.1391
▁sevdim	-11.1392
▁bahsedil	-11.1396
▁gözükme	-11.1399
▁astronomi	-11.14
▁salgının	-11.1401
▁tasarımcıları	-11.1402
▁görebileceği	-11.1416
sever	-11.1423
▁ekonomist	-11.1431
▁sunma	-11.1432
▁2008	-11.1439
▁eşitliği	-11.145
▁baktığınız	-11.1453
▁akan	-11.1465
▁kaynakların	-11.1468
▁parçacık	-11.1469
▁gittiğim	-11.147
▁temizle	-11.1472
▁edeceğimiz	-11.1482
▁gülümse	-11.1482
▁carl	-11.1485
▁dünyasının	-11.1488
▁patlaması	-11.1497
▁modül	-11.1497
▁193	-11.1498
▁taliban	-11.1501
▁astronot	-11.1501
▁bambaşka	-11.1501
▁bənzə	-11.1501
▁hemfikir	-11.1501
▁ufacık	-11.1501
▁fırça	-11.1501
▁maraqlı	-11.1501
▁süpür	-11.1501
▁sahra	-11.1501
▁servet	-11.1501
▁brown	-11.1501
▁işıq	-11.1502
▁ödüyor	-11.1502
▁garaj	-11.1502
▁etnik	-11.1502
▁şubat	-11.1502
▁lego	-11.1503
▁jeff	-11.1503
▁otuz	-11.1504
▁ekonomistler	-11.1507
▁beklenen	-11.1507
▁2050	-11.1507
▁oynadığı	-11.1508
▁fren	-11.1511
▁görelim	-11.1513
▁bulunmaktadır	-11.1519
▁gülümseme	-11.152
▁savaşmak	-11.1521
▁eğilimi	-11.1522
▁yapıyorsun	-11.1523
▁surat	-11.1523
▁söylendi	-11.1526
▁birsey	-11.1533
▁değiştirerek	-11.1533
▁ilgilendiği	-11.1538
▁yorker	-11.1539
▁uğramış	-11.1539
▁oluşu	-11.1547
bilecek	-11.1549
▁rahatlık	-11.1552
▁karım	-11.1554
▁gücümüz	-11.1559
▁bulunduğunu	-11.1561
▁tabiat	-11.1563
▁başarmak	-11.1565
▁eyaleti	-11.1571
▁emeklilik	-11.1574
▁yayılıyor	-11.1574
▁monte	-11.1575
▁altta	-11.1577
▁metrelik	-11.1578
▁seviyesini	-11.1579
▁real	-11.1579
▁döndürü	-11.1588
▁farklılıkları	-11.1588
▁üstlen	-11.1605
▁ettiklerini	-11.1606
▁teknolojisini	-11.1607
▁düşünürdü	-11.1612
▁anlaşılması	-11.1613
▁salgını	-11.1614
diklerinde	-11.1617
▁kabullen	-11.1617
▁sunumu	-11.1621
▁hisleri	-11.1629
▁yapacağınız	-11.163
laştırıyor	-11.1636
layacağım	-11.164
▁kaydedil	-11.1644
▁gerçekleştirdi	-11.1645
▁statü	-11.1653
▁dönüşü	-11.1653
▁evsiz	-11.1657
▁tanımladı	-11.1659
▁vermez	-11.1659
▁almamız	-11.1663
▁yıkım	-11.1665
▁girdik	-11.1668
▁bilgilendir	-11.1671
termal	-11.168
▁biləcəyi	-11.1683
▁dəqiq	-11.1683
▁gates	-11.1683
▁illüzyon	-11.1683
▁istihdam	-11.1683
▁mövcud	-11.1683
▁mövzu	-11.1683
▁vasıtası	-11.1683
▁konsantr	-11.1683
▁tahıl	-11.1683
▁manşet	-11.1683
▁yırtıcı	-11.1684
▁general	-11.1684
▁kurşun	-11.1684
▁pekâl	-11.1685
▁hayırsever	-11.1685
▁logo	-11.1688
▁görünmeyen	-11.1689
▁istiyorsa	-11.1689
▁kodlama	-11.1689
ləmə	-11.1689
▁sahib	-11.169
▁kavramsal	-11.169
▁hasat	-11.169
▁soktu	-11.1691
▁etrafımızdaki	-11.1692
▁niha	-11.1694
▁yatay	-11.1695
▁elimi	-11.1696
▁karşılama	-11.1698
▁mineral	-11.1699
▁mesafede	-11.1713
▁suçlama	-11.172
▁yetenekler	-11.1722
▁yapısal	-11.1727
▁çalışmış	-11.1729
▁anıt	-11.1733
▁giyme	-11.1733
▁bilmez	-11.1736
▁lezzetli	-11.1736
kâr	-11.1748
▁dağları	-11.175
▁post	-11.1755
▁eşleş	-11.177
▁800	-11.1773
rək	-11.1774
▁çoğunluk	-11.1777
▁vücud	-11.1777
▁profesörü	-11.1778
▁sütun	-11.1782
▁paylaştığı	-11.1788
▁ped	-11.1796
▁oluşması	-11.1802
▁ölçmek	-11.1811
▁jet	-11.1828
▁harcadık	-11.1831
▁fərq	-11.1838
▁verebil	-11.1838
▁koleksiyonu	-11.1844
▁arayüzü	-11.1852
▁edeceğiniz	-11.1857
▁gelirse	-11.1862
▁basladi	-11.1863
▁başbakan	-11.1868
▁beyefendi	-11.1868
▁diplomat	-11.1868
▁eşdeğer	-11.1868
▁inkişaf	-11.1868
▁microsoft	-11.1868
▁misafir	-11.1868
▁pantolon	-11.1868
▁piramid	-11.1868
▁semptom	-11.1868
▁doğaçlama	-11.1868
▁numune	-11.1868
▁fatura	-11.1868
▁avuç	-11.1868
▁ruanda	-11.1868
▁nelson	-11.1869
▁makul	-11.1869
▁oralarda	-11.1871
▁gülüyor	-11.1872
▁dindar	-11.1872
▁öğe	-11.1875
▁küçült	-11.1875
▁güdü	-11.1878
▁insanoğlu	-11.1879
▁bekledi	-11.1881
▁rahatlat	-11.1882
laşan	-11.1883
▁oluştuğunu	-11.1884
▁kullanılmış	-11.1887
▁konuşuyorum	-11.1889
▁alev	-11.189
▁konuşuyoruz	-11.1892
▁koleksiyon	-11.1892
▁sözünü	-11.1894
▁hissettikleri	-11.1897
▁balonu	-11.1899
▁kemikleri	-11.1908
▁edebilirim	-11.1909
▁bağlanma	-11.1909
▁işçileri	-11.1909
▁yükseldi	-11.1912
▁şəkil	-11.1913
▁inandığım	-11.1915
▁ilerlet	-11.1917
mazdı	-11.1918
▁konusunu	-11.192
▁faktörler	-11.1924
▁bilerek	-11.1925
▁bulmamız	-11.1927
▁etmenizi	-11.1931
▁aklınızda	-11.1932
▁hevesli	-11.1934
▁değiştirdiği	-11.1934
▁ayıran	-11.1942
▁durduğu	-11.1943
▁kullanabil	-11.1944
▁belirtileri	-11.1945
▁ço	-11.1956
▁paylaşım	-11.1958
▁kampanyası	-11.1961
▁kullandığınız	-11.1964
▁ekranın	-11.1967
▁yönlendirme	-11.1971
▁yetiştiril	-11.1973
▁buluştu	-11.1978
iyyət	-11.1981
▁yaklaşıyor	-11.1986
▁dönüştürdü	-11.1986
▁kaydır	-11.1989
leştiril	-11.1996
▁yarasa	-11.2
▁gözlerinizi	-11.2008
▁bağlılık	-11.2009
▁dünyamızda	-11.2018
▁görmediği	-11.2019
▁uni	-11.2024
▁çoğunda	-11.2026
▁evrimleş	-11.2031
▁kader	-11.2034
▁kümesi	-11.2035
▁ölçme	-11.2036
▁duruyordu	-11.2037
▁kulübe	-11.2057
▁müddət	-11.2057
▁omurga	-11.2057
▁omurilik	-11.2057
▁talimat	-11.2057
▁əhəmiyyət	-11.2057
▁turuncu	-11.2057
▁şarj	-11.2057
▁obezite	-11.2057
▁talebi	-11.2057
▁tasvir	-11.2057
▁izole	-11.2057
▁delhi	-11.2057
▁kupa	-11.2057
▁ivme	-11.2058
▁olmaksızın	-11.2058
▁sahə	-11.2058
▁solunum	-11.2058
▁samimi	-11.2059
▁azınlık	-11.206
▁bayrak	-11.206
▁denetim	-11.206
▁2020	-11.2062
▁dışarda	-11.2062
▁yoxdur	-11.2065
▁lanet	-11.2067
▁kütlesi	-11.2068
▁düşünmeliyiz	-11.2069
▁bilmiyordu	-11.207
▁çevirir	-11.2072
▁söyleyebiliriz	-11.2073
▁karanlıkta	-11.2075
▁araştırdı	-11.2076
▁kalça	-11.2082
▁cezası	-11.2087
▁kaybeden	-11.2089
▁çoğalt	-11.2089
▁aldat	-11.2093
▁29	-11.21
▁oluşturacak	-11.21
▁verilme	-11.2105
▁benzersiz	-11.2105
▁kazanır	-11.2105
▁ayarlama	-11.2107
▁eleştir	-11.2107
▁bakıyordu	-11.2108
▁dayanan	-11.2116
▁kolon	-11.2119
▁odasına	-11.2124
▁çevrili	-11.2125
▁kanunları	-11.2128
▁hır	-11.2128
▁gömül	-11.213
olo	-11.213
▁ortaklık	-11.2133
▁mag	-11.2138
▁jh	-11.2144
▁seçenekleri	-11.2148
▁yakınında	-11.215
▁çaldı	-11.2156
▁gitmiyor	-11.2157
işini	-11.2162
▁ışığ	-11.2162
▁gittiğinde	-11.2165
▁çözdü	-11.2167
▁gördüğünde	-11.2174
▁temelinde	-11.2182
▁laf	-11.219
lendiriyor	-11.22
▁belirsizlik	-11.2202
▁açısını	-11.2202
▁sosyo	-11.2203
▁çarpış	-11.2209
▁önerme	-11.2212
▁askerleri	-11.2213
▁söylemiş	-11.2218
▁tony	-11.2219
▁tasarrufu	-11.2221
▁belirtmek	-11.2228
▁detayları	-11.2229
▁192	-11.2238
▁çıkabilir	-11.2239
▁teşkil	-11.2249
▁charlie	-11.2249
▁mahremiyet	-11.2249
▁norveç	-11.2249
▁soykırım	-11.2249
▁spesifik	-11.2249
▁püskür	-11.2249
▁sponsor	-11.2249
▁teyze	-11.2249
▁xəbər	-11.2249
▁berlin	-11.2249
▁diyabet	-11.2249
▁görülür	-11.2249
▁ritüel	-11.2249
▁baloncuk	-11.2249
▁metropol	-11.2249
▁taciz	-11.225
▁muhafazakar	-11.2251
▁kömək	-11.2251
▁kolej	-11.2251
▁gələn	-11.2251
▁saturn	-11.2252
▁uzlaşma	-11.2252
▁arapça	-11.2253
▁jack	-11.2255
▁avantajı	-11.2257
▁seçilmiş	-11.2259
▁uçu	-11.226
▁lobi	-11.226
▁yetmez	-11.2265
▁çözünürlük	-11.2267
▁gelişiyor	-11.2268
▁kültürünü	-11.2269
▁cd	-11.2271
▁yanınızda	-11.2272
▁bilərik	-11.2274
▁geleneği	-11.2275
▁yürüyen	-11.2277
▁fbi	-11.2277
▁şili	-11.2283
▁gəlmə	-11.2288
▁aşma	-11.2295
▁çarptı	-11.2298
▁bulunabilir	-11.23
▁dus	-11.2302
▁oğlunu	-11.2303
▁karısı	-11.2305
▁aydınlanma	-11.2308
▁bulabileceği	-11.2319
▁şema	-11.232
▁kütüphanesi	-11.2324
▁evlerinde	-11.2326
▁kılıyor	-11.2326
▁jane	-11.2328
▁devir	-11.2329
▁ameliyatı	-11.235
▁asal	-11.2352
▁sıçrama	-11.2352
▁düzensiz	-11.236
▁dansı	-11.2363
▁uyuyor	-11.2363
▁görüldü	-11.2367
▁yarasalar	-11.2368
▁kartları	-11.2369
▁yaklaştığı	-11.2375
▁bilmediğimiz	-11.2385
▁işlediğini	-11.2401
▁ölçer	-11.2428
▁mühendisleri	-11.2428
▁kuşların	-11.2432
lock	-11.2432
▁yetisi	-11.2433
▁güldü	-11.2441
▁döndüğüm	-11.2442
▁göründüğünü	-11.2442
▁barışı	-11.2445
▁halüsinasyon	-11.2445
▁kasırga	-11.2445
▁national	-11.2445
▁asansör	-11.2445
▁mecbur	-11.2445
▁protokol	-11.2445
▁teleskobu	-11.2445
▁ipucu	-11.2445
▁parkinson	-11.2445
▁nötr	-11.2445
▁çırp	-11.2445
▁havaalanı	-11.2445
▁moore	-11.2445
▁borsa	-11.2445
▁düşünüp	-11.2445
▁dəyişdi	-11.2445
▁küçümse	-11.2446
▁defter	-11.2446
▁üzerlerin	-11.2446
▁kapsaya	-11.2446
▁ipod	-11.2447
▁hassasiyet	-11.2448
▁yatkın	-11.2449
▁mülk	-11.2449
▁süzül	-11.2449
▁vurul	-11.245
▁artar	-11.2451
▁önlemek	-11.2456
▁sorabilirsiniz	-11.2461
▁bandı	-11.2462
▁1.000	-11.2464
▁destekçi	-11.2465
▁sualtı	-11.2468
▁west	-11.2475
▁ulaşı	-11.2478
▁gösterge	-11.2481
12	-11.2482
▁tw	-11.2484
▁anlayabilmek	-11.2484
▁isteriz	-11.2486
abilsin	-11.2489
mişsinizdir	-11.2493
▁payı	-11.2495
▁savunmasız	-11.2497
▁yaşlarda	-11.2505
▁sevdi	-11.252
▁kavra	-11.252
▁yürüt	-11.2525
▁dönüşümü	-11.2526
▁anlaşıldı	-11.2531
ebiliyorsunuz	-11.2531
▁uçuşu	-11.2538
▁kalkış	-11.2544
▁dörd	-11.2548
▁olanağı	-11.2552
▁tükenme	-11.2557
▁getireceği	-11.2564
▁oğlumu	-11.2564
▁akar	-11.2582
▁heves	-11.2585
▁anlatacak	-11.2588
▁kölelik	-11.2594
▁avlanma	-11.2599
▁hamı	-11.2605
▁tart	-11.2605
▁başlaması	-11.2605
larinda	-11.2611
hh	-11.2617
▁doldurma	-11.2619
▁şanslıydı	-11.262
▁oluştuğu	-11.263
▁tahri	-11.263
▁uzunluğu	-11.2642
▁üzgün	-11.2645
▁növ	-11.2645
▁etiyopya	-11.2645
▁fevkalade	-11.2645
▁hiyerarşi	-11.2645
▁psikiyatri	-11.2645
▁tişört	-11.2645
▁şizofreni	-11.2645
▁sızıntı	-11.2645
▁təşkil	-11.2645
▁tercüme	-11.2645
▁manevi	-11.2645
▁razı	-11.2646
▁kabuğu	-11.2646
▁gayret	-11.2646
▁gütmeye	-11.2646
▁nerdeyse	-11.2647
▁genişliğinde	-11.2647
▁uçakta	-11.2647
▁bozucu	-11.2649
▁kurabil	-11.2649
▁öldürüyor	-11.2649
▁bayılıyorum	-11.265
▁dönüştürüyor	-11.265
▁haberdar	-11.2651
▁hapis	-11.2652
▁sezgisel	-11.2653
▁çiftleşme	-11.2654
▁mühim	-11.2654
▁dilerim	-11.2655
▁mayıs	-11.2655
▁uygulanabilir	-11.2655
▁panik	-11.2656
▁organı	-11.2657
▁harcıyoruz	-11.2657
▁bilgeliğ	-11.2658
▁genetiği	-11.2659
yacaksınız	-11.2662
▁bang	-11.2664
▁sözleşme	-11.2664
▁denekler	-11.2667
▁super	-11.267
▁gerekçe	-11.267
▁giderseniz	-11.267
▁halled	-11.267
▁çoğumuzun	-11.2671
▁ilerler	-11.2674
▁alttaki	-11.2674
▁sağır	-11.2675
▁ilgilenmeye	-11.268
▁bölme	-11.2681
▁çayır	-11.2682
▁ayakkabıları	-11.2682
▁nsa	-11.2694
▁pano	-11.2695
▁uzerinde	-11.2697
▁tanımlıyor	-11.2701
▁karanlığ	-11.2702
▁topladığı	-11.2713
laşdı	-11.2723
▁yemeğ	-11.273
▁yayınlandı	-11.2731
▁başlaya	-11.2732
▁gitmişti	-11.274
▁duyulma	-11.2745
▁yaptığında	-11.2747
lendirdi	-11.2748
▁cevaplama	-11.2752
▁şə	-11.2752
▁kavramını	-11.2752
▁yükselişi	-11.276
▁kullanıcıları	-11.2761
▁yayınlama	-11.2762
▁olmazsa	-11.2763
▁yürür	-11.2769
▁iniyor	-11.2772
▁okullarda	-11.2779
▁yolumuz	-11.2787
▁yapsa	-11.2794
▁ulaşır	-11.2795
▁görüştü	-11.2795
▁istekleri	-11.2801
▁raporu	-11.281
▁bağlıyor	-11.2823
▁değerinde	-11.2823
▁büyülü	-11.2829
▁diyorsunuz	-11.2832
▁uçakları	-11.2835
▁depolama	-11.2844
landırılmış	-11.2846
▁levha	-11.2849
▁örüntü	-11.2849
▁ehtiyac	-11.2849
▁nöqtə	-11.2849
▁xəstə	-11.2849
▁çorba	-11.2849
▁şampiyon	-11.2849
▁həmişə	-11.2849
▁çiçeğ	-11.2849
▁klişe	-11.2849
▁sekoya	-11.2849
▁snow	-11.2849
▁təbii	-11.2849
▁yedek	-11.285
▁niyetli	-11.285
▁ooh	-11.285
▁stasi	-11.285
▁yaralanma	-11.2852
▁barbar	-11.2852
▁yaşlandık	-11.2852
▁brad	-11.2858
▁adaptasyon	-11.286
▁içgüdü	-11.2861
▁saçı	-11.2861
▁tanıdığım	-11.2861
▁seviyoruz	-11.2878
kav	-11.2885
▁zarf	-11.2886
▁görmekte	-11.289
▁sürüklen	-11.2895
▁takılı	-11.2895
▁gerçekleşir	-11.29
▁kaplama	-11.2901
▁olacağımız	-11.2901
▁verimlilik	-11.2902
▁seven	-11.2918
▁vurdu	-11.2919
▁enerjisini	-11.2921
▁anladığım	-11.293
▁geldiklerinde	-11.2932
▁değiştiği	-11.2949
▁format	-11.2975
▁sıralama	-11.298
▁dayanır	-11.298
▁rand	-11.2984
▁gezegenimizi	-11.2993
▁vuruş	-11.2998
maktansa	-11.3001
▁şarkıcı	-11.3008
▁salınım	-11.3012
▁koruyor	-11.3021
▁isimlerini	-11.3027
▁madenci	-11.3028
▁katar	-11.3029
▁şekl	-11.303
▁sürdürme	-11.303
▁gölü	-11.3031
▁makinası	-11.3034
▁ətraf	-11.3045
landığında	-11.3045
▁yönleri	-11.3048
▁olmamalı	-11.305
▁argüman	-11.3058
▁beyzbol	-11.3058
▁füzyon	-11.3058
▁hoparlör	-11.3058
▁ihtiyar	-11.3058
▁seattle	-11.3058
▁singapur	-11.3058
▁slogan	-11.3058
▁zavallı	-11.3058
▁çizelge	-11.3058
▁tələb	-11.3058
▁uyguluyor	-11.3058
▁meyilli	-11.3058
▁henry	-11.3058
▁vacib	-11.3058
▁piksel	-11.3058
▁öğüt	-11.3058
▁alex	-11.3058
▁anlarsınız	-11.3058
▁sicim	-11.3059
▁lester	-11.3059
▁julia	-11.3061
▁seçkin	-11.3062
▁hesab	-11.3062
▁cephe	-11.3062
▁başımıza	-11.3063
▁konuşmuyor	-11.3063
▁etkileyecek	-11.3063
▁bağlanmış	-11.3065
▁duş	-11.3066
▁cikar	-11.3067
▁başkent	-11.3067
▁kamusal	-11.3068
yahut	-11.3069
▁bilmeyen	-11.307
▁kafes	-11.3071
▁donat	-11.3076
▁düşünürüz	-11.3076
▁moral	-11.3078
▁beklentileri	-11.3078
▁edebileceğimiz	-11.3083
▁tanımlayan	-11.3084
▁şüpheci	-11.3089
▁çevresindeki	-11.309
▁hayranı	-11.3097
▁götüren	-11.3097
▁taşınma	-11.3101
▁ayırdı	-11.3115
,3	-11.3118
▁koyuldu	-11.3118
▁sonuncusu	-11.3131
▁şehirlerimiz	-11.3137
▁başlangıcında	-11.3144
▁yapılabil	-11.3148
▁ulaşan	-11.3155
çeşitli	-11.3159
▁düştüğü	-11.3163
▁koç	-11.3165
▁etmediği	-11.3166
▁yaramıyor	-11.3171
▁yemin	-11.3181
rick	-11.3189
▁versiyonunu	-11.3189
▁buralar	-11.3197
▁hemşireler	-11.3199
▁yolladı	-11.3212
▁çiftliği	-11.3212
▁yaşayabil	-11.3218
▁işiniz	-11.3225
▁inme	-11.3226
▁edeceğini	-11.3249
▁sıralarda	-11.3249
▁burs	-11.3254
▁özetle	-11.3256
▁zu	-11.3257
▁demokrat	-11.3267
▁qeyri	-11.327
▁ansiklopedi	-11.327
▁ağustos	-11.327
▁böbrek	-11.327
▁edebiyat	-11.327
▁implant	-11.327
▁iğrenç	-11.327
▁kaplumbağa	-11.327
▁pizza	-11.327
▁çekirdeği	-11.327
▁bangladeş	-11.327
▁bronx	-11.327
▁ipuçları	-11.327
▁prostat	-11.327
▁qəbul	-11.327
▁tuğla	-11.327
▁təxmin	-11.327
▁watson	-11.327
▁irlanda	-11.3271
▁israf	-11.3271
▁şeridi	-11.3271
▁coşku	-11.3271
▁uyğun	-11.3271
▁detroit	-11.3271
▁kucuk	-11.3271
▁karides	-11.3271
▁sansür	-11.3271
▁enkaz	-11.3271
▁sıçan	-11.3271
▁mucit	-11.3271
▁kevin	-11.3271
▁brian	-11.3271
▁ritmi	-11.3271
▁masaüstü	-11.3272
▁gümüş	-11.3274
▁2015	-11.3274
▁zihniyet	-11.3275
▁yapılabilecek	-11.3276
▁başlamalıyız	-11.3278
▁ölçtü	-11.3278
▁turist	-11.3281
▁adlandırdığımız	-11.3286
▁42	-11.3286
▁yapılacağın	-11.3287
▁düşündüğünü	-11.3288
▁48	-11.329
▁bükül	-11.3291
▁nazi	-11.3302
▁sığır	-11.3304
▁getirerek	-11.3307
▁ağac	-11.3313
▁85	-11.3314
▁dönecek	-11.3322
▁keçir	-11.3323
▁seçiyor	-11.3324
▁44	-11.3326
▁dönmüş	-11.3326
▁yeteneklerini	-11.3329
▁gitar	-11.3332
▁gercek	-11.3334
▁ayrımı	-11.3346
▁boyutunda	-11.3346
▁vaad	-11.3355
bilseydik	-11.3357
▁tuttur	-11.3361
▁mantıksız	-11.3362
▁görüyordu	-11.3364
▁katılan	-11.3377
▁ortağı	-11.3377
▁kuruldu	-11.338
▁taktı	-11.3383
▁maliyetini	-11.3392
▁oluşturabilir	-11.3393
▁ayaklanma	-11.3397
▁başını	-11.3399
lamazsınız	-11.3401
▁paylaşacağım	-11.3406
▁ettiğinde	-11.3412
▁modelleme	-11.3422
▁dö	-11.3429
▁ekliyor	-11.3435
▁başarmış	-11.3439
▁oyuncuları	-11.3451
▁bakmayı	-11.3455
▁kavuştu	-11.3474
▁sembolü	-11.3476
▁yüklü	-11.3482
▁kəşf	-11.3488
▁mektubu	-11.3488
▁mutfağ	-11.3488
▁texnologiya	-11.3488
▁veritabanı	-11.3488
▁yerçekimi	-11.3488
▁grönland	-11.3488
▁muhammed	-11.3488
▁tansiyon	-11.3488
▁çeyrek	-11.3488
▁albüm	-11.3488
▁bruno	-11.3488
▁pardon	-11.3488
▁sağduyu	-11.3488
▁website	-11.3488
▁ulke	-11.3488
▁somali	-11.3488
▁şirin	-11.3488
▁qərar	-11.3488
▁buğday	-11.3488
▁tayf	-11.3488
▁bizzat	-11.3488
▁alıştırma	-11.3488
▁ümid	-11.3489
▁çete	-11.349
▁icadı	-11.349
▁city	-11.349
▁memnuniyet	-11.3491
▁gittiğinizde	-11.3491
▁yaptigi	-11.3491
▁jeoloji	-11.3491
▁cesaretlendir	-11.3492
▁komedi	-11.3493
▁işığı	-11.3493
▁istiyorsun	-11.3494
▁uçar	-11.3496
▁hanım	-11.3498
▁yönlü	-11.3499
▁birleşimi	-11.3503
▁yaradığını	-11.3505
▁duyulan	-11.3508
▁peru	-11.3528
▁saklay	-11.3528
bilirdiniz	-11.3529
▁atlayı	-11.3533
▁verebilecek	-11.3535
▁ladin	-11.3539
▁okuyan	-11.3541
▁çıkmıştı	-11.3546
▁fonu	-11.3547
▁versiyon	-11.3551
▁donu	-11.3553
▁konuştuğu	-11.3555
lenecek	-11.3558
▁kuyu	-11.356
▁kaybolma	-11.357
▁yatakta	-11.357
▁saçmalık	-11.3572
▁karşılaşıyor	-11.3573
▁gerçekleştirme	-11.3575
▁dirençli	-11.3581
▁büyümüş	-11.3584
▁kaşı	-11.3585
▁sıçra	-11.3592
hayır	-11.3599
▁çıkışı	-11.3601
▁verimliliği	-11.3602
▁etkileş	-11.3603
▁engelleri	-11.3607
row	-11.3609
▁uğraştığı	-11.3613
▁değişmesi	-11.3622
▁anlaşılır	-11.3628
▁mimarlık	-11.363
▁şansınız	-11.3631
▁350	-11.3632
▁hans	-11.3637
▁kayma	-11.3644
▁tabakası	-11.3645
▁fırla	-11.3659
▁dikil	-11.3662
▁verilir	-11.3664
▁sorusunu	-11.3679
▁düşünmüş	-11.3684
▁hamısı	-11.3684
amıyordum	-11.3693
▁kaynaş	-11.3696
▁kanıtlama	-11.3699
▁toprağ	-11.3705
▁cumhuriyet	-11.3708
▁apollo	-11.371
▁cehennem	-11.371
▁cenaze	-11.371
▁embriyo	-11.371
▁iskoç	-11.371
▁rəqəm	-11.371
▁trafiği	-11.371
▁təsəvvür	-11.371
▁ürkütücü	-11.371
▁randevu	-11.371
▁yüzgeç	-11.371
▁sadakat	-11.371
▁tasarim	-11.371
▁konseyi	-11.371
▁temmuz	-11.371
▁kondom	-11.371
▁zelanda	-11.371
▁xatırla	-11.371
▁qayda	-11.371
▁icra	-11.371
▁klon	-11.3711
▁metabolizma	-11.3711
▁türkiye	-11.3711
▁varolan	-11.3711
▁çadır	-11.3713
▁damga	-11.3713
▁sayılmaz	-11.3713
▁kayboluyor	-11.3714
▁gerçi	-11.3717
▁gürültülü	-11.3717
▁oğul	-11.3718
▁proses	-11.3718
▁safha	-11.3719
▁ilgilenir	-11.3722
▁neresi	-11.3722
▁vizyonu	-11.3729
▁bakılır	-11.3732
▁kənd	-11.3734
▁yaşadığınız	-11.3734
▁uzmanlık	-11.3735
▁faiz	-11.3744
▁leh	-11.3746
▁bulundukları	-11.3749
▁gitmemiz	-11.3753
▁ruhunu	-11.3761
▁filan	-11.3765
▁etrafımda	-11.3767
▁genc	-11.3772
▁aydınlatma	-11.3773
▁öldürüldü	-11.3773
▁çalışabilir	-11.3786
▁kurtardı	-11.3802
▁gördükleriniz	-11.3809
▁gökyüzünü	-11.3814
▁yenme	-11.3817
▁görürü	-11.3819
hücre	-11.3825
▁keşfedilme	-11.3832
▁rolünü	-11.3836
▁aid	-11.3839
▁değiştirmemiz	-11.3847
19	-11.3847
▁paylaştığımız	-11.3854
▁karalama	-11.3854
▁gönderir	-11.386
rdiniz	-11.386
▁dolaştı	-11.3868
▁satıyor	-11.3889
▁üzüm	-11.3889
▁haksız	-11.3892
oid	-11.3893
▁olamadı	-11.3896
▁kapattı	-11.3897
▁görünebilir	-11.3901
▁gözünde	-11.3928
▁mail	-11.393
▁düzeyinde	-11.3936
▁apartman	-11.3937
▁basketbol	-11.3937
▁fantastik	-11.3937
▁hawaii	-11.3937
▁kahvaltı	-11.3937
▁leonardo	-11.3937
▁memleket	-11.3937
▁montaj	-11.3937
▁nispet	-11.3937
▁proqram	-11.3937
▁santimetre	-11.3937
▁trajik	-11.3937
▁yelpaze	-11.3937
▁çığlık	-11.3937
▁buzdolabı	-11.3937
▁domates	-11.3937
▁pürüz	-11.3937
▁savunucu	-11.3937
▁yorucu	-11.3937
▁krater	-11.3937
▁fizyoloji	-11.3937
▁berber	-11.3937
▁yumru	-11.3937
▁tavır	-11.3938
▁köpekbalığı	-11.3938
▁leke	-11.3938
▁kukla	-11.3938
▁sperm	-11.3938
▁acele	-11.3938
▁mülkiyet	-11.3938
▁hatıra	-11.3938
▁hasıla	-11.3939
▁ilahi	-11.3943
▁aksiyon	-11.3944
▁yaradıcı	-11.3947
▁ortalıkta	-11.3949
▁kalıntıları	-11.3949
▁albert	-11.395
▁havalandırma	-11.3951
▁bulunması	-11.3951
▁edeceği	-11.3957
▁döl	-11.3957
▁görüşlü	-11.3958
▁penis	-11.3958
▁dergisinde	-11.3962
▁görselleştir	-11.3968
▁çıkardığımız	-11.3974
▁tamamiyl	-11.3977
▁gözümü	-11.3987
▁katıldığı	-11.3993
▁kaldığını	-11.3998
abildiğimiz	-11.3998
▁denetle	-11.3998
abildiğini	-11.4
▁arkadaşlarımı	-11.4005
▁gold	-11.4008
▁konuştuğunu	-11.4013
▁düşünürü	-11.4013
layabilirim	-11.4017
▁sektöründe	-11.403
▁dileğim	-11.4033
▁yönünü	-11.4037
▁bitiyor	-11.4041
saydınız	-11.4046
▁yürütü	-11.4047
▁kafamı	-11.405
▁yapmazsa	-11.4053
meyeceğiz	-11.4057
▁söylemedi	-11.4064
mişimdir	-11.407
▁yürütme	-11.4072
▁ulaşıyor	-11.4081
▁güvenme	-11.4081
▁şəkillər	-11.4088
▁kontrolünü	-11.4097
▁1980	-11.4098
▁öğretir	-11.4101
▁lezzet	-11.4103
▁çeviriyor	-11.4117
▁destekleme	-11.4125
▁paylaşımı	-11.4133
▁taşınabilir	-11.4148
▁biyosfer	-11.417
▁demografik	-11.417
▁ihmal	-11.417
▁itfaiye	-11.417
▁müfredat	-11.417
▁orjinal	-11.417
▁transistör	-11.417
▁diyagram	-11.417
▁dublör	-11.417
▁kütlə	-11.417
▁reaktör	-11.417
▁sarhoş	-11.417
▁tempo	-11.417
▁borcu	-11.417
▁plaj	-11.417
▁tunus	-11.417
▁avatar	-11.417
▁şəkli	-11.417
▁bayrağı	-11.417
▁olağandışı	-11.4171
▁teksas	-11.4171
▁ekmeği	-11.4172
▁sevil	-11.4172
▁ezber	-11.4173
▁erdem	-11.4173
▁döşe	-11.4173
▁blue	-11.4174
▁getmə	-11.4175
▁2030	-11.4175
▁uyumsuz	-11.4175
▁birçoğumuz	-11.4176
▁dönersek	-11.4176
▁ölümsüz	-11.4177
▁long	-11.4178
▁ulaşabilir	-11.4179
▁kademe	-11.418
▁yargıç	-11.418
▁mb	-11.4184
▁kullanıldığını	-11.4184
▁konuşalım	-11.4185
16	-11.4185
▁alışkın	-11.4189
▁feet	-11.4191
▁başlarsınız	-11.4193
▁hissəsi	-11.4194
▁deneyelim	-11.4194
▁bakmamız	-11.4195
▁görevlisi	-11.4198
ebilmemiz	-11.4199
▁keser	-11.4205
▁alabilme	-11.4213
▁öneriyor	-11.4213
▁yazmıştı	-11.4215
▁iskele	-11.4218
▁aradığımız	-11.4225
lməsi	-11.4229
▁tarafinda	-11.4232
▁genişletme	-11.4234
▁karışım	-11.4234
▁hırsız	-11.4248
▁körü	-11.4273
▁bahçesinde	-11.4283
▁yel	-11.4284
▁giyiyor	-11.4286
▁keşfettiğimiz	-11.4286
▁astronom	-11.4304
▁olmamızı	-11.4313
▁beyinlerimiz	-11.4321
▁hissediyorsunuz	-11.4322
▁uçağ	-11.4323
▁yorumlama	-11.4326
▁1.5	-11.4329
▁uğraştı	-11.435
▁180	-11.4367
▁planlıyor	-11.4385
▁2002	-11.4396
▁kıyısında	-11.4407
▁çevrim	-11.4408
▁tanzanya	-11.4408
▁danimarka	-11.4408
▁diktatör	-11.4408
▁geographic	-11.4408
▁hijyen	-11.4408
▁insülin	-11.4408
▁kıvrıl	-11.4408
▁mahrum	-11.4408
▁senkroniz	-11.4408
▁zahmet	-11.4408
▁disney	-11.4408
▁egemen	-11.4408
▁kriter	-11.4408
▁maldiv	-11.4408
▁palmiye	-11.4408
▁milimetre	-11.4408
▁yürek	-11.4408
▁rəng	-11.4408
▁tasarlıyor	-11.4408
▁bəs	-11.4408
▁oyuncağı	-11.4408
▁çıkıntı	-11.4408
▁isabet	-11.4409
▁esrar	-11.4409
▁gidişatı	-11.4409
▁rutin	-11.4409
▁mesleğ	-11.441
▁yorgun	-11.441
▁cumhuriyetçi	-11.441
▁bahsetmiyorum	-11.4413
▁söylemiyorum	-11.4414
▁yelken	-11.4414
▁bilinçsiz	-11.4419
▁sembolik	-11.4419
▁yapamazsınız	-11.4419
▁ziyan	-11.442
▁çekilen	-11.4422
space	-11.4425
▁yıkama	-11.4426
▁doluydu	-11.4428
▁çizer	-11.4428
▁uret	-11.443
▁mike	-11.4433
ləyir	-11.4435
▁canına	-11.4436
▁yansıtma	-11.4436
▁edemedi	-11.4446
leyeceğim	-11.4446
▁açıq	-11.4448
▁çözer	-11.4448
▁neresinde	-11.4453
▁açılan	-11.4455
▁bulutu	-11.4459
▁sayma	-11.446
▁anlattıkları	-11.446
▁salınımı	-11.4462
▁balıkçılık	-11.4465
ilmis	-11.4472
▁odun	-11.4482
▁sınırlama	-11.4482
▁tamamladı	-11.4487
▁oluşturduğumuz	-11.449
▁tamamlama	-11.4491
▁dolaşma	-11.4491
▁yapabileceğini	-11.4496
abilmeleri	-11.4496
▁kaçırma	-11.4511
▁ülkemizde	-11.4513
▁heyecanlıydı	-11.4514
▁keşfettiği	-11.4526
abilse	-11.453
▁tablosu	-11.4537
▁başarma	-11.4563
▁topluluğ	-11.457
▁gücümüzü	-11.4574
▁zamanımızı	-11.4581
▁dayanara	-11.4586
▁gerekmez	-11.4594
▁etkinliği	-11.4609
▁sevdiğimiz	-11.4627
▁kabullenme	-11.4634
loji	-11.4637
▁indirme	-11.464
▁evrimleşti	-11.4644
▁kopyalama	-11.4644
▁titreş	-11.4645
▁kostüm	-11.4652
▁ufuk	-11.4652
▁harikulade	-11.4652
▁mevzu	-11.4652
▁qüvvə	-11.4652
▁rüzgâr	-11.4652
▁sihirbaz	-11.4652
▁ayrımcılık	-11.4652
▁qısa	-11.4652
▁rahip	-11.4652
▁bulanık	-11.4652
▁melodi	-11.4652
▁hücum	-11.4652
▁nazar	-11.4652
▁davul	-11.4652
▁şəxs	-11.4653
▁obez	-11.4653
▁standard	-11.4653
▁əks	-11.4653
▁karadelik	-11.4654
▁yapışkan	-11.4654
▁edəcək	-11.4654
▁mitoloji	-11.4655
alesef	-11.4655
▁alçak	-11.4655
▁izlenim	-11.4656
▁sorarsanız	-11.4662
▁ruhsal	-11.4664
▁basıncı	-11.4665
▁haberleşme	-11.4666
▁ətrafında	-11.4667
▁değiştirilmiş	-11.4667
▁ailə	-11.4667
▁doğuşu	-11.4671
▁üzerimde	-11.4672
▁adem	-11.4673
▁yaşayacağı	-11.4673
▁paylaşır	-11.4683
▁yükseliyor	-11.47
▁yırt	-11.4701
▁dağılım	-11.4707
▁heyecanlıyı	-11.4756
▁gönderildi	-11.476
▁işleyişi	-11.4764
▁sürücüsü	-11.4773
▁hekayələr	-11.4773
▁çalışmakta	-11.4786
▁atladı	-11.479
▁üretilmiş	-11.4798
▁yükseliş	-11.4814
▁kaka	-11.4822
▁hatırlattı	-11.4822
▁götürecek	-11.4831
▁bakmanız	-11.4844
▁isteyecek	-11.4848
▁bittiği	-11.4857
mayacağınız	-11.4867
▁karıştırma	-11.4871
▁anlaşılıyor	-11.4897
▁brooklyn	-11.4902
▁android	-11.4902
▁axtar	-11.4902
▁dolaylı	-11.4902
▁entellektüel	-11.4902
▁istiridye	-11.4902
▁kolektif	-11.4902
▁konektom	-11.4902
▁kronik	-11.4902
▁kıvrım	-11.4902
▁məşğul	-11.4902
▁stephen	-11.4902
▁sonbahar	-11.4902
▁tezgah	-11.4902
▁vajina	-11.4902
▁kaşif	-11.4902
▁paradoks	-11.4902
▁uğur	-11.4902
▁anonim	-11.4902
▁ehtimal	-11.4902
▁libya	-11.4902
▁espri	-11.4902
▁bloğu	-11.4902
▁ikram	-11.4902
▁tesla	-11.4902
▁mandela	-11.4903
▁hacim	-11.4903
▁vaaz	-11.4904
▁kastediyorum	-11.4905
leşecek	-11.4905
▁istenen	-11.4906
▁maksim	-11.4907
▁gözetim	-11.4908
▁anlıyorsunuz	-11.4908
▁açıklayacağım	-11.4911
▁güçsüz	-11.4912
▁nike	-11.4912
▁astım	-11.4912
▁edemezsiniz	-11.4913
▁yanılma	-11.4913
oksit	-11.4914
▁duygusunu	-11.4914
▁forum	-11.4915
▁tutucu	-11.4916
▁elimiz	-11.4929
▁direniş	-11.4935
▁üniversitesinde	-11.4938
▁hangisini	-11.4952
▁tırmanma	-11.4975
▁zenginliği	-11.4983
▁görürdü	-11.4984
▁uydurma	-11.4991
▁döneceği	-11.4996
▁bağımlılığı	-11.5
▁will	-11.501
▁erkeğ	-11.5014
▁1998	-11.5014
▁düzlem	-11.5018
▁brit	-11.5022
▁sınırlarını	-11.5026
▁öğrenecek	-11.503
▁keşfedildi	-11.5064
▁həll	-11.5066
▁uzmanlaş	-11.5072
▁suud	-11.5083
bül	-11.5084
▁baxı	-11.5084
▁patlat	-11.5109
takım	-11.5118
▁paha	-11.5134
▁arkadaşınız	-11.5155
▁sömür	-11.5157
▁atölye	-11.5158
▁clinton	-11.5158
▁durağan	-11.5158
▁edward	-11.5158
▁habitat	-11.5158
▁incəsənət	-11.5158
▁kopuk	-11.5158
▁müxtəlif	-11.5158
▁məqsəd	-11.5158
▁sendromu	-11.5158
▁cıvı	-11.5158
▁ıslık	-11.5158
▁asfalt	-11.5158
▁atlanta	-11.5158
▁kopru	-11.5158
▁tibet	-11.5159
▁biyoteknoloji	-11.5159
▁univers	-11.5159
▁mamut	-11.5159
▁söylenir	-11.5159
▁alışık	-11.5159
▁taslak	-11.5159
▁imha	-11.516
▁edemeyiz	-11.516
▁ishal	-11.5161
▁melek	-11.5161
▁asistan	-11.5161
▁sabırsız	-11.5162
▁ibm	-11.5162
▁oluşturulmuş	-11.5162
▁bulunmuyor	-11.5163
▁motif	-11.5163
▁tüylü	-11.5164
▁içgüdüsel	-11.5164
▁media	-11.5166
▁johnson	-11.5166
▁önemseme	-11.5166
▁maria	-11.5169
▁hack	-11.5173
▁sınırsız	-11.5174
▁oluşturabiliriz	-11.5178
▁gözlemledi	-11.5183
▁formda	-11.5187
▁görüntüsünü	-11.5189
▁geliştirilmiş	-11.5193
▁koyduğumuz	-11.5196
▁çöktü	-11.5198
▁evrimleşme	-11.5199
▁yapabildiğimiz	-11.5209
▁istemişti	-11.5211
▁ödülünü	-11.5216
▁diyeceğim	-11.5222
▁şifreleme	-11.5227
▁veriliyor	-11.5233
▁kurduğumuz	-11.5234
▁çıt	-11.524
▁getdi	-11.5258
▁yaşını	-11.527
▁yapamadığı	-11.5279
maksızın	-11.5285
lendirilme	-11.5289
▁çıkacağı	-11.5292
▁kampüs	-11.5302
▁çıkartma	-11.5306
▁burnu	-11.5306
▁yargılama	-11.5314
▁verilmesi	-11.5315
▁erime	-11.5327
malıydım	-11.5334
▁endüstrisinde	-11.5347
▁kabus	-11.5364
layayım	-11.5367
▁sistemimizi	-11.5373
▁arkasın	-11.5376
ünkü	-11.538
▁gezegenimizde	-11.5381
▁etrafımızda	-11.5412
▁yönetiyor	-11.5414
▁alfabe	-11.5421
▁alışılmadık	-11.5421
▁departmanı	-11.5421
▁diplomasi	-11.5421
▁endonezya	-11.5421
▁kolombiya	-11.5421
▁müttefik	-11.5421
▁müəyyən	-11.5421
▁patojen	-11.5421
▁pigment	-11.5421
▁piyango	-11.5421
▁uğruna	-11.5421
▁yükümlü	-11.5421
▁meşru	-11.5422
▁sinaps	-11.5422
▁sörf	-11.5422
▁ilgilendiren	-11.5422
▁işgücü	-11.5422
▁tırnak	-11.5422
▁ciğer	-11.5422
▁rastlantı	-11.5422
▁seyretti	-11.5422
▁anlaşmazlık	-11.5422
▁samimiyet	-11.5422
▁nakit	-11.5423
▁yaşımdayken	-11.5423
▁kapsül	-11.5424
▁multi	-11.5426
▁belirleyici	-11.5426
▁1,5	-11.5427
▁tortu	-11.5429
▁öyrənmə	-11.5429
▁civa	-11.5429
▁şişir	-11.543
leştirici	-11.543
▁nisan	-11.5433
▁itici	-11.5435
▁dipte	-11.5436
▁keşfediyor	-11.5437
▁önemsiyor	-11.5437
▁uyarlama	-11.544
▁bağlamında	-11.544
▁kabı	-11.544
▁sivri	-11.5441
▁keman	-11.545
statik	-11.5455
▁zorundayı	-11.5456
▁fas	-11.5461
▁bittiğinde	-11.5468
▁hissetmiş	-11.547
▁öleceği	-11.5473
▁zorladı	-11.5477
▁göstərir	-11.5488
▁öğrencilerimiz	-11.5489
▁1999	-11.5492
▁görebilecek	-11.55
▁sırtında	-11.5513
▁benzemiyor	-11.5527
▁başlattığı	-11.5537
▁sevmiyor	-11.554
ound	-11.554
▁ekonomisini	-11.5557
▁hissettiriyor	-11.5578
aktif	-11.5582
hong	-11.5588
▁koşar	-11.5592
▁itibari	-11.5606
▁ulaşacak	-11.5606
▁benzediği	-11.5612
abilmeniz	-11.5675
▁gördüğünü	-11.5679
▁dokusunu	-11.5685
▁çevreleye	-11.569
▁akademisyen	-11.5692
▁alaska	-11.5692
▁alexander	-11.5692
▁bodrum	-11.5692
▁craig	-11.5692
▁dezavantaj	-11.5692
▁dərəcə	-11.5692
▁gsmh	-11.5692
▁itiraz	-11.5692
▁qolf	-11.5692
▁satranç	-11.5692
▁stadyum	-11.5692
▁tavşan	-11.5692
▁virginia	-11.5692
▁milenyum	-11.5692
▁ördek	-11.5692
▁saplantı	-11.5692
▁arthur	-11.5692
▁şeref	-11.5692
▁cüzdan	-11.5692
▁huylu	-11.5692
▁miselyum	-11.5692
▁ayrıştır	-11.5692
▁otonom	-11.5692
▁2014	-11.5692
▁kulübü	-11.5692
▁bambu	-11.5692
▁dayanışma	-11.5692
▁yaradılış	-11.5692
▁cassini	-11.5692
▁katolik	-11.5692
▁yaratılış	-11.5692
▁izlanda	-11.5692
▁yunanistan	-11.5692
▁sunulan	-11.5692
▁çatlaklar	-11.5692
▁partikül	-11.5694
▁doyur	-11.5695
▁öncelikli	-11.5696
▁turizm	-11.5696
▁dub	-11.5697
▁öyrəndi	-11.5698
▁havacılık	-11.5699
▁yediğimiz	-11.5701
▁yapamayız	-11.5702
▁korunmuş	-11.5702
▁karavan	-11.5703
▁kesilmiş	-11.5708
▁kavuş	-11.5709
▁görmemişti	-11.5711
▁torunu	-11.5723
▁hissettiğimiz	-11.5727
▁geliştirir	-11.573
▁yapabilirdi	-11.573
▁yüzeyini	-11.5737
▁buharlaş	-11.5746
daşları	-11.5751
▁başlayara	-11.576
▁belirttiği	-11.5808
▁şekillendirme	-11.5811
▁dolaşıyor	-11.5815
▁uzanıyor	-11.5834
viral	-11.5844
▁takas	-11.585
▁yayınlana	-11.5854
▁tekerlekl	-11.5858
▁bölünmüş	-11.5877
▁seçili	-11.5901
▁körfez	-11.5904
▁arttırıyor	-11.5908
▁böyü	-11.592
▁edemediği	-11.593
▁civarı	-11.5933
▁verildiği	-11.5939
▁bağladı	-11.5941
▁kalmayacak	-11.5944
.500	-11.5945
▁dağıtma	-11.5953
▁kaynaklana	-11.5956
▁metaboli	-11.5969
▁istifa	-11.597
▁avusturya	-11.597
▁portekiz	-11.597
▁elizabeth	-11.597
▁elverişli	-11.597
▁enceladus	-11.597
▁kemoterapi	-11.597
▁kızılötesi	-11.597
▁müzakere	-11.597
▁puzzle	-11.597
▁qlobal	-11.597
▁qəribə	-11.597
▁sofistike	-11.597
▁yanılsama	-11.597
▁yengeç	-11.597
▁yusufçuk	-11.597
▁şırınga	-11.597
▁idarə	-11.597
▁ifadə	-11.597
▁zırh	-11.597
▁pervane	-11.597
▁çapraz	-11.597
▁everest	-11.597
▁əsər	-11.597
▁komplik	-11.597
▁kastettiğim	-11.597
▁bilişim	-11.597
▁otistik	-11.597
▁heryerde	-11.597
▁reddetti	-11.597
▁fincan	-11.597
▁leopar	-11.597
▁çoban	-11.5971
child	-11.5971
▁aksanı	-11.5972
▁adlandırılır	-11.5975
▁bahsedelim	-11.5975
▁volt	-11.5975
town	-11.5975
▁yayınlanma	-11.5976
▁alışılmış	-11.5977
▁düzenleyen	-11.5977
▁kuşağı	-11.5977
▁öldürür	-11.5978
▁kucağ	-11.5979
▁büyüyü	-11.598
▁göstermektedir	-11.5982
▁stand	-11.5984
▁sinif	-11.5989
▁laboratuvarımda	-11.599
▁gösteriliyor	-11.599
bəli	-11.5994
▁okuyu	-11.6026
ərkə	-11.6027
▁karşılaştıkları	-11.6033
▁birleşi	-11.6039
▁vücudumuzu	-11.6043
▁sakal	-11.6046
▁umduğum	-11.605
▁kaplanmış	-11.6072
▁yoğunluğunu	-11.6074
iyyat	-11.6081
anlayabilirsiniz	-11.6087
▁düştüğünü	-11.6118
▁1995	-11.612
▁uyandıra	-11.6125
▁ayrılıyor	-11.6126
▁söyleyemez	-11.6128
dünya	-11.6148
▁tabak	-11.619
▁ayrılır	-11.6221
▁yürüdüğü	-11.6226
▁anestezi	-11.6255
▁bahsetmişti	-11.6255
▁carolina	-11.6255
▁dopamin	-11.6255
▁hamburger	-11.6255
▁həşərat	-11.6255
▁kıvılcım	-11.6255
▁matbaa	-11.6255
▁neandertal	-11.6255
▁prosedür	-11.6255
▁cənub	-11.6255
▁müsaade	-11.6255
▁philip	-11.6255
▁senfoni	-11.6255
▁sierra	-11.6255
▁uygarlık	-11.6255
▁kuraklık	-11.6255
▁dvd	-11.6255
▁ifşa	-11.6255
▁metrekare	-11.6255
▁dudak	-11.6255
▁komite	-11.6256
▁gəz	-11.6256
▁hırslı	-11.6256
▁tayland	-11.6256
▁hindu	-11.6256
▁bişey	-11.6256
▁daxil	-11.6256
▁operatör	-11.6257
▁hakaret	-11.6257
▁hissetmiyor	-11.6257
▁litre	-11.6258
▁hmm	-11.6259
▁erişilebilir	-11.6259
▁nörobilim	-11.6259
▁duymuyor	-11.6262
analitik	-11.6264
▁yürüttü	-11.6272
▁soğutma	-11.6273
▁kardiy	-11.6279
▁imkânsız	-11.628
▁bulduğunuz	-11.6284
▁fib	-11.6287
▁tüketiyor	-11.6305
▁link	-11.6324
▁metr	-11.6332
▁işlediği	-11.6378
▁sürükley	-11.6394
▁nereler	-11.6416
▁giydiği	-11.6435
▁gidebileceği	-11.6439
leyebilme	-11.6446
▁əsl	-11.6479
▁1990	-11.6486
▁sürdüğü	-11.6502
▁özlem	-11.6525
▁ömrünü	-11.6526
▁çalıştırma	-11.6529
▁pişman	-11.654
▁göstermişti	-11.6545
▁sabır	-11.6546
▁imparator	-11.6547
▁kosova	-11.6549
▁bibliya	-11.6549
▁dikdörtgen	-11.6549
▁floresan	-11.6549
▁kavanoz	-11.6549
▁michelangelo	-11.6549
▁muhasebe	-11.6549
▁nüfuz	-11.6549
▁sempati	-11.6549
▁təcrübə	-11.6549
▁yeğeni	-11.6549
▁üzüntü	-11.6549
▁benjamin	-11.6549
▁güclü	-11.6549
▁portakal	-11.6549
▁havlu	-11.6549
▁meteor	-11.6549
▁nathan	-11.6549
▁ceset	-11.6549
▁düzinelerce	-11.6549
▁tokyo	-11.6549
▁əsr	-11.6549
▁hektar	-11.6549
▁sünger	-11.6549
▁tekstil	-11.6549
▁okean	-11.655
▁səth	-11.655
▁bileşik	-11.655
▁hacmi	-11.655
▁kuzu	-11.655
▁məhsul	-11.655
▁zalim	-11.655
▁email	-11.655
▁nektar	-11.655
▁hiza	-11.6551
▁nepal	-11.6551
▁göreceli	-11.6551
▁önümde	-11.6551
▁imparatorluk	-11.6551
▁tuzak	-11.6551
▁black	-11.6551
▁başlayınca	-11.6552
▁dokunulma	-11.6552
▁sabun	-11.6552
▁vurgulama	-11.6557
▁bayılıyor	-11.6558
▁amerikalıları	-11.6559
▁hamam	-11.6559
▁eleştirmen	-11.656
▁axı	-11.6573
▁reddetme	-11.6573
▁söylendiği	-11.6574
▁kullanabiliyor	-11.658
▁kestirme	-11.6586
▁sağlamış	-11.6593
▁döndüğünü	-11.6596
▁gerilim	-11.66
▁öldüğünü	-11.6637
▁semt	-11.664
▁paylaşıla	-11.6654
▁biçimlendir	-11.6703
▁ezil	-11.6734
bilgisayar	-11.674
büyük	-11.6741
▁besliyor	-11.6747
▁izleyi	-11.6747
▁yaratabil	-11.6758
layabilmek	-11.6774
▁yerleştiriyor	-11.6785
▁edemem	-11.6791
▁bedel	-11.6799
▁tükettiği	-11.6802
▁ulaşama	-11.6806
▁meslektaşları	-11.6852
▁andrew	-11.6852
▁arabistan	-11.6852
▁bağdaştır	-11.6852
▁dalgıç	-11.6852
▁fısılda	-11.6852
▁gördüyünüz	-11.6852
▁joshua	-11.6852
▁kuzeydoğu	-11.6852
▁lübnan	-11.6852
▁nöbet	-11.6852
▁piramit	-11.6852
▁propaganda	-11.6852
▁rahibe	-11.6852
▁rasyonel	-11.6852
▁tazmanya	-11.6852
▁uygarlığı	-11.6852
▁üniforma	-11.6852
▁bilimadamları	-11.6852
▁earth	-11.6852
▁linux	-11.6852
▁önsezi	-11.6852
▁komplo	-11.6852
▁kıtlık	-11.6852
▁nakled	-11.6852
▁bariyer	-11.6852
▁aşikar	-11.6852
▁sepet	-11.6853
▁nitelendir	-11.6853
▁norden	-11.6853
▁dışişleri	-11.6853
▁önünüzde	-11.6853
▁telaş	-11.6853
▁mario	-11.6854
▁parçacığı	-11.6854
▁uçurtma	-11.6854
▁muhbir	-11.6854
▁becerikli	-11.6854
▁ithal	-11.6854
▁yaratığı	-11.6855
▁karikatürist	-11.6856
▁şişman	-11.6856
▁kolera	-11.6856
▁sprey	-11.6857
▁deneyimleye	-11.6857
▁beynimizi	-11.6858
▁söyleyebileceği	-11.6865
▁misyonu	-11.6867
▁ruhani	-11.6875
▁krem	-11.6909
▁dərs	-11.6916
▁öğrettiği	-11.6927
lendirici	-11.6931
▁onurlandır	-11.6937
▁manası	-11.7016
amerikalı	-11.7052
dön	-11.7061
fred	-11.7082
rinlemesin	-11.7137
▁kutunu	-11.7147
▁luc	-11.7151
malıydık	-11.7164
▁berkeley	-11.7165
▁istiqamət	-11.7165
▁kopenhag	-11.7165
▁muamele	-11.7165
▁nairobi	-11.7165
▁təbiət	-11.7165
▁alçakgönüllü	-11.7165
▁bhutan	-11.7165
▁bilimadamı	-11.7165
▁fedakarlık	-11.7165
▁galapagos	-11.7165
▁hammadde	-11.7165
▁kasıtlı	-11.7165
▁kürtaj	-11.7165
▁lewis	-11.7165
▁minyatür	-11.7165
▁pankreas	-11.7165
▁samanyolu	-11.7165
▁tereddüt	-11.7165
▁tüberküloz	-11.7165
▁manevra	-11.7165
▁mozart	-11.7165
▁təhlükə	-11.7165
▁tembel	-11.7165
▁liberya	-11.7165
▁titiz	-11.7165
▁tolerans	-11.7165
▁yüksək	-11.7165
▁guzel	-11.7165
▁optimiz	-11.7165
▁mekân	-11.7165
▁doug	-11.7165
▁özerk	-11.7165
▁jones	-11.7165
▁seyretme	-11.7165
▁tablet	-11.7165
▁justin	-11.7166
▁iflas	-11.7166
▁skor	-11.7166
▁daniel	-11.7166
▁bellek	-11.7167
▁keçən	-11.7168
▁yarayacak	-11.7168
▁düşünülüyor	-11.7169
▁bozulmuş	-11.7169
▁yapabildikleri	-11.7171
▁verimsiz	-11.7171
▁kısaltma	-11.7174
▁lord	-11.7177
▁söyleniyor	-11.7182
▁talk	-11.7183
▁çözülebil	-11.7192
▁gözetleme	-11.7208
front	-11.7214
▁tutulma	-11.7222
leştirebilir	-11.7269
▁burnunu	-11.7286
▁kırılma	-11.73
▁dağılma	-11.7326
▁endüstrisini	-11.733
▁düğün	-11.7357
sosyal	-11.7376
yüzyıl	-11.7377
cektim	-11.7383
▁anlayamıyor	-11.7424
▁benzerlikler	-11.7445
▁göremeyeceği	-11.7462
▁engelliyor	-11.7478
▁büyüdüğünü	-11.7487
▁cevre	-11.7487
▁sertifika	-11.7487
▁bataklık	-11.7487
▁bəzə	-11.7487
▁chuck	-11.7487
▁dəyişmə	-11.7487
▁ekvator	-11.7487
▁fraktal	-11.7487
▁gandhi	-11.7487
▁havza	-11.7487
▁ihracat	-11.7487
▁kollektif	-11.7487
▁mikroskobu	-11.7487
▁muhalif	-11.7487
▁soruşturma	-11.7487
▁sylvia	-11.7487
▁tasavvur	-11.7487
▁tebrik	-11.7487
▁texas	-11.7487
▁irəli	-11.7487
▁idrak	-11.7488
▁taşımacılığı	-11.7488
▁vəziyyət	-11.7488
▁reçine	-11.7488
▁ebay	-11.7488
▁gözyaşları	-11.7488
▁hoşnut	-11.7488
▁hortum	-11.7488
▁xoş	-11.7488
▁doksan	-11.7488
▁ateist	-11.7488
▁cahil	-11.7488
▁insancıl	-11.7488
▁johnny	-11.7488
▁kepler	-11.7488
▁ihanet	-11.7488
▁gələcək	-11.7489
▁harcanan	-11.7489
▁bahsedeyim	-11.7489
▁1930'	-11.749
▁dəyişə	-11.749
▁söyleşi	-11.7491
▁matris	-11.7492
▁final	-11.7498
▁âşı	-11.75
▁hologra	-11.7501
▁dərin	-11.7516
▁dinlediğiniz	-11.7541
▁akıt	-11.7557
▁açımız	-11.7566
▁gaziler	-11.7594
aids	-11.7625
▁yaslan	-11.7695
dört	-11.7709
▁uzerin	-11.7735
bilecegi	-11.7741
laşdırma	-11.7789
▁toplayı	-11.781
▁bahsetmiyor	-11.7814
▁tuval	-11.7818
▁anormal	-11.7821
▁cibinlik	-11.7821
▁fışkır	-11.7821
▁işbirlikçi	-11.7821
▁koordinasyon	-11.7821
▁kurabiye	-11.7821
▁luther	-11.7821
▁mammografi	-11.7821
▁philadelphia	-11.7821
▁stratosfer	-11.7821
▁teknisyen	-11.7821
▁uzuv	-11.7821
▁şarabı	-11.7821
▁banliyö	-11.7821
▁kahire	-11.7821
▁muzdarip	-11.7821
▁riyaziyyat	-11.7821
▁seleksiyon	-11.7821
▁təyyarə	-11.7821
▁pusula	-11.7821
▁analog	-11.7821
▁second	-11.7821
▁əməl	-11.7821
▁galon	-11.7821
▁bitcoin	-11.7821
▁şelale	-11.7821
▁ohio	-11.7821
▁bosna	-11.7821
▁monterey	-11.7821
▁teşkilatı	-11.7821
▁orbit	-11.7821
▁kalınlığında	-11.7822
▁south	-11.7822
▁iletken	-11.7823
▁eroin	-11.7823
▁sms	-11.7823
▁mecaz	-11.7823
üldüğünde	-11.7831
▁karşılaştırırsa	-11.7834
▁varyasyon	-11.7839
ölçülü	-11.7855
▁konusma	-11.786
▁sözcüğü	-11.7883
aylarca	-11.7901
▁yetiştiriyor	-11.7908
▁önderli	-11.793
▁çözeme	-11.7961
atılan	-11.7972
▁yaxınlaş	-11.7991
▁sergiledi	-11.7993
leştirecek	-11.8037
▁keşfe	-11.8086
çözünürlüklü	-11.8133
▁kanadı	-11.8148
▁bürokrat	-11.8166
▁christopher	-11.8166
▁cumartesi	-11.8166
▁demiryolu	-11.8166
▁egzotik	-11.8166
▁fotoşəkil	-11.8166
▁kapitalist	-11.8166
▁kertenkele	-11.8166
▁kâğıt	-11.8166
▁lezbiyen	-11.8166
▁mücevher	-11.8166
▁müsahibə	-11.8166
▁müşahidə	-11.8166
▁nigeriya	-11.8166
▁phoenix	-11.8166
▁rehabilitasyon	-11.8166
▁tahliye	-11.8166
▁tesekkur	-11.8166
▁teşebbüs	-11.8166
▁xəritə	-11.8166
▁yüzbinlerce	-11.8166
▁övgü	-11.8166
▁şöhret	-11.8166
▁world	-11.8166
▁yetimhane	-11.8166
▁çorap	-11.8166
▁zəng	-11.8166
▁parçacıq	-11.8166
▁yöre	-11.8166
▁idrar	-11.8166
▁berrak	-11.8166
▁ağabey	-11.8166
▁himalaya	-11.8166
▁helyum	-11.8166
▁tezsler	-11.8166
▁dəyər	-11.8166
▁nanoteknoloji	-11.8166
▁nişan	-11.8166
▁kansas	-11.8166
▁tabağı	-11.8166
▁yanlız	-11.8166
▁gazze	-11.8166
▁ölçülebilir	-11.8167
▁saydam	-11.8167
▁yolsuzluğ	-11.8167
▁alçal	-11.817
▁vakum	-11.817
▁gaga	-11.8172
house	-11.8178
▁sineğin	-11.818
▁tanınma	-11.8187
yapılabileceğini	-11.8203
▁cips	-11.8236
▁bildiyi	-11.8253
▁atlas	-11.8262
▁grafiğ	-11.8264
▁yürütüyor	-11.8307
▁çekildiği	-11.8323
▁ısıtma	-11.8341
▁işleyiş	-11.8361
▁kurtuluş	-11.8365
▁abartılı	-11.8397
▁mahal	-11.841
klasik	-11.8412
aslen	-11.8415
▁koşuyor	-11.8416
toplayıcı	-11.8441
▁istendi	-11.8456
▁müziğ	-11.848
ecegim	-11.8509
▁çeliş	-11.8509
▁endişeleniyor	-11.8521
▁namibya	-11.8523
▁whitopia	-11.8523
▁akvaryum	-11.8523
▁apaçık	-11.8523
▁beatbox	-11.8523
▁cemaat	-11.8523
▁crispr	-11.8523
▁entelektüel	-11.8523
▁fəaliyyət	-11.8523
▁joseph	-11.8523
▁kifayət	-11.8523
▁natasha	-11.8523
▁oklahoma	-11.8523
▁plastiği	-11.8523
▁quruluş	-11.8523
▁tercüman	-11.8523
▁eldiven	-11.8523
▁kubbe	-11.8523
▁ədalət	-11.8523
▁araşdırma	-11.8523
▁boğazı	-11.8523
▁tedirgin	-11.8523
▁güreş	-11.8523
▁kışkırt	-11.8523
▁boğuş	-11.8523
▁ortaklaşa	-11.8523
▁vakıf	-11.8523
▁istərdim	-11.8523
▁1989	-11.8523
▁intikam	-11.8523
▁vitamin	-11.8523
▁maraton	-11.8523
▁telafi	-11.8523
▁yalvar	-11.8523
▁tapınak	-11.8523
▁tabela	-11.8523
▁elastik	-11.8523
▁barınak	-11.8523
▁alpha	-11.8523
▁kireç	-11.8523
▁gətirə	-11.8523
field	-11.8524
▁denizanası	-11.8524
▁testere	-11.8524
▁uyanık	-11.8524
▁menzil	-11.8524
▁takvim	-11.8524
▁biliminsanları	-11.8524
▁atılım	-11.8525
▁yardim	-11.8525
▁makro	-11.8525
▁bardağı	-11.8525
▁casus	-11.8526
▁endeksi	-11.8531
▁farkediyor	-11.8531
▁state	-11.8535
▁bekleniyor	-11.8539
▁adanmış	-11.8549
▁ulas	-11.8556
▁araştırıyor	-11.8579
;	-13.4602
)	-13.4603
?	-13.4604
