<pad>	0
<unk>	0
<s>	0
</s>	0
▁,	-3.05559
s	-3.17682
▁.	-3.21289
▁the	-3.39671
▁and	-3.75614
▁to	-3.86921
▁	-3.88525
▁a	-3.93462
▁of	-4.00331
▁'	-4.16352
▁that	-4.19964
▁i	-4.28718
▁in	-4.35522
▁it	-4.39026
▁we	-4.49618
▁you	-4.51288
ed	-4.55309
ing	-4.59204
`	-4.62865
▁is	-4.63596
▁''	-4.72064
▁this	-4.84263
ly	-4.97835
t	-5.039
▁so	-5.12349
▁was	-5.29092
▁they	-5.30924
▁on	-5.31578
y	-5.31769
▁for	-5.3485
d	-5.37763
▁are	-5.40629
▁have	-5.41888
▁with	-5.43771
▁but	-5.45801
▁what	-5.46602
▁do	-5.47193
▁—	-5.54761
▁be	-5.58249
'	-5.63064
▁n	-5.63101
▁can	-5.63454
▁?	-5.63987
-	-5.67345
re	-5.69414
▁about	-5.70848
▁there	-5.73363
▁not	-5.77611
▁an	-5.78796
▁my	-5.80788
▁all	-5.8109
▁at	-5.83355
▁one	-5.85373
▁like	-5.94444
▁people	-5.96737
▁from	-6.00613
▁if	-6.0085
m	-6.01268
e	-6.04722
▁our	-6.05907
▁as	-6.06041
▁now	-6.07461
▁he	-6.09305
▁just	-6.10916
▁these	-6.11627
▁)	-6.1202
(	-6.12077
▁:	-6.12645
▁or	-6.1439
▁us	-6.16515
▁when	-6.16569
▁see	-6.18339
▁me	-6.20778
▁because	-6.21969
very	-6.23059
▁out	-6.24675
▁know	-6.26653
▁by	-6.27346
▁how	-6.27726
▁up	-6.2879
▁them	-6.34564
▁more	-6.34879
ve	-6.35256
▁had	-6.35823
▁going	-6.36207
es	-6.36303
▁some	-6.37929
▁think	-6.39381
▁would	-6.40551
▁your	-6.41876
▁who	-6.419
▁look	-6.43126
▁were	-6.4328
▁get	-6.44026
▁here	-6.45781
▁their	-6.467
▁which	-6.47974
▁really	-6.49376
n	-6.50622
▁want	-6.51836
▁time	-6.52921
▁world	-6.54713
▁go	-6.56731
▁then	-6.57407
▁has	-6.59335
▁actual	-6.60566
▁other	-6.64319
▁could	-6.65929
ies	-6.67266
▁into	-6.67778
▁will	-6.68523
▁way	-6.69175
▁did	-6.70521
▁where	-6.70928
▁no	-6.7228
er	-6.72518
laughter	-6.73315
▁years	-6.7501
▁things	-6.76474
▁make	-6.78958
▁right	-6.79077
▁well	-6.80422
se	-6.81542
▁t	-6.83916
▁she	-6.86968
▁need	-6.87485
▁start	-6.88505
▁first	-6.89645
been	-6.90187
▁work	-6.91403
▁say	-6.9205
▁two	-6.93485
▁something	-6.93525
▁new	-6.94097
▁much	-6.9533
▁over	-6.97105
▁than	-6.97885
▁take	-6.99769
▁every	-6.99811
lso	-7.00148
▁come	-7.00676
▁call	-7.0094
▁said	-7.00999
▁thing	-7.01927
▁most	-7.02281
▁kind	-7.02715
▁little	-7.02867
▁back	-7.03222
▁got	-7.03658
ll	-7.0466
▁even	-7.04878
hose	-7.05071
▁lot	-7.05769
▁life	-7.07748
▁his	-7.12872
▁talk	-7.132
▁many	-7.15021
r	-7.15291
a	-7.17914
▁different	-7.2264
▁around	-7.23073
▁good	-7.23208
▁does	-7.23366
▁applau	-7.23409
.	-7.2358
▁change	-7.23662
▁any	-7.23995
▁her	-7.24215
▁through	-7.26065
▁♫	-7.26089
▁why	-7.26987
▁let	-7.27005
▁down	-7.29264
day	-7.29878
▁use	-7.3147
▁mean	-7.31969
▁tell	-7.33455
▁idea	-7.34555
▁show	-7.35252
al	-7.35355
▁same	-7.35965
ity	-7.37156
▁great	-7.39699
▁ca	-7.40061
▁being	-7.4011
▁human	-7.40681
in	-7.41062
▁three	-7.42207
▁try	-7.42454
▁problem	-7.4249
▁put	-7.43003
▁day	-7.45293
▁part	-7.46012
;	-7.4669
o	-7.47218
▁thank	-7.49575
▁place	-7.49745
l	-7.50283
▁ask	-7.51213
▁give	-7.51621
self	-7.52396
▁e	-7.53067
one	-7.53651
▁doing	-7.54517
▁percent	-7.54954
▁made	-7.55248
▁after	-7.55416
▁year	-7.56299
able	-7.57568
▁fact	-7.58707
▁happen	-7.61389
▁own	-7.6244
▁find	-7.62537
other	-7.63281
h	-7.63568
ion	-7.64339
▁turn	-7.64725
▁big	-7.64734
▁last	-7.67785
▁should	-7.67937
▁important	-7.69532
▁thought	-7.70976
▁before	-7.71393
▁end	-7.72106
▁him	-7.73451
▁might	-7.74976
▁bit	-7.75069
▁never	-7.75136
▁live	-7.7556
▁together	-7.76194
▁better	-7.76809
▁example	-7.7714
on	-7.77167
▁love	-7.77434
each	-7.77451
c	-7.77633
▁point	-7.78014
▁few	-7.78142
▁help	-7.78373
▁course	-7.78961
▁off	-7.78967
▁system	-7.79132
▁still	-7.79709
▁again	-7.79776
▁able	-7.8007
▁design	-7.80152
▁story	-7.80345
▁next	-7.81303
▁million	-7.8134
▁came	-7.81536
▁school	-7.82273
▁brain	-7.823
▁ago	-7.83506
▁long	-7.83507
ce	-7.83702
▁create	-7.84734
▁learn	-7.85769
en	-7.86044
▁number	-7.86354
ther	-7.86561
w	-7.86607
▁technology	-7.87282
▁question	-7.88214
▁sort	-7.8862
▁real	-7.89016
k	-7.89059
▁water	-7.8915
▁play	-7.89171
out	-7.90538
▁kid	-7.90605
▁found	-7.92263
▁bet	-7.92693
g	-7.93158
went	-7.93398
ween	-7.93785
▁women	-7.94366
ic	-7.94458
ally	-7.95212
▁cell	-7.95419
▁too	-7.95539
▁data	-7.95778
▁become	-7.95902
p	-7.96742
▁understand	-7.96753
▁believe	-7.96842
▁al	-7.98423
▁feel	-7.98919
▁maybe	-7.99131
▁per	-7.99935
▁ever	-8.00117
▁may	-8.00684
▁man	-8.01409
▁done	-8.02653
ok	-8.0266
▁children	-8.02816
▁light	-8.03269
▁space	-8.04206
▁four	-8.04577
▁whole	-8.05145
▁always	-8.05521
▁second	-8.05629
▁un	-8.06771
▁move	-8.0691
▁power	-8.07173
▁person	-8.08307
▁20	-8.08408
▁everything	-8.0863
way	-8.09075
▁old	-8.09191
ation	-8.0927
▁information	-8.10601
▁small	-8.10757
▁home	-8.10884
▁picture	-8.11016
▁project	-8.1209
▁10	-8.12536
▁b	-8.12579
▁high	-8.12901
▁computer	-8.12969
i	-8.1309
le	-8.13093
▁reason	-8.13542
▁guy	-8.13615
ers	-8.14699
▁building	-8.15184
th	-8.15373
▁working	-8.15444
▁country	-8.15624
▁five	-8.17226
▁car	-8.17504
ves	-8.17577
▁experience	-8.17643
0	-8.19535
▁sense	-8.20055
▁money	-8.20217
▁future	-8.2037
▁open	-8.2105
▁case	-8.21566
▁re	-8.21706
▁social	-8.21956
▁earth	-8.21994
▁food	-8.23169
▁under	-8.23302
▁hard	-8.23453
▁thinking	-8.24984
▁form	-8.25029
▁moment	-8.25152
▁video	-8.25154
est	-8.25393
nough	-8.25425
▁basic	-8.25458
quite	-8.25939
▁planet	-8.25987
▁left	-8.26043
▁group	-8.26167
▁interesting	-8.27006
▁imagine	-8.27248
▁hand	-8.27296
▁am	-8.27578
▁mak	-8.2761
▁best	-8.27632
▁process	-8.27785
▁billion	-8.28042
▁matter	-8.2835
▁energy	-8.28558
▁bring	-8.28604
▁getting	-8.29148
ld	-8.29257
▁less	-8.30227
▁music	-8.30297
▁image	-8.30695
ever	-8.30866
us	-8.30992
▁city	-8.3151
▁probabl	-8.31628
▁health	-8.32606
▁pretty	-8.32922
▁answer	-8.33794
▁science	-8.33794
▁animal	-8.34233
▁grow	-8.34359
b	-8.34476
▁simple	-8.34481
ment	-8.34487
▁body	-8.34851
▁war	-8.35076
▁stuff	-8.35206
▁piece	-8.35606
▁countr	-8.3582
▁side	-8.36017
▁far	-8.36039
▁room	-8.36099
▁coming	-8.36196
ness	-8.36402
▁africa	-8.36524
across	-8.36649
▁half	-8.36658
▁line	-8.36678
▁build	-8.36797
▁keep	-8.36989
▁possibl	-8.36999
▁remember	-8.37
▁seem	-8.37448
▁job	-8.37553
▁face	-8.37937
▁dollars	-8.38002
u	-8.38438
▁family	-8.39101
▁government	-8.39248
▁such	-8.39289
▁set	-8.39526
▁allow	-8.40287
▁hav	-8.40383
▁saw	-8.40388
▁name	-8.40479
▁close	-8.40653
ything	-8.41528
▁young	-8.41602
▁lives	-8.41671
▁girl	-8.41746
▁global	-8.4194
▁men	-8.42189
▁almost	-8.42388
▁business	-8.42579
▁share	-8.42683
▁else	-8.42884
▁unit	-8.43021
▁living	-8.43058
▁art	-8.43237
▁machine	-8.43284
▁complete	-8.4351
▁later	-8.43799
▁while	-8.43999
▁week	-8.44049
▁yet	-8.44219
▁oka	-8.44273
▁societ	-8.44901
▁times	-8.4541
▁inside	-8.47061
▁thousand	-8.47109
▁sure	-8.4725
▁disease	-8.4748
▁c	-8.4793
▁u	-8.48211
▁care	-8.48627
▁nothing	-8.48803
▁bad	-8.48822
or	-8.49079
▁particular	-8.491
▁ra	-8.49154
▁age	-8.49322
▁single	-8.49414
▁once	-8.49953
▁read	-8.50326
f	-8.50778
▁amazing	-8.50818
▁six	-8.50826
an	-8.51296
▁mind	-8.51431
stead	-8.5158
▁histor	-8.52033
▁both	-8.52978
▁order	-8.53017
▁watch	-8.53269
▁hope	-8.53354
▁often	-8.53418
ready	-8.53706
▁final	-8.54748
▁whe	-8.54811
▁student	-8.54987
▁large	-8.55243
ch	-8.55372
▁book	-8.55383
▁certain	-8.55421
▁child	-8.55917
▁community	-8.56696
▁w	-8.57066
▁beautiful	-8.57509
▁public	-8.57609
▁days	-8.57874
▁walk	-8.58353
▁minute	-8.58513
▁cost	-8.58565
▁sometimes	-8.58629
▁study	-8.58738
▁co	-8.58815
▁level	-8.58913
▁since	-8.59078
▁run	-8.59097
▁stop	-8.59708
▁exact	-8.59869
▁months	-8.59919
▁everybody	-8.59997
▁head	-8.60163
▁yes	-8.60179
▁self	-8.60434
▁test	-8.60511
▁interest	-8.61028
▁game	-8.61431
▁states	-8.61495
▁hundred	-8.61705
▁happens	-8.61738
▁wrong	-8.61936
▁nature	-8.62185
▁land	-8.62384
▁woman	-8.6241
▁figure	-8.62872
▁unti	-8.62887
▁universe	-8.62987
ur	-8.63691
▁g	-8.63937
▁control	-8.64387
▁oh	-8.64414
▁de	-8.6485
el	-8.64957
▁top	-8.64998
▁plant	-8.6545
▁result	-8.65722
ten	-8.65788
▁challenge	-8.65807
▁research	-8.6641
▁heard	-8.66462
▁term	-8.6652
▁heart	-8.66684
▁internet	-8.66935
▁market	-8.66991
▁entire	-8.67057
▁house	-8.67118
▁model	-8.67169
▁los	-8.67308
▁built	-8.67482
▁individual	-8.67546
▁sound	-8.67585
te	-8.67726
▁creat	-8.68437
▁difference	-8.68534
▁yea	-8.68682
▁saying	-8.68879
▁ocean	-8.68949
▁couple	-8.69033
▁environment	-8.69265
it	-8.69578
▁american	-8.69629
ter	-8.69736
▁true	-8.69783
▁stand	-8.69835
▁lead	-8.70285
▁state	-8.70324
▁air	-8.70376
▁past	-8.70475
▁black	-8.70793
▁language	-8.70918
▁mother	-8.71006
came	-8.71033
▁words	-8.71105
▁phone	-8.71186
▁middle	-8.71299
taking	-8.71686
▁night	-8.71849
ry	-8.72212
▁though	-8.72279
▁makes	-8.72621
▁education	-8.72667
▁must	-8.7311
ous	-8.73476
▁issue	-8.73497
▁hear	-8.73923
▁follow	-8.74144
▁stories	-8.74159
less	-8.74459
▁leave	-8.7467
▁decided	-8.74751
▁tool	-8.74776
▁cancer	-8.74936
▁god	-8.75176
▁quick	-8.75198
▁happening	-8.75448
▁species	-8.75527
▁ways	-8.75629
against	-8.75821
▁speak	-8.75875
▁india	-8.75991
▁natural	-8.76029
▁economic	-8.76077
▁30	-8.76102
▁huge	-8.76147
▁object	-8.76518
▁develop	-8.76546
▁...	-8.76546
▁19	-8.76697
▁friends	-8.76802
▁discover	-8.7685
▁fly	-8.76897
to	-8.7734
▁di	-8.7739
is	-8.77394
▁color	-8.77406
▁america	-8.776
▁force	-8.77631
▁team	-8.78195
▁spend	-8.78465
▁word	-8.78592
ability	-8.78682
▁kne	-8.79174
▁deal	-8.7933
z	-8.79462
▁tho	-8.79509
msel	-8.79678
▁realize	-8.79757
▁free	-8.7983
▁experiment	-8.80164
▁company	-8.80506
um	-8.80577
▁network	-8.80786
▁pay	-8.81011
▁oursel	-8.81072
ive	-8.81184
where	-8.81211
▁1	-8.82106
▁along	-8.82163
▁culture	-8.82729
▁leas	-8.82774
▁50	-8.82836
haps	-8.8289
▁program	-8.83109
v	-8.83111
▁tree	-8.83695
▁act	-8.83969
▁dur	-8.83977
▁structure	-8.83983
gan	-8.84171
▁front	-8.845
▁view	-8.84902
▁outside	-8.85166
▁100	-8.85299
▁robot	-8.85527
▁somebody	-8.85668
▁pick	-8.8582
▁difficult	-8.86259
▁hours	-8.86905
▁sea	-8.87021
▁step	-8.8748
▁questions	-8.87626
▁ok	-8.87721
▁third	-8.87982
▁die	-8.88173
▁scientist	-8.88656
▁field	-8.88775
▁listen	-8.88996
▁simpl	-8.89189
▁15	-8.89693
old	-8.89727
▁population	-8.89878
▁death	-8.89879
▁choice	-8.90184
up	-8.90329
▁ted	-8.90449
▁exist	-8.9051
▁cause	-8.90665
▁wait	-8.90957
▁early	-8.91248
▁seven	-8.91549
▁buy	-8.9174
▁amount	-8.91986
▁poor	-8.92056
▁engineer	-8.92173
▁scale	-8.9218
▁center	-8.92271
▁citi	-8.92409
▁common	-8.92678
ance	-8.92927
▁short	-8.93151
age	-8.93283
2	-8.93437
man	-8.93472
▁bigge	-8.93621
▁media	-8.93623
▁device	-8.9363
▁deep	-8.93711
▁blue	-8.93948
▁compani	-8.94227
▁audience	-8.94269
▁focus	-8.94321
▁explain	-8.9443
▁relationship	-8.9443
moving	-8.94522
▁personal	-8.94527
▁learning	-8.94706
▁pattern	-8.94794
▁gave	-8.94914
▁full	-8.95234
▁father	-8.95237
▁surface	-8.9556
▁century	-8.95666
▁beginning	-8.95887
nt	-8.95914
▁size	-8.96184
▁happy	-8.96213
▁drive	-8.96451
▁risk	-8.96493
▁local	-8.96541
▁support	-8.96704
▁effect	-8.96854
▁safe	-8.96939
▁fish	-8.97066
5	-8.97184
▁reach	-8.97229
▁major	-8.98028
▁teacher	-8.98344
▁physical	-8.98528
▁wonderful	-8.99376
▁wall	-8.99428
▁behind	-8.99538
year	-8.9956
▁con	-8.99742
▁movement	-8.99767
▁parents	-8.99868
▁red	-9.00013
▁fall	-9.00091
▁stay	-9.00217
▁produce	-9.00489
▁sun	-9.00507
▁map	-9.00994
▁generation	-9.01064
▁area	-9.01195
▁absolute	-9.01415
▁easy	-9.0176
▁works	-9.01785
▁green	-9.01794
▁feeling	-9.01832
ar	-9.01839
▁3	-9.01966
▁near	-9.01975
▁kill	-9.02254
▁behavior	-9.02267
▁friend	-9.02406
▁organization	-9.02638
▁china	-9.02665
▁save	-9.02803
▁powerful	-9.02829
▁systems	-9.03035
▁white	-9.03277
▁obvious	-9.0368
ri	-9.04036
il	-9.04147
▁notice	-9.04217
▁eight	-9.0425
▁k	-9.04355
▁protect	-9.04408
▁york	-9.0484
▁political	-9.04938
▁p	-9.05006
▁normal	-9.05173
▁paper	-9.05459
▁film	-9.05611
▁oil	-9.05675
▁add	-9.05823
ty	-9.05833
▁complex	-9.06369
▁slow	-9.06548
▁begin	-9.0672
▁travel	-9.06721
▁rest	-9.06765
▁boy	-9.06931
▁eyes	-9.07047
▁hold	-9.07092
▁fear	-9.07415
▁decision	-9.08001
▁value	-9.08117
▁movie	-9.08185
▁longer	-9.0842
▁send	-9.08584
▁wo	-9.08749
▁stage	-9.08955
ism	-9.09119
▁news	-9.09241
▁perfect	-9.09297
felt	-9.09307
▁service	-9.09671
▁ground	-9.09835
▁rate	-9.09917
▁national	-9.10026
▁voice	-9.10044
ist	-9.10143
▁fight	-9.10352
▁hands	-9.10838
▁gone	-9.11682
▁200	-9.11925
▁f	-9.12267
▁growth	-9.12389
▁dark	-9.12499
▁bas	-9.12697
▁born	-9.12729
▁40	-9.12748
▁dna	-9.1291
ra	-9.1307
▁tried	-9.13461
▁key	-9.13619
▁doctor	-9.13903
▁pass	-9.14052
ton	-9.14369
▁opportunity	-9.14447
▁low	-9.14455
▁st	-9.14521
▁climate	-9.14854
▁record	-9.1526
▁present	-9.15287
▁economy	-9.15447
▁access	-9.15635
▁sitt	-9.15797
▁treat	-9.15832
▁extreme	-9.15844
▁resource	-9.16049
▁consider	-9.16128
▁action	-9.16261
as	-9.16367
lo	-9.16459
▁material	-9.16603
▁blood	-9.16646
ma	-9.1706
▁toward	-9.17254
▁approach	-9.17255
▁feet	-9.1733
▁incredible	-9.17495
▁fun	-9.17565
▁digital	-9.17652
▁camera	-9.17694
▁cool	-9.18074
ie	-9.18358
▁cut	-9.18469
▁street	-9.18614
▁giv	-9.18615
▁sudden	-9.1867
▁solve	-9.18695
▁south	-9.18711
ful	-9.18861
▁either	-9.19069
▁impact	-9.1908
▁essential	-9.19286
▁tin	-9.19389
8	-9.19547
ate	-9.1961
▁spen	-9.1967
▁eat	-9.19675
▁clear	-9.19837
ent	-9.19852
▁increase	-9.19906
▁message	-9.19968
▁18	-9.20094
▁average	-9.20321
▁expect	-9.20917
▁12	-9.20982
▁development	-9.20985
changing	-9.21048
▁known	-9.2106
▁nice	-9.21165
▁photograph	-9.21276
▁write	-9.2129
▁sign	-9.21302
▁shape	-9.21405
▁realit	-9.21753
▁innovation	-9.2179
ac	-9.21881
▁measure	-9.21954
3	-9.22167
1	-9.22305
land	-9.22446
▁technologi	-9.22607
▁humans	-9.22624
▁fundamental	-9.22775
▁lab	-9.22974
▁potential	-9.23064
tic	-9.23069
▁mo	-9.23298
▁literal	-9.23691
▁law	-9.23711
▁morning	-9.24139
li	-9.24277
▁forward	-9.24407
▁condition	-9.24426
▁artist	-9.24542
▁pull	-9.24597
▁train	-9.24911
ian	-9.25072
▁star	-9.25365
▁conversation	-9.25886
alone	-9.26106
▁attention	-9.26123
▁continue	-9.2619
▁general	-9.26314
▁eye	-9.26529
▁areas	-9.26593
▁takes	-9.26631
▁bottom	-9.26768
▁similar	-9.26813
ought	-9.26881
▁chance	-9.26991
▁miles	-9.27316
▁patients	-9.27327
▁fire	-9.27573
▁recently	-9.27595
▁understanding	-9.27613
▁african	-9.27627
▁knowledge	-9.27884
ul	-9.27885
▁developed	-9.27887
▁forest	-9.27934
▁ice	-9.28008
▁code	-9.28111
▁meet	-9.28253
▁push	-9.28337
▁hospital	-9.2856
▁electric	-9.28691
▁wonder	-9.28851
▁situation	-9.29013
▁serious	-9.29023
▁break	-9.29128
ia	-9.29161
▁village	-9.29468
▁dream	-9.29622
▁solution	-9.29628
▁modern	-9.29696
▁spread	-9.29858
▁product	-9.29965
▁theory	-9.30243
▁special	-9.30345
ta	-9.30488
▁fast	-9.3051
▁europe	-9.30595
ro	-9.30793
▁page	-9.30814
▁touch	-9.30864
,000	-9.30927
ol	-9.30938
away	-9.30938
po	-9.31046
▁truth	-9.31109
▁goal	-9.31148
▁type	-9.31163
▁sit	-9.31296
▁soon	-9.31545
▁hit	-9.31558
▁met	-9.3173
▁source	-9.31732
▁baby	-9.31778
▁box	-9.31823
▁books	-9.31938
▁late	-9.32071
▁strong	-9.32357
▁dead	-9.32478
▁o	-9.32572
▁non	-9.3271
rote	-9.32854
▁specific	-9.3315
▁current	-9.33185
▁worth	-9.33387
▁north	-9.34091
▁patient	-9.34161
▁direct	-9.34279
▁studie	-9.34377
▁runn	-9.34409
▁industry	-9.34615
▁connect	-9.3482
▁putting	-9.349
▁cars	-9.34918
ci	-9.35058
▁cover	-9.3537
specially	-9.35676
ant	-9.35901
▁son	-9.35951
▁affect	-9.36066
▁among	-9.36067
▁solar	-9.36067
▁avail	-9.36084
▁plan	-9.36239
▁attack	-9.36311
▁guess	-9.36314
▁screen	-9.36518
▁google	-9.36555
9	-9.36556
▁smart	-9.36814
ized	-9.36818
▁journey	-9.37045
▁period	-9.37046
▁carbon	-9.37131
▁rich	-9.37352
▁mars	-9.37383
▁trust	-9.37562
▁skill	-9.37577
▁main	-9.37642
▁several	-9.37786
▁beyon	-9.37795
ne	-9.38048
▁easi	-9.38077
▁galax	-9.38284
aught	-9.38332
rought	-9.38397
▁leg	-9.38426
▁medical	-9.39038
▁count	-9.39282
▁class	-9.3931
ine	-9.3934
▁pre	-9.39965
ck	-9.40047
▁nobod	-9.40551
▁usual	-9.40622
co	-9.40749
▁english	-9.40805
▁site	-9.40824
▁region	-9.40872
▁table	-9.41065
▁mass	-9.41161
▁pro	-9.41549
▁block	-9.41582
▁institution	-9.41596
▁nine	-9.41679
▁teach	-9.41696
▁success	-9.41822
▁please	-9.41906
▁clean	-9.41933
▁door	-9.41956
▁securit	-9.42031
▁nation	-9.42033
▁track	-9.42078
cy	-9.42228
4	-9.42426
▁web	-9.42521
ge	-9.42788
▁role	-9.42893
▁rules	-9.4294
x	-9.42972
▁represent	-9.43623
head	-9.43703
▁road	-9.43723
▁song	-9.43791
incredibly	-9.43918
▁university	-9.44024
la	-9.44136
▁revolution	-9.44175
ru	-9.44254
▁vision	-9.4449
▁wind	-9.44522
▁sex	-9.44532
un	-9.44625
▁collect	-9.44649
▁provide	-9.44653
▁college	-9.44712
mo	-9.44737
time	-9.44745
▁connection	-9.45298
▁sell	-9.4537
▁fund	-9.45442
ph	-9.45518
▁arm	-9.45757
▁extraordinar	-9.4578
▁led	-9.45788
▁online	-9.45906
▁predict	-9.46002
▁speed	-9.46011
ybody	-9.46015
▁character	-9.46266
ab	-9.46319
▁equal	-9.46464
vi	-9.46553
▁evidence	-9.46589
▁scientific	-9.4666
▁super	-9.46668
▁search	-9.4686
▁leaders	-9.46864
ary	-9.47041
na	-9.4715
▁wish	-9.47153
▁office	-9.47276
▁subject	-9.47305
▁2	-9.47323
ling	-9.4739
▁perspective	-9.47404
given	-9.47429
▁mom	-9.4755
▁wear	-9.47613
▁fair	-9.47655
▁sounds	-9.47957
▁flow	-9.48028
▁invent	-9.48035
am	-9.48215
▁list	-9.48236
▁benefit	-9.48275
▁concept	-9.48776
▁shows	-9.48975
▁tend	-9.48975
▁response	-9.49055
▁bar	-9.49144
▁skin	-9.49725
▁recognize	-9.49897
▁violen	-9.49907
▁hole	-9.49971
▁designer	-9.50068
▁effective	-9.50119
ha	-9.50238
▁park	-9.50292
▁secret	-9.50444
more	-9.50515
▁crazy	-9.50733
▁medicine	-9.50733
▁sub	-9.50849
▁virus	-9.50873
▁adult	-9.51016
▁detail	-9.51017
▁evolution	-9.51076
▁function	-9.51337
▁indeed	-9.51585
▁r	-9.51707
ish	-9.51743
▁visual	-9.51757
▁choose	-9.5176
ial	-9.52069
▁join	-9.52094
taken	-9.52154
▁further	-9.52162
▁international	-9.5244
▁anyway	-9.52456
▁25	-9.52701
▁democracy	-9.53076
▁price	-9.53206
▁molecule	-9.53305
▁month	-9.53406
▁card	-9.53489
▁writing	-9.53508
00	-9.53516
▁mine	-9.53572
▁successful	-9.53606
▁traditional	-9.53606
▁walking	-9.53615
ated	-9.53629
do	-9.53707
▁tru	-9.53747
▁favorite	-9.53886
▁drug	-9.54087
▁event	-9.54133
▁gre	-9.54143
▁poverty	-9.54177
▁connected	-9.54361
▁lose	-9.54423
▁post	-9.54571
▁west	-9.54659
▁store	-9.54662
▁creative	-9.54949
▁eventual	-9.5506
▁fit	-9.55112
▁signal	-9.55147
▁includ	-9.55999
▁carry	-9.56011
▁realiz	-9.56057
▁faster	-9.561
▁dr	-9.56161
▁suggest	-9.56492
▁raise	-9.566
▁communit	-9.56686
▁throw	-9.56938
▁progress	-9.57076
▁gas	-9.57136
▁immediate	-9.5714
▁stick	-9.57173
▁square	-9.57219
▁drugs	-9.57237
▁exciting	-9.57441
▁waste	-9.57638
▁software	-9.57744
▁everywhere	-9.57941
com	-9.58071
▁v	-9.58088
how	-9.58102
▁scar	-9.58121
▁fill	-9.58234
▁br	-9.58401
▁cold	-9.58483
▁da	-9.58488
▁sp	-9.58538
▁necessar	-9.58655
▁remain	-9.58655
▁print	-9.58768
▁onto	-9.58856
▁ma	-9.58903
▁bacteria	-9.58959
▁moral	-9.58965
▁zero	-9.59014
aid	-9.59129
ood	-9.59208
ize	-9.59217
▁offer	-9.59362
▁sent	-9.59407
▁require	-9.59431
▁finish	-9.59702
▁h	-9.59751
▁inspire	-9.59884
▁east	-9.59886
at	-9.59912
▁letter	-9.60083
▁lower	-9.60094
▁11	-9.60237
▁transform	-9.60285
▁ready	-9.60824
▁higher	-9.61032
▁la	-9.61067
▁materials	-9.61086
▁conflict	-9.61128
▁account	-9.61197
▁fine	-9.61424
▁colleague	-9.61442
▁hour	-9.6153
▁base	-9.61595
▁position	-9.61632
▁chemical	-9.61872
live	-9.6207
▁stars	-9.62122
▁depend	-9.62234
▁river	-9.62391
▁j	-9.62457
▁sleep	-9.62558
▁famili	-9.62693
▁accept	-9.62706
▁surprise	-9.62706
▁context	-9.62706
▁bank	-9.62821
▁religion	-9.63024
be	-9.6307
▁fail	-9.63278
▁treatment	-9.63702
▁total	-9.63758
▁hot	-9.63818
▁li	-9.63892
▁complicated	-9.63986
▁wife	-9.63986
ff	-9.64061
▁describe	-9.64213
▁ex	-9.64266
▁check	-9.64311
▁involv	-9.64491
▁increasing	-9.64632
▁rain	-9.64827
▁return	-9.64956
▁version	-9.64958
▁quality	-9.65056
▁genes	-9.65072
▁visit	-9.65216
ese	-9.65252
ba	-9.65269
▁daughter	-9.65282
▁address	-9.65283
▁publish	-9.65327
▁brother	-9.65332
▁communication	-9.65462
▁compassion	-9.65602
▁factor	-9.65643
▁architecture	-9.65666
▁moon	-9.66002
ization	-9.66113
▁feed	-9.6612
▁warm	-9.66187
▁genetic	-9.66238
▁appear	-9.66253
▁ultimate	-9.66266
▁worse	-9.66266
▁german	-9.66269
ily	-9.66282
▁direction	-9.66332
▁supposed	-9.66448
▁finding	-9.66475
the	-9.66551
▁intelligence	-9.66596
▁possibilit	-9.66596
▁standard	-9.66941
▁larger	-9.67168
▁plastic	-9.67259
▁sh	-9.67262
▁earlie	-9.67266
▁worker	-9.67286
▁shift	-9.67487
▁above	-9.67596
▁rise	-9.6774
▁unfortunate	-9.67927
▁ka	-9.68004
line	-9.68128
▁wild	-9.68317
▁famous	-9.68365
▁text	-9.68383
▁80	-9.68433
▁interact	-9.68536
▁launch	-9.68599
▁pain	-9.68629
ver	-9.68713
▁x	-9.68917
▁male	-9.68991
▁meant	-9.6905
▁afghan	-9.69276
▁expert	-9.69276
▁female	-9.69276
▁activity	-9.69476
▁rule	-9.69537
▁freedom	-9.69619
▁mental	-9.69644
▁practice	-9.6965
refore	-9.69682
▁invest	-9.69867
▁fuel	-9.69959
▁pressure	-9.69962
▁cap	-9.70005
▁extra	-9.70269
▁president	-9.703
▁impossibl	-9.70306
▁virtual	-9.70451
▁smaller	-9.70551
▁dy	-9.70722
he	-9.70754
▁original	-9.70869
▁neurons	-9.70895
▁press	-9.70907
▁floor	-9.70998
id	-9.71089
side	-9.71111
▁strange	-9.71178
▁painting	-9.71212
▁drop	-9.7122
▁principle	-9.71334
▁particle	-9.71334
▁organism	-9.71344
▁environmental	-9.71377
▁clearly	-9.71449
▁meeting	-9.71511
▁grand	-9.71706
▁range	-9.72002
▁ha	-9.72021
▁element	-9.72022
▁interview	-9.72031
▁task	-9.72032
bo	-9.72067
▁report	-9.72313
wa	-9.72369
▁purpose	-9.7238
▁l	-9.72552
▁bone	-9.72586
▁deliver	-9.72587
▁ro	-9.72643
▁afford	-9.72731
▁unique	-9.72731
▁enter	-9.72752
▁bill	-9.72775
▁foot	-9.72864
▁biolog	-9.73034
▁heat	-9.73108
▁shot	-9.73147
▁larges	-9.73266
▁draw	-9.73331
▁capital	-9.73357
▁fantastic	-9.73436
▁chris	-9.73438
▁ta	-9.73517
▁relative	-9.73558
▁excited	-9.73575
▁none	-9.73648
▁seri	-9.73744
im	-9.74044
▁central	-9.74055
▁constant	-9.74147
and	-9.74392
▁content	-9.74522
▁hiv	-9.74621
ti	-9.74714
▁police	-9.74782
▁win	-9.74847
▁peace	-9.74852
▁creature	-9.74874
▁dis	-9.7492
▁models	-9.74923
▁remind	-9.74947
▁lesson	-9.75045
istan	-9.75108
though	-9.75134
▁bunch	-9.75222
▁enormous	-9.75222
▁happiness	-9.75232
tra	-9.75249
▁9	-9.75378
ber	-9.75473
▁except	-9.75535
▁cheap	-9.75585
▁memory	-9.75946
▁slide	-9.75947
▁dad	-9.76149
▁na	-9.76268
▁effort	-9.76309
▁enjoy	-9.76309
▁massive	-9.76518
▁ran	-9.76642
▁financial	-9.76674
▁products	-9.77148
▁meter	-9.77221
▁glass	-9.77313
▁becom	-9.77461
▁apply	-9.77468
▁path	-9.77482
▁board	-9.77497
▁mention	-9.77801
▁vi	-9.77925
▁respond	-9.78147
▁target	-9.78147
▁terribl	-9.78147
▁beaut	-9.78153
▁dangerous	-9.78154
▁policy	-9.78357
ical	-9.78398
▁private	-9.78519
op	-9.78552
▁positive	-9.78719
▁finger	-9.78899
▁wave	-9.78906
like	-9.78913
▁wide	-9.79134
ating	-9.79207
▁healthy	-9.79283
▁decades	-9.79434
▁photo	-9.79553
▁sky	-9.79593
▁rock	-9.79599
▁expensive	-9.79642
▁genome	-9.79642
▁physics	-9.79642
▁micro	-9.79668
ca	-9.79708
▁critical	-9.79761
▁bodi	-9.79922
▁blind	-9.79996
▁writ	-9.80002
▁crisis	-9.80021
▁chin	-9.80051
▁western	-9.80125
▁concern	-9.80399
▁saving	-9.80437
▁insect	-9.808
▁radio	-9.8089
▁demand	-9.81161
▁weight	-9.81245
bu	-9.81418
▁tissue	-9.81544
▁vehicle	-9.81544
▁straight	-9.81544
▁remarkabl	-9.81546
▁neighborhood	-9.81546
▁corner	-9.81617
▁cross	-9.81677
pa	-9.81764
▁reading	-9.81867
▁trade	-9.81932
ho	-9.82109
▁paint	-9.82176
rs	-9.8244
kept	-9.82507
fi	-9.82569
▁hair	-9.82747
▁solutions	-9.82818
▁sat	-9.82862
▁mobile	-9.82862
▁prison	-9.82958
▁san	-9.82979
da	-9.8302
▁21	-9.83043
▁museum	-9.83091
▁instance	-9.83092
▁magic	-9.83129
▁explore	-9.83155
▁trick	-9.83488
▁respect	-9.83587
▁organ	-9.83793
ard	-9.83804
▁gene	-9.84025
▁bear	-9.84101
▁familiar	-9.84282
▁mission	-9.84339
▁emotion	-9.84507
▁income	-9.84616
▁summer	-9.84663
▁brand	-9.84672
▁trial	-9.84708
▁communicate	-9.84717
▁military	-9.8506
hi	-9.85115
▁atmosphere	-9.85136
▁stopp	-9.85262
▁forget	-9.85378
▁investment	-9.85486
go	-9.85514
▁decade	-9.8568
▁politic	-9.85809
▁stem	-9.85869
▁slight	-9.859
ga	-9.85901
▁bomb	-9.86021
▁typical	-9.86046
▁ten	-9.86171
▁survive	-9.8621
▁protein	-9.8626
▁14	-9.86303
▁recent	-9.86391
▁define	-9.86411
▁race	-9.86428
▁dimension	-9.865
ow	-9.86511
▁consequence	-9.86663
▁driving	-9.8682
▁achieve	-9.86844
▁dance	-9.86851
▁improve	-9.86866
▁training	-9.86935
▁tv	-9.8701
▁expand	-9.87068
▁4	-9.87079
▁luck	-9.87201
▁significant	-9.87235
▁sustain	-9.87259
▁strateg	-9.8742
▁sand	-9.87437
by	-9.87492
▁performance	-9.87637
▁fix	-9.87646
▁ho	-9.87662
▁citizens	-9.87664
▁technique	-9.87882
▁landscape	-9.87885
▁various	-9.87886
▁dog	-9.87957
▁production	-9.87973
▁jump	-9.88048
▁layer	-9.88129
▁satellite	-9.88292
▁double	-9.88293
▁collective	-9.88315
▁decide	-9.88402
older	-9.88424
ut	-9.88547
▁prevent	-9.88655
▁urban	-9.88752
▁circle	-9.89043
▁temperature	-9.89117
▁damage	-9.89121
▁apart	-9.89179
▁24	-9.89359
▁bo	-9.89399
bi	-9.89419
▁spot	-9.89533
▁vaccine	-9.89534
▁cr	-9.89679
▁perform	-9.89765
di	-9.89841
▁instrument	-9.89948
▁career	-9.89965
▁neighbor	-9.90364
▁reduce	-9.9038
▁nuclear	-9.90444
▁roll	-9.90483
lin	-9.90493
gen	-9.90519
que	-9.90524
▁cultural	-9.90575
ble	-9.906
▁inter	-9.90641
▁mu	-9.90763
▁wealth	-9.90791
▁cook	-9.90884
▁lo	-9.91282
▁sad	-9.91494
tro	-9.91569
▁indian	-9.91617
▁london	-9.91633
▁match	-9.91706
▁passion	-9.91727
ger	-9.91777
ture	-9.92005
▁drink	-9.92058
ron	-9.9241
▁teaching	-9.9247
▁underst	-9.925
▁bio	-9.9253
▁biological	-9.92562
▁ba	-9.92614
▁foundation	-9.92712
▁consciousness	-9.9293
▁manage	-9.92952
wise	-9.93088
▁199	-9.9312
▁90	-9.93134
▁values	-9.93222
▁bag	-9.93256
▁farm	-9.93343
▁separate	-9.93346
▁email	-9.93346
▁website	-9.93346
▁sister	-9.93347
▁random	-9.93347
tion	-9.93409
▁noise	-9.93425
▁town	-9.93759
▁po	-9.93853
▁13	-9.93953
▁destroy	-9.94214
▁giant	-9.94218
▁justice	-9.94219
▁hell	-9.94573
▁station	-9.94728
▁breath	-9.94735
pe	-9.94847
▁honest	-9.95089
▁charge	-9.95109
men	-9.95296
▁sl	-9.95312
▁math	-9.95456
▁distance	-9.95529
▁flight	-9.95535
▁imagination	-9.95541
▁meaning	-9.95553
▁mountain	-9.95591
▁interaction	-9.95592
▁useful	-9.95675
water	-9.95705
▁bi	-9.95759
▁flu	-9.95911
▁trouble	-9.95972
▁infrastructure	-9.95972
▁influence	-9.9598
▁birth	-9.96048
▁emotional	-9.96146
▁failure	-9.96422
▁professional	-9.9655
▁ancient	-9.96863
uar	-9.97057
▁cha	-9.97266
▁bed	-9.97275
▁surviv	-9.973
ni	-9.97355
▁lu	-9.97394
▁camp	-9.97478
▁scene	-9.97762
▁worst	-9.97762
▁catch	-9.97877
ifi	-9.97884
▁belief	-9.97928
ran	-9.97962
▁mis	-9.98055
▁compare	-9.98117
▁convince	-9.98214
▁smell	-9.98214
ng	-9.98338
▁produc	-9.98408
▁laws	-9.98427
▁vote	-9.98486
ex	-9.98573
▁miss	-9.98618
▁agree	-9.98636
▁speech	-9.98669
▁basi	-9.98898
▁forth	-9.98948
▁user	-9.9911
▁disappear	-9.99125
▁airplane	-9.99125
▁capacity	-9.99174
▁rare	-9.99302
▁advance	-9.99397
▁sentence	-9.99584
▁promise	-9.99584
▁document	-9.99957
▁profound	-10.0005
▁option	-10.0005
▁argument	-10.0005
▁ball	-10.0007
▁consumer	-10.0024
▁aware	-10.0043
▁mid	-10.0047
▁john	-10.0051
▁popular	-10.0051
▁motion	-10.0052
▁babi	-10.0057
▁trip	-10.0064
ists	-10.0067
▁tough	-10.0067
▁types	-10.0073
▁serve	-10.0085
▁brains	-10.009
▁television	-10.0097
▁davi	-10.0098
▁careful	-10.0102
▁mistake	-10.0103
▁below	-10.0105
▁sing	-10.0115
▁contact	-10.0144
▁compar	-10.0155
▁rough	-10.0171
▁edge	-10.0171
▁surger	-10.018
▁campaign	-10.0191
▁sorry	-10.0191
▁cycle	-10.0196
▁rais	-10.0197
ap	-10.0215
▁sequence	-10.0216
eath	-10.0217
▁sharing	-10.0218
▁flower	-10.022
▁worry	-10.023
▁commercial	-10.0238
▁coast	-10.0238
▁vast	-10.024
▁paid	-10.0241
bility	-10.0258
▁birds	-10.0259
ig	-10.0268
▁hey	-10.0282
▁surprising	-10.0286
▁minds	-10.0287
▁prize	-10.0288
▁player	-10.0293
hand	-10.0308
▁link	-10.0309
fa	-10.0322
▁active	-10.0335
▁afr	-10.0339
▁continent	-10.0341
▁release	-10.0359
▁climb	-10.0366
night	-10.0367
▁highly	-10.0367
em	-10.0391
▁method	-10.0414
▁gold	-10.0417
▁express	-10.0423
▁mark	-10.0425
▁frank	-10.0429
▁outcome	-10.043
▁election	-10.0431
▁evolved	-10.0432
▁fold	-10.0441
ors	-10.0443
▁legal	-10.0445
▁gra	-10.045
▁fac	-10.0459
mi	-10.046
▁limit	-10.0465
▁manufactur	-10.0476
▁multi	-10.0477
▁feature	-10.0478
▁despi	-10.0478
▁lack	-10.0479
▁industrial	-10.0485
▁8	-10.0493
▁involve	-10.0499
▁california	-10.0526
▁yellow	-10.0526
▁hopeful	-10.0531
▁sick	-10.0534
▁seat	-10.0538
▁bridge	-10.0551
bas	-10.0563
▁drawing	-10.0568
▁pr	-10.0569
ium	-10.0569
pp	-10.0574
per	-10.0574
▁gain	-10.0575
▁coral	-10.0577
▁king	-10.0577
▁500	-10.0584
▁ship	-10.0602
▁thanks	-10.0615
▁magazine	-10.0624
▁kilometer	-10.0624
▁sexual	-10.0639
▁won	-10.065
▁caus	-10.065
q	-10.066
j	-10.0661
▁threat	-10.0669
▁muscle	-10.0673
▁supply	-10.0673
▁switch	-10.0673
▁radical	-10.0673
▁mr	-10.0676
▁streets	-10.0687
▁wood	-10.0689
▁missing	-10.0689
tally	-10.0698
ray	-10.0704
▁desire	-10.0714
▁professor	-10.0722
▁tremendous	-10.0722
▁twice	-10.0722
▁soldier	-10.0723
▁emerg	-10.0728
▁window	-10.0752
▁oxygen	-10.0772
▁border	-10.0773
▁efficient	-10.0777
▁aid	-10.0783
▁contain	-10.0784
▁plann	-10.0803
▁rid	-10.0808
▁cave	-10.0815
▁civil	-10.0821
▁monkey	-10.0822
▁responsibility	-10.0829
▁electronic	-10.0839
▁pop	-10.0861
▁malaria	-10.0873
▁shock	-10.0873
▁chain	-10.0879
▁component	-10.0923
▁plane	-10.0926
▁jam	-10.093
▁ph	-10.0937
▁hearing	-10.0962
▁desert	-10.0974
▁sample	-10.0974
▁tumor	-10.0974
▁le	-10.0975
11	-10.0975
0,000	-10.1003
▁forever	-10.1005
▁victim	-10.1025
▁apple	-10.1028
▁background	-10.1031
▁10,000	-10.1033
▁european	-10.1036
▁definition	-10.104
▁prove	-10.1058
iv	-10.1071
▁claim	-10.1076
▁muslim	-10.1076
aging	-10.1076
▁garden	-10.1076
▁crime	-10.1077
▁eating	-10.1079
▁seconds	-10.1091
▁leader	-10.1127
▁bang	-10.1133
▁fully	-10.1133
▁generate	-10.1135
▁correct	-10.1141
no	-10.1147
▁mal	-10.115
▁enable	-10.1157
▁master	-10.1165
▁aspect	-10.1179
▁root	-10.1179
▁wire	-10.1181
ious	-10.1183
▁accident	-10.1188
oc	-10.1191
▁reflect	-10.1203
rew	-10.1205
▁operation	-10.1216
▁coffee	-10.1232
▁husband	-10.1232
▁court	-10.1232
▁conference	-10.1232
▁click	-10.1284
▁rapid	-10.1284
▁chair	-10.1285
▁researcher	-10.13
▁held	-10.1323
▁platform	-10.1336
▁motor	-10.1337
▁civilization	-10.1337
▁washing	-10.1338
▁opportunit	-10.134
▁controll	-10.1341
▁labor	-10.1342
▁invisibl	-10.1346
▁extend	-10.136
▁party	-10.1364
▁boat	-10.1364
▁avoid	-10.1389
▁application	-10.1389
▁mechanism	-10.1443
▁funny	-10.1443
▁pair	-10.1443
▁sustainabl	-10.145
▁du	-10.145
▁capture	-10.145
▁mouth	-10.146
ah	-10.1463
▁creation	-10.1463
let	-10.1468
▁hu	-10.1481
▁hate	-10.1492
▁architect	-10.1494
▁refugee	-10.1496
▁technical	-10.1496
▁telescope	-10.1496
▁dynamic	-10.15
▁quote	-10.1501
▁300	-10.1506
▁en	-10.1508
▁curve	-10.1525
▁balance	-10.1525
▁poll	-10.1527
ud	-10.1535
▁include	-10.154
▁faith	-10.155
▁gap	-10.1552
▁cry	-10.157
ped	-10.1571
▁members	-10.1589
▁detect	-10.1604
▁encourage	-10.1604
▁remote	-10.1604
▁fi	-10.1622
dimensional	-10.1626
▁island	-10.1656
▁mathematics	-10.1658
▁advantage	-10.1658
▁gender	-10.1658
▁exercise	-10.166
▁graph	-10.166
▁reaction	-10.1661
▁net	-10.1674
▁cloud	-10.1675
▁core	-10.1679
▁etc	-10.1682
▁broken	-10.1682
fu	-10.1683
▁ju	-10.1698
▁asia	-10.1706
▁foreign	-10.1713
▁sector	-10.1713
▁facebook	-10.1714
▁reward	-10.1716
▁struggle	-10.1722
▁beat	-10.1732
▁notion	-10.1736
▁degrees	-10.1747
ada	-10.1751
ir	-10.1763
▁spirit	-10.1768
▁th	-10.1768
▁alternative	-10.1768
▁childhood	-10.1769
▁1,000	-10.1771
▁due	-10.1793
con	-10.1807
50	-10.181
▁creativ	-10.182
▁japan	-10.1822
▁ecosystem	-10.1823
▁adopt	-10.1823
▁dramatic	-10.1824
▁stuck	-10.1824
▁band	-10.1842
dp	-10.1853
▁farmers	-10.1872
orrow	-10.1876
▁bird	-10.1909
▁tri	-10.1928
▁introduce	-10.1928
▁algorithm	-10.1934
▁artificial	-10.1934
▁article	-10.1935
▁crowd	-10.1958
sis	-10.198
▁tradition	-10.1988
▁librar	-10.1991
▁reveal	-10.1991
▁opposite	-10.1991
▁recover	-10.1993
▁diversity	-10.1993
ick	-10.2014
▁odd	-10.2023
▁joy	-10.2024
▁willing	-10.2024
▁traffic	-10.2043
▁bread	-10.2048
▁hero	-10.2064
term	-10.2074
▁anti	-10.2079
▁adapt	-10.2099
▁argue	-10.2103
▁attempt	-10.2104
ier	-10.2106
▁soil	-10.2127
▁divide	-10.2132
▁regular	-10.2161
▁snow	-10.2161
▁unlike	-10.2166
▁transformation	-10.2168
▁engage	-10.219
▁era	-10.2197
▁breast	-10.2219
▁french	-10.2219
▁religious	-10.2219
▁spin	-10.222
ak	-10.2223
▁stone	-10.2229
▁identity	-10.2229
▁ring	-10.2241
▁hop	-10.2246
▁flat	-10.2247
▁fashion	-10.2247
▁discovery	-10.2256
▁sold	-10.226
▁laugh	-10.2266
▁sa	-10.2269
▁cent	-10.2276
▁198	-10.2278
ure	-10.2278
▁bright	-10.2279
▁depression	-10.2279
▁5	-10.2289
▁organic	-10.2298
ps	-10.2302
▁loss	-10.2318
▁universal	-10.2335
▁dinosaur	-10.2335
▁holding	-10.2368
ership	-10.2385
▁hum	-10.2388
▁competition	-10.2393
▁stress	-10.2393
▁fascinating	-10.2396
▁suit	-10.241
▁su	-10.2418
▁bus	-10.2443
▁strength	-10.2448
▁fossil	-10.2452
▁responsibl	-10.2452
▁honor	-10.2452
▁worri	-10.2452
▁weather	-10.2453
▁zone	-10.2458
▁estimate	-10.2481
▁orbit	-10.2494
ative	-10.2495
▁phenomeno	-10.2511
▁gift	-10.2511
▁grandmother	-10.2511
▁lay	-10.2512
▁gentlem	-10.2553
▁iraq	-10.2557
end	-10.2564
led	-10.2567
care	-10.2569
▁newspaper	-10.2571
▁succeed	-10.2571
▁fresh	-10.2571
▁score	-10.2571
▁metal	-10.2578
▁ben	-10.2593
▁dollar	-10.2606
▁related	-10.2622
▁proper	-10.2629
▁equation	-10.263
▁patent	-10.2631
▁weird	-10.2631
▁marrie	-10.2632
▁parent	-10.2634
au	-10.2643
car	-10.2648
▁engine	-10.2659
▁location	-10.2691
▁marriage	-10.2691
▁hurt	-10.2691
▁suffer	-10.271
▁ver	-10.2722
▁identify	-10.2751
▁shark	-10.2751
va	-10.2751
▁fellow	-10.2752
▁row	-10.276
▁app	-10.276
▁independent	-10.2772
▁multiple	-10.2773
▁limited	-10.2786
▁driver	-10.2796
▁british	-10.2812
▁bottle	-10.2812
▁politician	-10.2814
▁analys	-10.2815
▁according	-10.2819
▁sensor	-10.2828
▁robotic	-10.2872
▁perception	-10.2874
▁twitter	-10.2874
▁classroom	-10.2874
▁proud	-10.2875
▁remove	-10.2921
▁receive	-10.2934
▁harder	-10.2968
▁chose	-10.2991
▁circuit	-10.2997
▁collapse	-10.2997
▁epidemic	-10.2997
▁survey	-10.2997
▁dozen	-10.2998
▁mouse	-10.2998
▁pen	-10.3008
▁mess	-10.3014
ug	-10.3017
▁copy	-10.3023
▁graduate	-10.3034
▁statistic	-10.3038
▁meat	-10.3041
▁channel	-10.306
▁church	-10.306
▁interface	-10.306
▁display	-10.306
ze	-10.3072
▁belong	-10.3081
ify	-10.3087
▁pounds	-10.3111
▁den	-10.3119
▁quantum	-10.3123
▁minister	-10.3123
▁curious	-10.3123
▁taste	-10.3127
▁pa	-10.3141
▁ne	-10.3142
▁customer	-10.3144
▁mad	-10.3156
io	-10.3157
▁coal	-10.3159
▁insight	-10.3165
▁suffering	-10.3166
▁degree	-10.3176
wood	-10.3177
▁brazil	-10.3185
▁debate	-10.3186
▁comment	-10.3186
▁string	-10.3186
▁measur	-10.3193
▁photos	-10.3194
off	-10.3195
▁gun	-10.3201
ka	-10.3208
▁cat	-10.3212
ification	-10.322
board	-10.3234
▁agricultur	-10.3236
▁fell	-10.3236
ang	-10.3237
▁closed	-10.3238
▁existence	-10.325
▁applie	-10.3252
of	-10.3252
▁pole	-10.3255
▁stream	-10.3257
ship	-10.3266
▁occurr	-10.3268
▁fat	-10.3274
▁bubble	-10.3278
▁gu	-10.328
▁pack	-10.3286
▁factory	-10.3286
▁equivalent	-10.3314
▁trillion	-10.3314
▁hidden	-10.3314
ley	-10.3315
▁negative	-10.3328
ack	-10.3369
▁angel	-10.3371
▁spring	-10.3372
▁date	-10.3373
▁agenc	-10.3386
▁deeply	-10.34
▁z	-10.3408
fish	-10.3418
▁hall	-10.3423
▁invite	-10.3431
▁pig	-10.3436
▁balloon	-10.3443
▁einstein	-10.3443
▁institute	-10.3443
▁wisdom	-10.3443
corruption	-10.345
▁precise	-10.345
▁brilliant	-10.3451
▁conscious	-10.3455
▁wow	-10.346
▁property	-10.3485
ham	-10.3493
▁elephant	-10.3509
▁opinion	-10.3509
▁equip	-10.3509
▁atom	-10.3524
▁bare	-10.3534
ite	-10.3544
▁shop	-10.3545
▁occur	-10.3556
mas	-10.3557
▁metaphor	-10.3557
lan	-10.3572
▁budget	-10.3575
▁department	-10.3575
▁error	-10.3575
▁valley	-10.3575
▁witness	-10.3575
▁disorder	-10.3575
▁employee	-10.3575
▁litera	-10.3577
▁earn	-10.3592
▁operat	-10.3594
▁receiv	-10.3603
▁fourth	-10.3604
▁fle	-10.3613
▁symbol	-10.3622
▁replace	-10.3622
▁provid	-10.3623
▁hi	-10.3634
▁bl	-10.3641
▁liquid	-10.3641
▁kick	-10.3643
▁ordinar	-10.3648
izing	-10.3652
▁invention	-10.3652
▁chip	-10.3657
▁daily	-10.366
▁clip	-10.368
▁quiet	-10.3707
▁battle	-10.3708
▁variet	-10.3708
▁brief	-10.3708
▁expression	-10.3714
log	-10.3735
▁round	-10.3738
▁solv	-10.3752
▁profit	-10.3758
▁ancestor	-10.3775
▁dinner	-10.3775
▁leaving	-10.3775
▁spoke	-10.3779
▁150	-10.3779
pi	-10.3803
▁blow	-10.3806
▁aim	-10.3814
bl	-10.3822
▁seed	-10.3829
▁scan	-10.3834
we	-10.3836
▁lung	-10.3843
mor	-10.3844
▁truck	-10.3846
▁ride	-10.3868
▁grown	-10.389
▁ideal	-10.3905
▁diet	-10.3909
▁restaurant	-10.391
▁narrative	-10.391
▁wake	-10.3911
▁cur	-10.3921
uc	-10.3935
che	-10.3938
▁frame	-10.3953
ware	-10.3954
▁cartoon	-10.3973
▁nor	-10.3978
▁categor	-10.3979
▁fortunate	-10.3979
▁mirror	-10.3979
▁nervous	-10.3979
▁lift	-10.3979
▁transition	-10.398
▁gay	-10.3981
▁injur	-10.3982
versus	-10.3985
▁paul	-10.3986
▁intelligent	-10.3987
▁100,000	-10.3987
ler	-10.3997
▁dreams	-10.4001
▁stoo	-10.4005
▁ja	-10.4013
▁member	-10.4017
cra	-10.403
▁tens	-10.4038
▁volunteer	-10.4048
▁silk	-10.405
▁management	-10.4051
▁democratic	-10.4053
ward	-10.4053
▁lad	-10.4055
▁rat	-10.4083
bur	-10.4085
▁dry	-10.4098
▁army	-10.4106
har	-10.4114
▁cognitive	-10.4117
▁quarter	-10.4117
▁judge	-10.4118
▁nurse	-10.4118
▁extract	-10.4125
▁manag	-10.4131
▁bla	-10.4139
▁writer	-10.4154
▁chemistr	-10.4158
▁400	-10.4161
▁prime	-10.4166
ua	-10.4174
▁programm	-10.4178
▁govern	-10.4179
▁clinic	-10.4181
▁aids	-10.4183
▁alien	-10.4187
▁collection	-10.42
▁cup	-10.4201
ja	-10.4214
▁surround	-10.4226
▁shoes	-10.425
▁discuss	-10.4253
ner	-10.4255
▁rural	-10.4257
▁silence	-10.4257
▁roof	-10.4258
▁mathematical	-10.4258
▁exploration	-10.426
▁mit	-10.4264
▁lifetime	-10.428
ction	-10.4293
▁beach	-10.4303
ise	-10.4312
▁facilit	-10.4312
▁kenya	-10.4313
▁construct	-10.4322
▁puzzle	-10.4328
▁lunch	-10.4328
▁gravity	-10.4328
▁sugar	-10.4328
uck	-10.4329
▁imp	-10.433
▁sight	-10.4332
▁construction	-10.4333
▁myster	-10.4336
▁yester	-10.4339
▁protection	-10.4348
▁director	-10.4352
▁gather	-10.4367
▁shoot	-10.4369
▁nasa	-10.4371
▁el	-10.4376
rb	-10.4384
▁empower	-10.4397
▁therap	-10.4398
▁awesome	-10.44
▁initial	-10.44
ground	-10.4401
▁sw	-10.4404
▁discussion	-10.4405
▁whom	-10.4405
mber	-10.4425
▁lie	-10.4425
▁recycl	-10.4436
▁operate	-10.4438
▁soul	-10.4447
bra	-10.4447
▁broke	-10.4458
▁practical	-10.4464
▁horse	-10.4472
▁brown	-10.4472
▁economist	-10.4474
▁topic	-10.4477
▁partner	-10.4493
om	-10.4498
▁folks	-10.4499
erson	-10.4509
ator	-10.4523
ade	-10.4523
▁journalist	-10.4526
▁hill	-10.4537
▁combine	-10.4543
▁mosquito	-10.4544
▁pocket	-10.4544
▁northern	-10.4544
▁southern	-10.4544
▁chicken	-10.4545
▁variation	-10.4545
qui	-10.4546
▁arriv	-10.4548
work	-10.4551
▁continu	-10.4558
ee	-10.4566
▁highest	-10.4572
sumption	-10.4586
▁terrorist	-10.4603
▁complexit	-10.4613
▁george	-10.4617
▁combination	-10.4619
▁note	-10.4625
▁actor	-10.4632
▁electrical	-10.4648
▁mix	-10.4658
▁host	-10.4662
▁tail	-10.4667
▁dan	-10.4686
ograph	-10.4688
▁congress	-10.4691
▁medium	-10.4691
▁evolutionary	-10.4693
▁worldwide	-10.4695
▁resistan	-10.4699
▁cure	-10.47
ically	-10.4701
▁button	-10.4709
ana	-10.4733
▁arms	-10.4736
▁hang	-10.474
▁smile	-10.4747
▁bat	-10.4758
▁volume	-10.4765
▁protest	-10.4765
▁fiber	-10.4766
▁cutting	-10.4767
ev	-10.4771
ik	-10.4778
▁official	-10.4785
▁ya	-10.4786
bel	-10.4795
art	-10.4798
▁broad	-10.4802
▁credit	-10.4803
▁empath	-10.4806
▁ski	-10.4826
▁transport	-10.4836
▁dolphin	-10.4839
▁conservation	-10.4839
▁doubt	-10.484
▁definite	-10.484
▁2,000	-10.4842
▁disaster	-10.4842
life	-10.4849
▁golf	-10.485
▁abuse	-10.4851
▁wi	-10.4857
▁infect	-10.4857
▁speaker	-10.4857
wi	-10.4861
▁conduct	-10.4866
▁input	-10.4884
▁lady	-10.4894
▁mothers	-10.4899
▁inner	-10.4911
▁novel	-10.4914
kin	-10.4914
▁heavy	-10.4915
▁bond	-10.4915
▁peak	-10.4916
itude	-10.4931
▁2000	-10.4934
▁load	-10.4954
▁embrace	-10.4977
▁undern	-10.4982
▁assume	-10.4982
▁establish	-10.499
▁mammal	-10.499
▁physicist	-10.499
▁convert	-10.499
▁studio	-10.499
▁loud	-10.4991
▁grant	-10.4992
▁france	-10.4997
▁analog	-10.4998
▁organiz	-10.4998
▁determine	-10.5006
▁challeng	-10.5012
rising	-10.5014
ide	-10.5049
▁attach	-10.5067
▁richard	-10.5068
▁melt	-10.507
istic	-10.5072
ub	-10.508
▁memori	-10.5082
▁addition	-10.5093
▁grade	-10.5099
▁visibl	-10.5106
▁ah	-10.5117
▁australia	-10.5128
▁killing	-10.5133
ology	-10.5138
▁explanation	-10.5144
▁encounter	-10.5144
▁intellectual	-10.5144
▁bike	-10.5145
▁fe	-10.5145
▁plate	-10.5145
▁opening	-10.5159
▁explor	-10.5167
▁historical	-10.5195
▁fan	-10.5215
▁capabilit	-10.5219
▁mexic	-10.5219
ari	-10.5219
▁maintain	-10.5221
▁spectrum	-10.5221
▁emissions	-10.5221
▁title	-10.5221
▁rocket	-10.5221
▁feedback	-10.5222
▁winter	-10.5225
▁theater	-10.5226
▁setting	-10.5227
▁march	-10.5233
▁wheel	-10.5234
▁battery	-10.5244
▁grid	-10.5245
▁swimm	-10.5248
▁burn	-10.525
bb	-10.527
▁lies	-10.5287
▁45	-10.5289
▁blog	-10.529
▁ri	-10.5295
▁iran	-10.5298
▁pleasure	-10.5299
▁spider	-10.5299
▁stupid	-10.5299
▁rational	-10.5299
▁hydrogen	-10.5299
▁accurate	-10.53
▁mortality	-10.53
▁zoom	-10.5307
▁recording	-10.5311
▁hide	-10.5323
▁sweet	-10.5333
▁peer	-10.5339
▁sum	-10.5354
▁reef	-10.5378
▁awful	-10.5378
▁surgeon	-10.5379
▁enem	-10.5379
▁toilet	-10.5379
▁reform	-10.5381
▁distribution	-10.5382
▁origin	-10.5386
right	-10.5388
▁35	-10.5402
▁ignore	-10.5402
▁propert	-10.5415
form	-10.543
par	-10.5448
▁ear	-10.5448
gram	-10.5453
▁port	-10.5455
▁expos	-10.5457
▁repair	-10.5457
▁valuable	-10.5457
▁pump	-10.5457
▁conclusion	-10.5458
▁rush	-10.5458
▁height	-10.5458
▁tape	-10.5472
ory	-10.5486
scale	-10.5496
▁bias	-10.5499
▁season	-10.5501
▁crash	-10.5501
▁evolve	-10.5525
▁attract	-10.5531
▁privilege	-10.5537
▁illness	-10.5538
▁crop	-10.5539
▁cow	-10.5539
▁clinical	-10.5545
▁bush	-10.555
▁statement	-10.5553
▁spa	-10.5581
ai	-10.5582
▁mi	-10.5586
hip	-10.5597
over	-10.5604
▁weapons	-10.561
▁figur	-10.5616
▁confront	-10.5618
▁talent	-10.5619
▁iron	-10.5619
▁shapes	-10.5621
▁hotel	-10.5622
▁label	-10.5625
▁previous	-10.563
▁inspiration	-10.5633
light	-10.5634
▁stock	-10.5648
▁partners	-10.5682
▁arab	-10.5694
▁employ	-10.5698
▁regard	-10.5699
▁implication	-10.5699
▁lawyer	-10.57
▁announc	-10.5701
▁joke	-10.5701
▁op	-10.5702
ping	-10.5703
▁tube	-10.5705
▁brita	-10.5714
▁tear	-10.5719
▁22	-10.572
af	-10.5723
hood	-10.5733
▁counter	-10.5746
ill	-10.5753
▁nigeria	-10.5766
▁arrive	-10.5777
▁fruit	-10.5781
▁steel	-10.5781
▁forgot	-10.5782
▁tall	-10.5782
▁pool	-10.5783
ag	-10.5811
▁stranger	-10.5818
▁va	-10.5824
▁mechanical	-10.5825
▁pu	-10.5831
▁seek	-10.5838
▁kitchen	-10.5864
▁teeth	-10.5864
▁francisco	-10.5864
▁primary	-10.5864
▁empty	-10.5864
▁filter	-10.5865
▁milk	-10.5865
▁cl	-10.5871
tor	-10.5873
▁charles	-10.5874
▁lens	-10.5875
▁criminal	-10.5878
▁assumption	-10.59
▁finance	-10.5911
oid	-10.5913
▁pure	-10.5943
confidence	-10.5947
▁cluster	-10.5947
▁laptop	-10.5947
▁threaten	-10.5972
▁voices	-10.5974
▁suppose	-10.5985
▁infinite	-10.5988
▁relate	-10.6003
▁react	-10.6007
▁pe	-10.6015
▁mountains	-10.6019
▁contract	-10.6025
▁entertain	-10.6031
▁youtube	-10.6031
▁deserve	-10.6031
▁technological	-10.6032
▁lake	-10.6033
▁transportation	-10.6035
▁prediction	-10.6046
▁drone	-10.6047
▁invit	-10.6047
▁thin	-10.605
len	-10.6062
▁translate	-10.6075
▁graphic	-10.6075
▁escape	-10.6079
▁vulnerab	-10.6085
lic	-10.6085
▁tip	-10.6096
▁nest	-10.61
▁happi	-10.6114
nn	-10.6114
▁danger	-10.6115
▁autism	-10.6116
▁section	-10.6116
▁crack	-10.6117
▁radiation	-10.6118
▁passionate	-10.6118
▁apartment	-10.6121
▁jo	-10.6122
rtex	-10.6129
▁biologist	-10.6135
▁comput	-10.6138
▁pilot	-10.6138
▁pin	-10.6141
▁activit	-10.6152
▁soft	-10.6155
▁min	-10.6171
rice	-10.618
▁logic	-10.6184
▁apparent	-10.6201
▁molecular	-10.6201
▁queen	-10.6202
▁fiction	-10.6202
▁status	-10.6202
▁poem	-10.6202
▁unknown	-10.6203
▁participate	-10.6204
▁2008	-10.6206
▁ray	-10.6206
lit	-10.621
▁sheet	-10.6211
▁symmetr	-10.6212
▁terroris	-10.6213
▁expectation	-10.6214
foot	-10.6254
▁israel	-10.6273
▁calling	-10.6281
▁pan	-10.6286
▁darwin	-10.6287
for	-10.6287
▁calculate	-10.6288
▁harvard	-10.6288
▁plot	-10.6288
▁iphone	-10.6288
▁reference	-10.6289
▁jail	-10.6289
▁infection	-10.6293
▁organize	-10.6299
▁pink	-10.63
▁needle	-10.6303
▁appreciate	-10.6324
▁comfort	-10.6327
▁polic	-10.6346
▁geo	-10.635
▁heal	-10.6363
▁dece	-10.6368
▁circumstance	-10.6375
▁client	-10.6375
▁concrete	-10.6375
▁length	-10.6375
▁ritual	-10.6375
▁internal	-10.6375
▁dirt	-10.6376
▁observation	-10.6377
▁activist	-10.6389
▁knee	-10.6392
▁raw	-10.6408
▁secure	-10.6413
▁grain	-10.6414
▁importan	-10.6434
▁swim	-10.6439
▁titan	-10.6459
▁false	-10.6462
▁attend	-10.6464
▁grab	-10.6464
ible	-10.6465
▁awareness	-10.6467
▁harm	-10.647
▁exchange	-10.647
▁23	-10.6504
▁plus	-10.651
▁jan	-10.6516
▁abstract	-10.6546
▁england	-10.6551
▁illegal	-10.6551
▁michael	-10.6551
▁firm	-10.6551
▁shut	-10.6552
▁author	-10.6578
▁inform	-10.6612
▁electron	-10.6618
▁busy	-10.6626
▁islam	-10.6638
▁advice	-10.664
▁vessel	-10.664
▁harvest	-10.664
▁elder	-10.6641
▁loop	-10.6641
▁severe	-10.6642
ught	-10.6646
cal	-10.6649
▁chart	-10.6656
▁upper	-10.6675
▁magnetic	-10.6676
▁mc	-10.6683
▁musical	-10.6687
▁cast	-10.6693
▁danc	-10.6709
▁handle	-10.6712
▁economi	-10.6718
▁trend	-10.6724
▁oppos	-10.673
▁pacific	-10.673
▁stretch	-10.673
▁symptom	-10.673
▁unusual	-10.673
▁japanese	-10.6731
▁clever	-10.6733
hu	-10.6734
ile	-10.6734
▁marine	-10.6739
cent	-10.6741
▁clothes	-10.6746
▁grandfather	-10.6746
▁pot	-10.6766
▁improv	-10.6773
▁em	-10.6783
▁entrepreneurs	-10.6795
▁por	-10.6802
▁breathe	-10.6805
▁automatic	-10.6808
▁reverse	-10.6816
▁select	-10.6818
▁tea	-10.6819
▁2010	-10.6821
▁curiosity	-10.6821
▁ingredient	-10.6821
▁penguin	-10.6821
▁vertical	-10.6821
▁instant	-10.6821
▁thick	-10.6822
▁panel	-10.6823
▁teenager	-10.6829
▁emerge	-10.6829
▁gi	-10.6832
▁suck	-10.6833
▁younger	-10.6847
▁hat	-10.6853
▁wine	-10.6854
▁wherea	-10.6863
▁former	-10.6874
▁trans	-10.6875
▁dense	-10.6889
▁prototype	-10.6902
▁myth	-10.6903
▁favor	-10.6913
▁illusion	-10.6913
▁inevitabl	-10.6913
▁relevant	-10.6913
▁staff	-10.6913
▁implement	-10.6913
▁sphere	-10.6913
▁productive	-10.6919
▁droppe	-10.6923
▁musician	-10.6923
▁contribute	-10.6938
tar	-10.695
▁gut	-10.6952
mak	-10.6966
▁weak	-10.6977
rr	-10.6979
▁union	-10.698
half	-10.6987
▁pi	-10.699
▁islands	-10.6996
▁habitat	-10.7001
▁globe	-10.7005
▁paradigm	-10.7005
▁phrase	-10.7005
▁domestic	-10.7005
▁dedicat	-10.7005
▁advertis	-10.7006
▁innovative	-10.7006
▁split	-10.7006
▁pollution	-10.7007
val	-10.7008
▁pour	-10.7009
▁habit	-10.701
▁defense	-10.7018
▁sir	-10.7023
▁pregnan	-10.7043
ax	-10.7053
▁cord	-10.7064
▁names	-10.7076
▁russia	-10.7084
▁admit	-10.7099
▁centuries	-10.7099
▁lecture	-10.7099
▁barrier	-10.7099
▁obama	-10.7099
▁flie	-10.7101
▁3,000	-10.7104
▁agent	-10.7115
▁storm	-10.7119
▁microscope	-10.7121
▁emergenc	-10.714
▁obes	-10.7158
▁194	-10.7173
▁consume	-10.7176
tech	-10.7183
▁prefer	-10.7193
destruction	-10.7193
▁contrast	-10.7193
▁mathematician	-10.7193
▁sophisticate	-10.7193
▁sculpture	-10.7193
▁password	-10.7194
▁greenhouse	-10.7194
▁angle	-10.7195
▁sail	-10.7195
▁drill	-10.7198
▁adam	-10.7199
▁para	-10.7202
▁tie	-10.7203
▁decline	-10.7212
▁ab	-10.7214
ches	-10.7215
▁violent	-10.7224
▁swede	-10.7226
aking	-10.7229
▁celebrate	-10.723
▁script	-10.7244
▁pat	-10.7247
han	-10.7255
▁rap	-10.7269
▁capitalis	-10.7272
ki	-10.7274
rate	-10.7274
▁dh	-10.7277
▁dress	-10.7281
▁monitor	-10.7282
▁cart	-10.7286
surance	-10.7288
▁september	-10.7288
▁unexpected	-10.7288
▁ultra	-10.7289
▁instruction	-10.7289
▁boom	-10.7289
▁airport	-10.729
▁collaboration	-10.729
▁nerve	-10.7298
▁pill	-10.7298
▁laboratory	-10.7303
▁sil	-10.7307
▁experienc	-10.7307
▁describ	-10.7317
▁magn	-10.7321
aving	-10.7324
▁appropriate	-10.7326
▁officer	-10.7334
▁flag	-10.7339
▁mile	-10.7349
▁command	-10.7352
▁engaged	-10.7368
▁pit	-10.737
▁repeat	-10.7375
▁fascinat	-10.738
▁frustrat	-10.738
▁chimpanzee	-10.7385
▁higgs	-10.7385
▁privacy	-10.7385
▁scratch	-10.7385
▁predator	-10.7385
▁christian	-10.7385
▁fisher	-10.7386
▁amazon	-10.7387
▁improvement	-10.739
▁participat	-10.7428
ect	-10.7435
▁eggs	-10.7443
▁lock	-10.745
▁tax	-10.7453
▁roads	-10.7457
what	-10.7471
▁whales	-10.7476
▁orchestra	-10.7482
▁behave	-10.7482
▁boring	-10.7482
▁humor	-10.7486
▁1990	-10.7488
▁bin	-10.7497
▁tag	-10.7503
▁heads	-10.7503
▁stronger	-10.7532
verse	-10.7538
▁brave	-10.7541
12	-10.7551
ov	-10.7567
▁neuro	-10.757
▁ge	-10.7576
▁absorb	-10.758
▁permanent	-10.758
▁depth	-10.758
▁evil	-10.758
▁welcome	-10.758
▁flash	-10.7581
▁meaningful	-10.7582
▁1980	-10.7586
▁efficienc	-10.7602
▁frequenc	-10.7604
▁cheat	-10.7608
▁lion	-10.7615
▁poster	-10.7632
▁hous	-10.7632
▁tap	-10.7635
▁dogs	-10.7636
▁pet	-10.7637
▁tour	-10.7646
▁bees	-10.7653
▁har	-10.7673
▁alzheimer	-10.7679
▁corporation	-10.7679
▁pakistan	-10.7679
▁polio	-10.7679
▁flood	-10.7679
▁animation	-10.7679
▁arrest	-10.7679
▁phase	-10.7679
▁attitude	-10.7679
▁orange	-10.768
▁simulation	-10.768
call	-10.7681
▁exhibition	-10.7682
▁wireless	-10.7682
▁polar	-10.7683
▁shoulder	-10.7687
▁style	-10.7694
▁photographer	-10.7734
▁relie	-10.7734
▁cable	-10.7745
▁fabric	-10.7749
▁reject	-10.7779
▁council	-10.7779
▁exploit	-10.7779
▁regret	-10.7779
▁thumb	-10.7779
za	-10.7779
▁framework	-10.7779
▁latin	-10.778
▁commitment	-10.778
back	-10.7782
▁route	-10.7783
▁bible	-10.7783
▁objective	-10.779
▁bay	-10.7794
▁tower	-10.7795
▁pile	-10.7795
▁weigh	-10.7798
▁sports	-10.78
▁inequalit	-10.7808
▁committ	-10.7812
▁percentage	-10.7812
▁sensitive	-10.7829
▁classic	-10.7832
pro	-10.7844
▁mar	-10.7871
truck	-10.7878
▁authentic	-10.788
▁immune	-10.788
▁liberal	-10.788
▁license	-10.788
▁tank	-10.788
▁steal	-10.788
▁regime	-10.788
▁2009	-10.7884
▁gray	-10.7887
bot	-10.7915
▁grass	-10.792
ake	-10.7921
▁exception	-10.7924
ina	-10.7943
▁bug	-10.7955
▁steve	-10.7967
▁del	-10.7971
▁associat	-10.7979
power	-10.798
room	-10.7982
▁crucial	-10.7982
▁explosion	-10.7982
▁silicon	-10.7982
▁bicycle	-10.7982
▁antarctic	-10.7982
▁club	-10.7982
▁laser	-10.7985
▁twin	-10.7993
▁feeding	-10.7993
lf	-10.8003
▁limb	-10.8003
▁burning	-10.8013
▁prisoner	-10.8017
▁advanc	-10.8024
▁che	-10.8034
▁comfortabl	-10.8038
▁resolution	-10.8044
▁distribut	-10.8057
▁asteroid	-10.8085
▁cyber	-10.8085
▁hyper	-10.8085
▁silent	-10.8086
▁shame	-10.8086
▁download	-10.8087
▁agreed	-10.8087
▁gps	-10.809
▁demonstrate	-10.8093
▁asset	-10.8097
▁presentation	-10.8101
chi	-10.8105
▁nose	-10.8112
▁highway	-10.8129
icity	-10.813
▁file	-10.8135
▁engag	-10.815
▁exten	-10.8151
▁worm	-10.8152
▁shake	-10.8175
▁hack	-10.8178
▁bee	-10.818
▁install	-10.8187
▁exponential	-10.8189
▁physician	-10.8189
▁adventure	-10.8189
▁spiritual	-10.8189
▁footprint	-10.8189
▁interactive	-10.8194
▁breed	-10.8195
▁behavioral	-10.8197
▁van	-10.82
▁paris	-10.8204
▁theme	-10.8207
▁meme	-10.821
▁academic	-10.8215
ngry	-10.8228
▁educational	-10.8229
▁div	-10.8255
▁perceive	-10.827
▁tim	-10.827
▁99	-10.8271
▁solid	-10.8291
▁afternoon	-10.8294
▁froze	-10.8294
▁surveillance	-10.8294
▁ceo	-10.8297
▁rely	-10.8297
either	-10.8305
▁ii	-10.8309
▁russian	-10.8311
oven	-10.8384
▁uncle	-10.84
▁correspond	-10.8401
▁complain	-10.8401
▁recognition	-10.8401
▁telephone	-10.8401
▁transplant	-10.8401
▁affair	-10.8401
▁shall	-10.8401
▁characteristic	-10.8402
▁poetry	-10.8402
▁review	-10.8403
▁painful	-10.8404
▁whale	-10.8407
▁overall	-10.8409
▁golden	-10.8409
▁guide	-10.8423
▁rose	-10.8438
etic	-10.8439
▁prepared	-10.8446
▁windows	-10.8446
hen	-10.8455
▁citizen	-10.8458
▁dominat	-10.8463
▁wondered	-10.8473
▁cloth	-10.849
▁refer	-10.8492
▁depress	-10.8504
▁knock	-10.8508
▁implant	-10.8508
▁embedded	-10.8508
oxide	-10.8508
▁seal	-10.8509
▁martin	-10.851
▁selection	-10.8514
▁dust	-10.8516
▁hire	-10.8522
▁homes	-10.8522
▁obsess	-10.8523
▁rocks	-10.8524
ories	-10.853
ung	-10.8537
▁authority	-10.8542
▁spaces	-10.8547
▁conventional	-10.8547
▁tu	-10.8551
ility	-10.8609
▁glacier	-10.8617
▁shadow	-10.8617
▁skull	-10.8617
▁piano	-10.8617
sahara	-10.8617
▁defend	-10.8617
▁elite	-10.8618
▁horrible	-10.862
▁5,000	-10.862
▁lifestyle	-10.862
▁measurement	-10.8629
▁clar	-10.8635
▁blame	-10.8636
▁meal	-10.8637
▁mice	-10.8637
house	-10.8638
▁boxe	-10.8652
80	-10.8659
▁mode	-10.8665
▁bost	-10.8666
▁farmer	-10.8668
▁jun	-10.8678
▁magnet	-10.8684
ivity	-10.8698
stone	-10.8705
berg	-10.8706
▁owner	-10.8718
cher	-10.8722
▁trace	-10.8725
▁egypt	-10.8726
▁imagin	-10.8726
▁chicago	-10.8727
▁revenue	-10.8727
▁compos	-10.8727
▁drove	-10.8727
▁observ	-10.8727
▁chaos	-10.8727
▁fluid	-10.8728
▁skeleton	-10.8729
▁greek	-10.8729
ologist	-10.873
▁kan	-10.873
▁desperate	-10.8731
▁hook	-10.8736
▁cash	-10.8739
bal	-10.8742
▁presence	-10.8749
▁portrait	-10.8754
▁pitch	-10.8754
▁bless	-10.8755
▁resist	-10.8773
down	-10.8775
long	-10.878
▁wal	-10.8784
well	-10.8788
▁digni	-10.8788
▁hub	-10.8788
▁sam	-10.8798
pit	-10.8814
▁column	-10.8838
▁illustrate	-10.8838
▁intervention	-10.8838
▁transparency	-10.8838
▁database	-10.8838
▁fake	-10.8839
▁mentor	-10.8843
▁headline	-10.8845
▁par	-10.8845
▁hunger	-10.8846
▁beside	-10.8852
▁tech	-10.8858
▁linked	-10.8864
▁wash	-10.887
iness	-10.8881
▁neuron	-10.8885
▁demo	-10.8893
▁ugl	-10.892
▁liver	-10.8932
rous	-10.8935
ual	-10.8944
▁printer	-10.8944
▁murder	-10.895
▁parallel	-10.895
▁suspect	-10.895
▁dictionar	-10.895
▁pretend	-10.895
▁boil	-10.8955
▁afterward	-10.8959
writ	-10.8976
mark	-10.8977
▁palm	-10.8987
▁processe	-10.8989
▁rescue	-10.8991
teen	-10.9005
▁shell	-10.9008
▁compete	-10.9011
town	-10.9013
▁bend	-10.9024
▁clouds	-10.9028
▁productivit	-10.9028
▁transfer	-10.9045
ula	-10.9055
▁item	-10.9063
▁pyramid	-10.9064
▁christmas	-10.9064
▁distant	-10.9064
▁promote	-10.9064
▁ti	-10.9065
▁psychological	-10.9069
▁suicide	-10.907
▁cam	-10.9095
▁youth	-10.9097
aa	-10.9119
source	-10.9128
▁floating	-10.9131
▁philosoph	-10.9132
▁sel	-10.9139
▁densit	-10.9149
▁struggl	-10.916
▁deploy	-10.9176
▁combin	-10.9179
▁scream	-10.9179
▁expedition	-10.9179
▁mushroom	-10.9179
▁genius	-10.9179
▁wound	-10.9179
▁session	-10.9179
▁audio	-10.9179
▁confuse	-10.9179
▁jew	-10.918
▁isolat	-10.9182
▁acid	-10.9185
▁representation	-10.9192
▁chest	-10.9195
▁integrat	-10.9225
tz	-10.923
▁flip	-10.9242
▁strip	-10.9246
▁elect	-10.925
▁additional	-10.9256
▁smok	-10.9259
▁pray	-10.9261
▁stepp	-10.9263
gun	-10.9271
▁journal	-10.9271
▁stor	-10.9274
▁merc	-10.9277
win	-10.9289
▁reduc	-10.9293
20	-10.9293
▁candidate	-10.9295
▁concert	-10.9295
▁rainforest	-10.9295
▁federal	-10.9295
▁octo	-10.9295
▁tight	-10.9296
▁optimistic	-10.9296
▁leap	-10.9296
▁desk	-10.9297
▁hungry	-10.9297
▁motivation	-10.9299
▁vital	-10.93
gue	-10.9311
▁consistent	-10.9319
▁choos	-10.934
▁wings	-10.9343
▁settl	-10.9354
▁mayor	-10.9363
▁excite	-10.9366
▁pal	-10.9373
lock	-10.9381
▁carri	-10.939
▁proof	-10.939
▁shipp	-10.9396
▁korea	-10.9398
▁accomplish	-10.941
▁corporate	-10.9413
▁miracle	-10.9413
▁passenger	-10.9413
▁trigger	-10.9413
▁compound	-10.9413
▁earthquake	-10.9413
▁ooh	-10.9413
▁subtle	-10.9413
▁initiative	-10.9414
▁sc	-10.9419
▁opera	-10.9421
▁dear	-10.9426
▁sal	-10.943
▁psycholog	-10.943
▁birthday	-10.9431
▁mary	-10.9433
zi	-10.9439
▁edit	-10.9444
▁eastern	-10.945
▁ears	-10.945
▁prepar	-10.9458
▁pm	-10.9468
▁functional	-10.9468
▁anger	-10.9503
▁excuse	-10.9532
▁judgment	-10.9532
▁narrow	-10.9532
▁obstacle	-10.9532
▁scenario	-10.9532
▁diagram	-10.9532
▁heaven	-10.9532
▁household	-10.9532
▁appeal	-10.9532
▁plent	-10.9532
▁probabilit	-10.9532
rum	-10.9533
▁stack	-10.9534
▁microbe	-10.9534
▁ki	-10.9554
▁generat	-10.9559
▁flo	-10.9567
▁smoke	-10.9569
▁vent	-10.9579
fold	-10.958
▁breaking	-10.959
▁clos	-10.9591
▁peter	-10.9597
▁coin	-10.9598
▁educate	-10.9601
▁disturb	-10.9652
▁identical	-10.9652
▁procedure	-10.9652
▁proportion	-10.9652
▁request	-10.9652
▁prosper	-10.9652
▁trait	-10.9652
▁tuna	-10.9654
▁jim	-10.9657
▁dive	-10.9663
▁introduc	-10.9665
▁intense	-10.9671
▁propose	-10.9683
▁scott	-10.9687
american	-10.969
▁bell	-10.9701
▁holly	-10.9701
plan	-10.9722
▁universit	-10.9725
▁assembl	-10.9726
gi	-10.9727
▁cop	-10.9734
gar	-10.9741
▁hip	-10.9747
▁mat	-10.9754
ani	-10.9762
▁tele	-10.9764
her	-10.9765
▁recogniz	-10.9771
▁courage	-10.9773
▁chocolate	-10.9774
▁chromosome	-10.9774
▁conservative	-10.9774
▁ridiculous	-10.9774
▁terrifi	-10.9774
▁demographic	-10.9774
▁medication	-10.9774
▁ticket	-10.9774
▁utter	-10.9775
▁sunlight	-10.9776
▁2004	-10.978
▁2005	-10.9783
▁replicate	-10.9785
ino	-10.9794
▁accessibl	-10.9795
▁ban	-10.98
▁fears	-10.9801
▁colony	-10.9822
▁fixed	-10.9848
▁cute	-10.9849
▁grave	-10.9849
▁imag	-10.9855
▁dig	-10.9859
ept	-10.9864
▁entrepreneur	-10.9864
▁rhythm	-10.9877
she	-10.9881
maker	-10.9896
▁essence	-10.9898
▁recommend	-10.9898
▁pioneer	-10.9898
▁antibiotic	-10.9898
▁ensure	-10.9898
▁debt	-10.9898
▁domain	-10.9898
▁football	-10.9898
▁overcome	-10.99
▁loan	-10.9904
▁achievement	-10.9905
roll	-10.9909
▁analyze	-10.9928
▁killer	-10.9936
,	-10.9939
century	-10.9941
while	-10.9941
▁boss	-10.9953
class	-10.9955
all	-10.9959
bit	-10.9962
meter	-10.9969
▁corn	-10.9972
rin	-10.9974
▁parking	-10.9977
▁manager	-10.9984
nc	-10.9987
mine	-11.0019
hop	-11.0021
▁description	-11.0023
▁fabulous	-11.0023
▁uganda	-11.0023
▁uncomfortabl	-11.0023
▁commission	-11.0023
▁alarm	-11.0023
▁guard	-11.0023
▁screw	-11.0023
▁mask	-11.0024
▁clue	-11.0025
▁legac	-11.0028
▁sweat	-11.0031
▁output	-11.0034
▁kiss	-11.0044
▁feminist	-11.0047
▁anatom	-11.0049
gh	-11.0064
dollar	-11.0069
▁icon	-11.007
tric	-11.0075
ock	-11.0079
15	-11.0082
▁tune	-11.0083
being	-11.0091
▁rating	-11.0093
▁intention	-11.0096
▁bother	-11.01
▁indicate	-11.0106
▁salt	-11.0131
▁bob	-11.0131
▁incentives	-11.0132
▁ngo	-11.0139
ney	-11.0143
▁optimis	-11.0148
▁chief	-11.0149
▁contemporar	-11.0149
▁immense	-11.0149
▁synthetic	-11.0149
▁traged	-11.0149
▁vegetable	-11.0149
▁wikipedia	-11.0149
▁atlantic	-11.0149
▁reserve	-11.0149
▁guilt	-11.0149
▁haiti	-11.0149
▁toxic	-11.0151
▁permission	-11.0152
▁demonstration	-11.0152
▁reported	-11.0153
▁1950	-11.0155
gging	-11.0167
▁colon	-11.0176
state	-11.0182
▁mechanic	-11.0209
▁wip	-11.0215
net	-11.0221
▁dec	-11.0226
▁cul	-11.023
▁artistic	-11.0255
▁gar	-11.0262
▁tunnel	-11.0278
▁dialogue	-11.0278
▁recruit	-11.0278
▁smartphone	-11.0278
▁ceiling	-11.0278
▁infant	-11.0278
▁robert	-11.0278
▁advis	-11.0278
▁partnership	-11.0279
▁galler	-11.0282
▁extinction	-11.0282
▁autonomous	-11.0293
▁abilit	-11.0295
arian	-11.0304
▁fifth	-11.0325
▁sch	-11.0332
hour	-11.034
▁pun	-11.0363
jo	-11.037
igh	-11.0378
▁magical	-11.0399
▁capita	-11.0402
▁mac	-11.0405
▁scann	-11.0407
▁biodivers	-11.0407
▁external	-11.0407
▁intuition	-11.0407
▁spark	-11.0407
▁stroke	-11.0407
▁unbelievabl	-11.0407
▁saturn	-11.0407
▁mutation	-11.0407
▁bump	-11.0407
▁olympic	-11.0408
▁narrator	-11.0408
▁backwards	-11.0408
▁reduction	-11.0409
▁unclear	-11.0409
cro	-11.0411
▁psychologist	-11.0415
▁locked	-11.0422
▁associate	-11.0422
▁wage	-11.0428
stair	-11.043
ridge	-11.0447
▁quit	-11.045
▁pur	-11.0456
▁lone	-11.0459
▁terror	-11.0463
level	-11.0464
organiz	-11.0465
▁occasional	-11.0465
▁jet	-11.047
▁inventor	-11.0477
▁homo	-11.0489
port	-11.0491
▁remov	-11.0497
▁mon	-11.0505
▁bf	-11.0507
▁examin	-11.0512
▁32	-11.0517
top	-11.0524
fare	-11.0525
▁extinct	-11.0534
▁adjust	-11.0539
▁identifie	-11.0539
▁rwanda	-11.0539
▁tweet	-11.0539
▁tropic	-11.0539
▁neural	-11.0539
▁abandon	-11.0539
▁primari	-11.0539
▁comparison	-11.0539
▁copyright	-11.054
▁aircraft	-11.054
▁laid	-11.0545
kind	-11.0547
dependent	-11.0547
▁garb	-11.0577
▁hanging	-11.0589
third	-11.06
forward	-11.06
▁drawn	-11.0623
▁observe	-11.063
▁cooperat	-11.0636
▁gon	-11.0638
▁award	-11.0653
▁interpret	-11.0669
▁supplie	-11.0672
▁confident	-11.0672
▁manhattan	-11.0672
▁nutrient	-11.0672
▁resident	-11.0672
▁sacred	-11.0672
▁stanford	-11.0672
▁voting	-11.0672
▁yield	-11.0672
▁sketch	-11.0672
▁cousin	-11.0672
▁agenda	-11.0672
▁breakthrough	-11.0672
cellular	-11.0673
▁axis	-11.0673
▁array	-11.0673
▁argu	-11.0673
▁chapter	-11.0673
▁editor	-11.068
▁fri	-11.0684
▁slice	-11.0685
▁discipline	-11.0691
▁fla	-11.0692
read	-11.0696
▁mold	-11.0709
▁sens	-11.072
bul	-11.0727
▁shooting	-11.073
▁achiev	-11.0739
cut	-11.074
▁priorit	-11.0754
▁gates	-11.0754
▁preserv	-11.0768
▁pad	-11.0775
▁cri	-11.078
▁2.	-11.0786
▁mate	-11.079
new	-11.0795
▁coat	-11.0798
▁simultaneous	-11.0807
▁district	-11.0807
▁expansion	-11.0807
▁profile	-11.0807
▁devil	-11.0807
▁dump	-11.0808
▁smooth	-11.0808
▁fool	-11.0808
▁clay	-11.0808
▁naked	-11.0809
▁slavery	-11.0809
▁congo	-11.0812
▁jesu	-11.0812
▁slum	-11.0812
▁rome	-11.0814
gged	-11.0817
bar	-11.0817
▁fur	-11.082
▁shout	-11.0823
than	-11.0827
▁norm	-11.0828
▁tick	-11.0839
bola	-11.0847
▁globally	-11.0849
▁believ	-11.085
▁dam	-11.0853
▁philosopher	-11.0853
ulate	-11.0863
▁motivat	-11.0869
point	-11.0871
box	-11.0878
▁je	-11.0878
▁polle	-11.0897
▁poet	-11.0912
▁250	-11.0915
▁communicat	-11.0921
▁wise	-11.0921
▁fin	-11.0926
▁dar	-11.0926
ko	-11.0928
▁diver	-11.0928
▁marker	-11.0933
▁mimic	-11.0941
▁chi	-11.0942
▁frighten	-11.0944
▁paradox	-11.0944
▁decrease	-11.0944
▁helicopter	-11.0944
▁snake	-11.0944
▁signature	-11.0945
▁fo	-11.0946
▁mindset	-11.0946
▁render	-11.0948
▁yard	-11.0948
▁engagement	-11.095
▁arabic	-11.095
▁disc	-11.0953
▁repeated	-11.0958
▁penn	-11.0966
▁methan	-11.0967
▁tackle	-11.0968
▁mail	-11.0975
▁disability	-11.0977
▁bind	-11.0979
arctic	-11.099
▁israeli	-11.0998
▁degrad	-11.1006
▁divers	-11.1009
▁creator	-11.1009
zo	-11.1012
children	-11.1016
▁relations	-11.1028
▁rio	-11.1031
bridge	-11.1032
▁qualit	-11.1034
▁carrie	-11.1038
▁eradicat	-11.1083
▁intuitive	-11.1083
▁renewable	-11.1083
▁texas	-11.1083
▁ghana	-11.1083
▁gesture	-11.1083
▁clock	-11.1084
▁coach	-11.1084
▁anonymous	-11.1084
▁gulf	-11.1084
▁stunt	-11.1084
ami	-11.1085
▁neat	-11.1085
▁quo	-11.1087
▁probe	-11.1087
▁verb	-11.1088
▁leak	-11.111
▁till	-11.1119
▁rent	-11.112
ura	-11.1126
▁integrate	-11.1133
drew	-11.1134
▁tir	-11.1138
bc	-11.1148
▁ham	-11.1153
lp	-11.1157
grow	-11.116
face	-11.1176
▁charit	-11.1198
▁nets	-11.1199
not	-11.1199
▁leverage	-11.1203
ram	-11.1206
can	-11.1207
▁industri	-11.1215
▁dancer	-11.1216
▁inject	-11.1219
▁addict	-11.122
▁slave	-11.1223
▁aesthetic	-11.1224
▁conclude	-11.1224
▁diabetes	-11.1224
▁guarantee	-11.1224
▁recipe	-11.1224
▁pulse	-11.1224
▁sharp	-11.1224
▁burst	-11.1224
▁william	-11.1224
▁fraction	-11.1224
▁twenty	-11.1226
▁delight	-11.1227
▁ecological	-11.1229
▁drum	-11.1233
▁limitation	-11.1233
▁psycho	-11.1235
▁inspiring	-11.1255
ria	-11.1256
▁alter	-11.1266
▁swa	-11.1285
ush	-11.1286
▁preserve	-11.1288
▁yorker	-11.1289
ttle	-11.1289
▁releas	-11.1291
▁shin	-11.1295
▁guns	-11.1295
▁typ	-11.1295
nar	-11.1296
▁via	-11.1304
nder	-11.1306
▁sacrifice	-11.1309
▁bound	-11.1338
▁rip	-11.1342
▁ze	-11.1353
van	-11.1353
▁institutional	-11.1355
▁bath	-11.1366
▁neuroscien	-11.1367
▁spectacular	-11.1367
▁transparent	-11.1367
▁calculation	-11.1367
▁diamond	-11.1367
▁fragment	-11.1367
▁jihad	-11.1367
▁primitive	-11.1367
▁senior	-11.1367
▁robust	-11.1367
▁dragonfl	-11.1367
▁transmission	-11.1367
▁textbook	-11.1368
▁cheese	-11.1368
▁assignment	-11.1369
▁sales	-11.1369
▁rover	-11.1371
▁highlight	-11.1372
▁friday	-11.1374
▁borrow	-11.1375
▁tension	-11.1378
▁lean	-11.1379
▁weapon	-11.1381
▁damn	-11.1383
▁fastest	-11.1384
▁lane	-11.1385
▁shirt	-11.1389
▁spec	-11.1392
▁banks	-11.1395
▁dish	-11.1396
▁fed	-11.1401
▁ethical	-11.1412
▁jer	-11.1425
eb	-11.1425
▁branch	-11.1431
▁surrounding	-11.1432
▁craft	-11.1445
view	-11.1447
▁trauma	-11.147
bri	-11.1472
▁underly	-11.1482
▁dial	-11.1486
uit	-11.1487
▁rape	-11.149
col	-11.15
▁cu	-11.1505
▁nano	-11.1509
▁strike	-11.1512
dominant	-11.1512
▁disappoint	-11.1512
▁kingdom	-11.1512
▁poison	-11.1512
▁winner	-11.1513
▁collaborator	-11.1516
▁bored	-11.1522
▁50,000	-11.1522
▁cosmi	-11.1524
▁darkness	-11.153
▁rebuild	-11.1538
▁flexibl	-11.1541
ison	-11.1546
▁arc	-11.1548
own	-11.1548
▁replac	-11.155
▁cor	-11.1555
▁def	-11.1557
▁amaz	-11.1558
tial	-11.1564
▁plain	-11.1566
▁transmitt	-11.1587
ou	-11.1607
force	-11.1607
▁crossing	-11.1608
▁nick	-11.1609
fin	-11.1611
▁pose	-11.1615
nia	-11.1617
▁educat	-11.1636
ota	-11.1647
dia	-11.1651
▁drag	-11.1651
▁destin	-11.1656
▁node	-11.1659
▁alcohol	-11.1659
▁athlete	-11.1659
▁encrypt	-11.1659
▁vacation	-11.1659
▁philanthrop	-11.1659
▁bulb	-11.1659
▁regulation	-11.1659
▁jelly	-11.1659
▁broadcast	-11.1659
▁crush	-11.166
▁italian	-11.166
▁systematic	-11.166
thermal	-11.166
▁advocate	-11.1663
▁gang	-11.1666
▁pace	-11.1669
brush	-11.1678
▁rob	-11.1679
▁yo	-11.168
▁automat	-11.1684
▁constraint	-11.1696
ode	-11.1699
▁geographic	-11.17
▁rever	-11.1709
▁bold	-11.1711
▁prepare	-11.1722
▁120	-11.1723
▁rotate	-11.1735
▁195	-11.1753
mbi	-11.1758
audi	-11.1762
▁storytell	-11.1767
cop	-11.177
ulation	-11.1775
▁computation	-11.1779
▁tur	-11.1783
▁gradual	-11.1808
▁entrop	-11.1808
▁flavor	-11.1808
▁strand	-11.1808
▁freak	-11.1808
▁locate	-11.1809
▁ruin	-11.1809
▁condom	-11.1809
▁deaf	-11.1812
▁28	-11.1812
▁peaceful	-11.1813
▁installation	-11.1813
▁bow	-11.1815
alo	-11.1816
▁disabl	-11.1827
▁balls	-11.1832
▁enhance	-11.1832
▁formula	-11.1838
stock	-11.1842
dg	-11.1848
▁joint	-11.1851
▁fra	-11.1851
▁investor	-11.1859
▁lit	-11.1877
▁sanit	-11.1879
ola	-11.1887
▁trap	-11.1887
▁donat	-11.1894
▁native	-11.1901
▁mount	-11.1905
:	-11.1906
▁bats	-11.1909
▁boundar	-11.1912
▁projection	-11.1912
▁pant	-11.193
▁hormone	-11.196
▁origami	-11.196
▁pharmaceutical	-11.196
▁unprecedented	-11.196
▁anxiety	-11.196
▁combat	-11.196
▁inherent	-11.196
tangible	-11.196
▁twist	-11.196
▁rabbi	-11.196
▁retina	-11.196
▁fortune	-11.196
▁extension	-11.196
ville	-11.1961
▁export	-11.1961
▁venture	-11.1961
▁garage	-11.1961
▁donor	-11.1963
▁disconnect	-11.1965
▁za	-11.1965
▁crew	-11.1966
▁punch	-11.1967
▁genetically	-11.1977
▁survivor	-11.1983
▁20,000	-11.1983
▁dere	-11.2011
▁fer	-11.2014
▁virgin	-11.2016
ek	-11.2019
▁mixed	-11.2028
▁gri	-11.2033
▁navigate	-11.2033
rapped	-11.2033
▁jar	-11.2047
lad	-11.2052
space	-11.2066
ome	-11.2075
look	-11.2077
▁ratio	-11.2078
▁mall	-11.2089
play	-11.2106
▁legislat	-11.2114
▁bizarre	-11.2114
▁burden	-11.2114
▁terrifying	-11.2114
▁trajector	-11.2114
▁arrow	-11.2114
▁pigeon	-11.2114
▁currenc	-11.2114
pr	-11.2115
▁egyptian	-11.2115
▁marry	-11.2116
▁neck	-11.2116
▁stole	-11.2116
▁sink	-11.2117
▁fragile	-11.2118
▁jaw	-11.2122
▁bud	-11.2129
▁exhaust	-11.2151
▁disrupt	-11.216
▁cats	-11.218
▁shopp	-11.2196
▁overwhelming	-11.2196
▁linear	-11.2212
▁tar	-11.2219
soft	-11.2229
▁programmer	-11.2232
hur	-11.2233
▁acknowledge	-11.2239
▁silver	-11.2239
print	-11.2248
▁33	-11.2253
▁attribute	-11.2255
▁cod	-11.2257
met	-11.2261
,500	-11.2269
▁empire	-11.227
▁luxur	-11.227
▁prosthetic	-11.227
▁sandwich	-11.227
▁vacuum	-11.227
▁confirm	-11.227
▁tragic	-11.227
▁smith	-11.227
▁trash	-11.227
▁augment	-11.227
▁spell	-11.227
▁bathroom	-11.227
▁leaf	-11.2271
▁consist	-11.2271
▁hitting	-11.2275
▁variable	-11.2275
▁tiger	-11.2276
▁comic	-11.2278
▁intend	-11.228
▁trends	-11.2282
▁diagnos	-11.2283
made	-11.2283
▁grace	-11.2284
▁consum	-11.2287
▁fanc	-11.2296
▁failing	-11.2301
ji	-11.2301
urg	-11.2303
▁package	-11.2306
▁patch	-11.2323
▁fee	-11.2331
▁ko	-11.2333
▁cheer	-11.2333
chan	-11.2352
bro	-11.2352
▁mineral	-11.2356
▁sew	-11.2358
▁format	-11.2361
▁laughing	-11.2391
▁reconstruct	-11.2424
mart	-11.2426
▁scholar	-11.2428
▁deforest	-11.2429
▁furniture	-11.2429
▁oxford	-11.2429
▁structural	-11.2429
▁soviet	-11.2429
▁automobile	-11.2429
▁brutal	-11.2429
▁bullet	-11.2429
▁'90	-11.2429
▁primate	-11.2429
▁baseball	-11.2429
▁collaborative	-11.2429
▁sheep	-11.2429
▁declar	-11.243
▁spacecraft	-11.243
▁index	-11.2431
▁auto	-11.2435
▁kit	-11.2436
▁brun	-11.2437
▁restore	-11.2439
▁upset	-11.244
▁detector	-11.2447
▁ego	-11.2453
▁determined	-11.2465
ella	-11.2467
▁astronomer	-11.2468
▁interior	-11.2473
▁eric	-11.2476
▁panic	-11.2477
▁custom	-11.2485
▁tribe	-11.2492
▁relation	-11.2492
▁hid	-11.2502
▁contribut	-11.2534
▁fate	-11.2534
▁poly	-11.2537
▁faci	-11.2539
▁glamo	-11.2543
engineer	-11.2546
▁analyz	-11.2551
▁charl	-11.2558
book	-11.2558
▁sensory	-11.2559
▁10-	-11.2572
▁scal	-11.2579
▁victor	-11.2589
▁civic	-11.259
▁enterprise	-11.259
▁participant	-11.259
▁potato	-11.259
▁shrink	-11.259
▁ubiquit	-11.259
▁vietnam	-11.259
▁compell	-11.259
▁annual	-11.259
▁defeat	-11.259
▁bribe	-11.259
▁viral	-11.259
▁terra	-11.259
▁canopy	-11.2591
▁representative	-11.2592
▁pause	-11.2593
▁translation	-11.2593
▁gear	-11.2594
▁coca	-11.2598
▁agreement	-11.2598
▁stake	-11.26
kar	-11.2602
▁passive	-11.2602
▁descend	-11.2602
▁prince	-11.2607
▁subway	-11.2607
▁hunter	-11.2628
▁fulfill	-11.2633
▁gate	-11.2639
▁urge	-11.2639
ocin	-11.2643
lbert	-11.2652
mar	-11.2654
▁glad	-11.2656
▁transmit	-11.2669
standing	-11.27
▁profession	-11.2704
cla	-11.2709
▁refuse	-11.2718
fall	-11.2743
▁excellen	-11.275
▁routine	-11.2754
▁theoretical	-11.2754
▁august	-11.2754
▁ceremon	-11.2754
▁humanitarian	-11.2754
▁intrigu	-11.2754
▁reinvent	-11.2754
▁thrill	-11.2754
▁shelter	-11.2754
▁accent	-11.2754
▁lord	-11.2754
▁calorie	-11.2754
▁electrode	-11.2755
▁lamp	-11.2756
▁brick	-11.2756
▁blend	-11.2757
▁personaliz	-11.2757
▁sensation	-11.2758
▁4,000	-11.2758
▁islamic	-11.276
▁upload	-11.2762
▁aunt	-11.2764
▁ape	-11.2767
▁reflection	-11.277
▁oxy	-11.2773
▁pie	-11.2773
▁hunt	-11.2783
▁astonishing	-11.2789
▁agricultural	-11.279
▁intens	-11.2804
▁cube	-11.2813
▁gathering	-11.2825
▁emi	-11.2841
▁shit	-11.2843
▁upside	-11.2846
▁batter	-11.2875
ju	-11.2884
▁explorer	-11.2903
org	-11.2905
▁activat	-11.2907
▁goat	-11.2908
▁exhibit	-11.2916
ear	-11.2917
▁argentin	-11.2921
▁default	-11.2921
▁frog	-11.2921
▁microphone	-11.2921
▁distract	-11.2921
▁paralyz	-11.2921
▁florid	-11.2921
▁honey	-11.2921
▁mysterious	-11.2921
▁generous	-11.2922
▁calm	-11.2922
▁jack	-11.2924
▁contribution	-11.2926
▁homework	-11.2928
▁mill	-11.2932
matic	-11.2938
▁pipe	-11.2942
▁competitive	-11.2944
▁hackers	-11.295
train	-11.2953
▁0.	-11.2954
▁zip	-11.2955
▁scanner	-11.2959
▁tire	-11.2963
animate	-11.2965
hole	-11.2966
▁span	-11.297
▁farming	-11.2987
▁mapping	-11.3007
▁continuous	-11.3024
▁hunting	-11.3025
▁academ	-11.3047
▁coordinat	-11.3068
▁horizon	-11.3072
▁ken	-11.3073
hal	-11.3074
dom	-11.3076
▁prop	-11.3079
▁mega	-11.3081
▁plug	-11.3086
▁ideolog	-11.3088
▁blank	-11.309
▁awkward	-11.309
▁collision	-11.309
▁ethiopia	-11.309
▁hawaii	-11.309
▁tsunami	-11.309
▁discriminat	-11.309
▁knife	-11.309
▁wrist	-11.309
▁dawn	-11.309
▁fence	-11.309
▁distort	-11.309
▁cotton	-11.309
▁febr	-11.309
▁equit	-11.309
▁torture	-11.3091
▁winning	-11.3091
▁grasp	-11.3091
▁diagnosis	-11.3092
▁keyboard	-11.3093
▁vibration	-11.3093
▁utilit	-11.3095
▁burie	-11.3095
▁weekend	-11.3097
person	-11.3097
▁association	-11.3098
▁flute	-11.3102
▁nuts	-11.3103
rom	-11.3118
▁makers	-11.3118
▁lego	-11.3132
ali	-11.314
▁glamor	-11.3141
▁soap	-11.3142
rid	-11.3146
ix	-11.3152
ball	-11.3156
▁warning	-11.3158
▁bull	-11.3162
gie	-11.3175
▁harr	-11.3175
▁rub	-11.318
▁occasion	-11.3186
▁appreciat	-11.319
dra	-11.3192
▁ob	-11.3193
▁lucki	-11.3213
ama	-11.3218
▁tony	-11.3227
free	-11.3232
▁determin	-11.3248
▁electro	-11.325
fast	-11.3256
ux	-11.3257
▁astronaut	-11.3262
▁curriculum	-11.3262
▁dilemma	-11.3262
▁matrix	-11.3262
▁palestinian	-11.3262
▁substance	-11.3262
▁triangle	-11.3262
▁uniform	-11.3262
▁expectanc	-11.3263
▁supermarket	-11.3263
▁1,	-11.3263
▁thread	-11.3263
▁convey	-11.3263
▁intersection	-11.3264
▁woke	-11.3265
▁mood	-11.3266
▁kev	-11.3267
▁compassionate	-11.3268
▁manual	-11.3268
▁forgive	-11.3271
▁herita	-11.3271
▁2001	-11.3271
some	-11.3273
▁portion	-11.3274
▁static	-11.3278
▁hol	-11.328
place	-11.3286
shot	-11.3294
▁logical	-11.3299
▁spoken	-11.3301
▁homeless	-11.3303
▁producer	-11.3303
▁medi	-11.3304
▁entit	-11.3311
▁incident	-11.3315
▁tent	-11.332
▁endless	-11.3322
▁delivery	-11.3334
▁accus	-11.3343
▁float	-11.3345
▁newton	-11.3352
▁mt	-11.3355
▁gam	-11.3361
assembl	-11.3406
two	-11.341
zero	-11.3411
▁sexy	-11.3414
▁asian	-11.3433
▁hydro	-11.3438
▁fault	-11.3438
▁genuine	-11.3438
▁grateful	-11.3438
▁transaction	-11.3438
▁gandhi	-11.3438
▁leather	-11.3438
▁tattoo	-11.3438
▁inherit	-11.3438
▁spanish	-11.3439
▁josh	-11.3439
▁wedding	-11.344
▁kidney	-11.3443
▁pathway	-11.3453
▁innocent	-11.3462
▁synthesiz	-11.3467
▁reporter	-11.3471
▁historic	-11.3472
▁ironic	-11.3478
▁ignor	-11.3481
pox	-11.3482
▁aspiration	-11.3487
ata	-11.3487
▁burned	-11.3502
▁archive	-11.3509
▁realm	-11.351
take	-11.3524
▁specialize	-11.3534
▁accelerat	-11.3542
▁independen	-11.3551
▁persist	-11.3554
▁wrap	-11.3572
▁tendenc	-11.3574
▁mud	-11.3575
▁investigat	-11.3582
▁disagree	-11.3583
inary	-11.3586
rlin	-11.359
▁architectur	-11.3592
iro	-11.3594
▁quest	-11.3612
▁festival	-11.3616
▁parliament	-11.3616
▁stomach	-11.3616
▁taliban	-11.3616
▁veteran	-11.3616
▁align	-11.3616
▁altitude	-11.3616
▁foster	-11.3617
▁jeff	-11.3617
▁unconscious	-11.3617
▁glow	-11.3618
▁imitat	-11.3618
▁spill	-11.3618
▁contradiction	-11.3618
▁confine	-11.3619
▁concentration	-11.3619
▁racis	-11.3621
▁interpretation	-11.3621
▁jud	-11.3623
▁invad	-11.3625
▁minorit	-11.3626
▁wheat	-11.3629
▁explode	-11.3639
▁sneaker	-11.3641
▁manipulate	-11.3674
▁accelerate	-11.368
▁rope	-11.3686
▁pale	-11.3694
hc	-11.3696
▁experimental	-11.3698
▁nutrition	-11.3702
▁motivate	-11.3709
▁celebrat	-11.3723
▁jumped	-11.3725
▁displac	-11.3727
▁tribes	-11.3728
▁shine	-11.3741
▁ethic	-11.3742
related	-11.3766
▁previously	-11.3772
▁trac	-11.3773
▁geograph	-11.3775
stream	-11.3776
direct	-11.3777
loved	-11.3783
▁rotat	-11.3786
▁1.	-11.379
▁clon	-11.379
▁millenni	-11.3791
▁distinct	-11.3792
▁elevat	-11.3795
▁compromise	-11.3798
▁constitution	-11.3798
▁enlighten	-11.3798
▁hierarch	-11.3798
▁occupy	-11.3798
▁pandemic	-11.3798
▁register	-11.3798
▁relax	-11.3798
▁territor	-11.3798
▁dutch	-11.3798
▁gorge	-11.3798
▁turkey	-11.3798
▁barrel	-11.3798
▁contrar	-11.3798
▁entry	-11.3799
▁collid	-11.3799
▁scrap	-11.3799
▁libert	-11.38
orient	-11.38
▁retirement	-11.3801
▁chef	-11.3802
▁chile	-11.3802
▁cake	-11.3803
▁deriv	-11.3805
▁vary	-11.3807
▁airline	-11.3808
▁henr	-11.3815
▁strategic	-11.3823
▁wrapp	-11.3825
▁suggestion	-11.3828
▁mri	-11.3832
▁singer	-11.3832
cover	-11.3833
▁documentar	-11.3833
▁assum	-11.3835
▁wider	-11.3837
▁distribute	-11.384
▁logg	-11.3858
▁offering	-11.3863
▁sin	-11.3865
▁beam	-11.3867
omb	-11.3889
▁insist	-11.389
▁assist	-11.3895
▁reliabl	-11.3912
▁uncertaint	-11.3919
▁glue	-11.3936
▁marc	-11.3937
cha	-11.3957
▁captur	-11.396
▁95	-11.3961
efficient	-11.3964
▁crystal	-11.3983
▁bangladesh	-11.3983
▁cliff	-11.3983
▁crawl	-11.3983
▁encouraging	-11.3983
▁grandparent	-11.3983
▁immigrant	-11.3983
▁schizophreni	-11.3983
▁serving	-11.3983
▁avatar	-11.3983
▁gravitational	-11.3983
▁temporar	-11.3984
▁aggressive	-11.3984
▁coke	-11.3984
▁koran	-11.3984
▁fox	-11.3985
▁resolve	-11.3985
▁ongoing	-11.3986
▁slim	-11.3986
▁unlock	-11.3988
▁impression	-11.3992
▁manner	-11.3993
▁monitoring	-11.3996
14	-11.3997
▁elegant	-11.3999
▁horizontal	-11.4003
▁dressed	-11.4005
▁blogg	-11.4013
▁distinguish	-11.4017
lash	-11.4031
▁server	-11.4034
▁dumb	-11.4035
uction	-11.404
▁bucks	-11.4052
▁mik	-11.4053
▁hal	-11.4056
▁romantic	-11.4058
▁egg	-11.4061
stage	-11.4066
▁chase	-11.4079
▁wir	-11.4086
▁enabl	-11.4087
▁import	-11.4092
cho	-11.4105
air	-11.4111
▁ku	-11.4112
ania	-11.4123
▁formal	-11.4123
lson	-11.4127
estate	-11.4138
▁maker	-11.4145
▁sport	-11.4145
run	-11.4146
▁bust	-11.4149
▁geometr	-11.4151
▁teenage	-11.4157
four	-11.4158
mission	-11.416
▁mari	-11.4169
▁retire	-11.417
▁spontaneous	-11.4172
▁sponsor	-11.4172
▁administration	-11.4172
▁captain	-11.4172
▁chronic	-11.4172
▁composition	-11.4172
▁leonard	-11.4172
▁magnificent	-11.4172
▁minimum	-11.4172
▁monsoon	-11.4172
▁neanderthal	-11.4172
▁precious	-11.4172
▁inhabit	-11.4172
▁michel	-11.4172
▁fusion	-11.4172
▁carpet	-11.4172
▁compress	-11.4172
▁unhapp	-11.4172
▁mainstream	-11.4173
▁bedroom	-11.4173
▁civilian	-11.4176
▁harness	-11.4177
▁investigation	-11.4177
▁2020	-11.4177
▁duck	-11.4178
▁addiction	-11.4179
▁monte	-11.4185
blew	-11.4188
▁merg	-11.4194
law	-11.4201
▁metric	-11.4203
▁mama	-11.4207
tun	-11.4209
▁helpful	-11.4211
mbo	-11.4221
pan	-11.4225
▁statistical	-11.424
▁planetary	-11.4241
▁jane	-11.4242
▁compet	-11.4255
▁overwhelm	-11.4262
cost	-11.4297
kyo	-11.4307
▁toast	-11.4313
eaten	-11.4315
ency	-11.4318
▁matt	-11.4332
▁beating	-11.434
▁thrive	-11.4342
▁hung	-11.4352
world	-11.4353
▁approximate	-11.4364
▁hybrid	-11.4364
▁inclusive	-11.4364
▁intimate	-11.4364
▁prescription	-11.4364
▁protocell	-11.4364
▁scaffold	-11.4364
▁suspend	-11.4364
▁wheelchair	-11.4364
▁zealand	-11.4364
▁summit	-11.4364
▁stasi	-11.4364
▁warrior	-11.4364
▁crater	-11.4365
▁encode	-11.4365
▁tongue	-11.4365
▁decorat	-11.4365
▁drown	-11.4365
▁moore	-11.4365
▁submit	-11.4366
▁marketplace	-11.4366
▁logo	-11.4367
▁redwood	-11.4368
▁unfold	-11.437
▁appearance	-11.4372
▁junk	-11.4373
▁frustration	-11.4374
▁strain	-11.4374
▁thus	-11.4376
▁blindness	-11.4377
▁drought	-11.4378
▁selfish	-11.4378
▁detection	-11.4382
▁30,000	-11.4382
▁lowest	-11.4392
▁referr	-11.4394
▁embrac	-11.4397
▁classe	-11.4405
▁computational	-11.4409
press	-11.4411
▁upward	-11.4418
uke	-11.4428
▁hardest	-11.4432
▁diplomat	-11.4437
▁sunday	-11.4443
▁meta	-11.4444
▁cage	-11.4447
sight	-11.4456
▁virtue	-11.4463
lia	-11.4471
▁hir	-11.4475
▁edi	-11.4487
▁commit	-11.4492
▁85	-11.4502
▁harmon	-11.4509
▁starv	-11.4521
▁char	-11.4529
▁pond	-11.4537
▁convention	-11.4538
known	-11.4549
oil	-11.4553
sav	-11.4557
▁sculpt	-11.456
▁deliberate	-11.456
▁enzyme	-11.456
▁manuscript	-11.456
▁principal	-11.456
▁shanghai	-11.456
▁tanzania	-11.456
▁drift	-11.4561
▁mutual	-11.4561
▁hawk	-11.4561
▁antenna	-11.4561
▁insane	-11.4561
▁reproduce	-11.4561
▁drunk	-11.4561
▁steer	-11.4561
▁infectious	-11.4562
▁pursuit	-11.4562
▁blink	-11.4563
▁migration	-11.4563
▁spray	-11.4563
▁canvas	-11.4566
▁frontier	-11.4566
▁ipod	-11.4566
▁artwork	-11.4566
▁gala	-11.4567
▁minus	-11.4567
▁realistic	-11.4571
▁workplace	-11.4572
shape	-11.4577
▁korean	-11.4586
titu	-11.4596
horn	-11.4597
ological	-11.4602
▁cycl	-11.4619
▁whistle	-11.4619
▁proven	-11.462
▁jh	-11.4639
eye	-11.4644
▁visualize	-11.4645
▁29	-11.4648
▁swing	-11.4648
▁carolin	-11.465
▁fil	-11.4654
▁lap	-11.4665
▁connectiv	-11.4671
▁atomic	-11.4672
▁mm	-11.4679
bye	-11.4703
▁eliminate	-11.471
.5	-11.4726
▁corrupt	-11.474
▁ambitio	-11.4746
▁execut	-11.4754
▁vari	-11.4757
▁punish	-11.4759
▁quantit	-11.476
▁aristotle	-11.476
▁calculus	-11.476
▁despair	-11.476
▁detroit	-11.476
▁episode	-11.476
▁millimeter	-11.476
▁parachute	-11.476
▁parkinson	-11.476
▁pixel	-11.476
▁protocol	-11.476
▁striking	-11.476
▁syndrome	-11.476
▁tedtalk	-11.476
▁transistor	-11.476
▁diameter	-11.4761
▁yemen	-11.4761
▁chimp	-11.4761
▁chunk	-11.4761
▁depict	-11.4761
▁troop	-11.4761
▁forecast	-11.4761
▁monster	-11.4761
▁backyard	-11.4761
▁oppress	-11.4761
▁desktop	-11.4761
▁reinforce	-11.4761
▁introduction	-11.4761
▁diagnostic	-11.4762
▁chamber	-11.4762
▁pride	-11.4762
▁impressi	-11.4763
▁brad	-11.4764
▁jewel	-11.4764
▁geek	-11.4764
drive	-11.4764
▁texture	-11.4764
▁nurtur	-11.4766
▁phenomenal	-11.4767
▁grabb	-11.4768
▁arise	-11.477
▁pathogen	-11.4771
▁spinn	-11.4774
▁requirement	-11.4776
▁operator	-11.4776
▁alex	-11.4777
stein	-11.4778
▁naive	-11.4782
▁tacti	-11.4782
▁200,000	-11.4783
▁tale	-11.4791
▁worrying	-11.4794
▁exam	-11.4807
▁resilienc	-11.4809
vian	-11.4828
5,000	-11.4831
▁mini	-11.484
▁formation	-11.4848
▁tagg	-11.4861
chu	-11.488
▁pregnanc	-11.4881
▁authorit	-11.4919
▁guid	-11.4923
▁boot	-11.4936
▁acquire	-11.4941
▁mil	-11.4942
use	-11.4945
▁phenomena	-11.4958
shirt	-11.4964
▁exclusive	-11.4965
adequate	-11.4965
violet	-11.4965
▁flick	-11.4965
▁harbor	-11.4965
▁outbreak	-11.4965
▁segment	-11.4965
▁lobby	-11.4965
▁contaminat	-11.4965
▁excess	-11.4965
▁loving	-11.4965
▁surf	-11.4965
▁contest	-11.4965
▁cosmo	-11.4965
▁nonviolen	-11.4965
minute	-11.4965
▁lester	-11.4965
▁cruel	-11.4965
width	-11.4965
▁prostate	-11.4966
▁sidewalk	-11.4966
▁wolf	-11.4967
▁jona	-11.4967
▁attractive	-11.4968
▁visualization	-11.4971
▁flaw	-11.4972
▁belt	-11.4982
▁erect	-11.4983
▁nerd	-11.4988
▁prior	-11.4992
▁bowl	-11.4993
▁update	-11.5001
▁specialist	-11.5015
▁mild	-11.5018
▁anticipate	-11.5018
▁prayer	-11.5031
▁mapp	-11.5034
▁activate	-11.5041
▁optical	-11.5046
▁800	-11.5047
▁chemist	-11.5051
ado	-11.5057
▁rena	-11.5063
aday	-11.5069
▁purchase	-11.5074
▁diploma	-11.5095
grade	-11.5117
▁joe	-11.5123
heart	-11.5151
▁diagnose	-11.5152
born	-11.5155
robi	-11.5159
▁impress	-11.5161
▁rank	-11.5162
▁heavi	-11.517
▁republic	-11.5171
▁cigarette	-11.5173
▁disgust	-11.5173
▁membrane	-11.5173
▁pedestrian	-11.5173
▁singapore	-11.5173
▁whisper	-11.5173
▁retreat	-11.5173
▁loose	-11.5173
▁awake	-11.5173
▁proceed	-11.5173
▁sufficient	-11.5173
▁shore	-11.5173
▁dough	-11.5174
▁hypothesis	-11.5174
▁intensive	-11.5175
war	-11.5177
▁brian	-11.5179
▁dragg	-11.5181
human	-11.5181
▁greenland	-11.5185
▁40,000	-11.5185
▁downtown	-11.5186
▁passage	-11.5187
▁evan	-11.5194
clock	-11.5194
▁buck	-11.5196
▁pursue	-11.5204
▁steven	-11.5204
▁plank	-11.5206
▁deepest	-11.5209
▁neutral	-11.5211
▁playful	-11.5212
▁liberat	-11.5221
burg	-11.5226
unk	-11.5227
▁smil	-11.5232
▁pok	-11.5234
uel	-11.5237
cola	-11.5257
illa	-11.5266
▁sequenc	-11.5272
▁useless	-11.5282
▁branche	-11.5291
▁deposit	-11.5292
▁criticiz	-11.5305
▁fertil	-11.5316
aba	-11.5317
▁popp	-11.5331
▁container	-11.5333
fo	-11.5336
▁reli	-11.5336
rah	-11.535
▁tooth	-11.5355
regulat	-11.5361
▁skelet	-11.5381
▁comp	-11.5382
▁accura	-11.5384
▁consult	-11.5385
▁volcano	-11.5386
▁bronx	-11.5386
▁configuration	-11.5386
▁division	-11.5386
▁electromagnet	-11.5386
▁genomic	-11.5386
▁illustration	-11.5386
▁suppress	-11.5386
▁voyage	-11.5386
▁endanger	-11.5386
▁unemploy	-11.5386
▁miserable	-11.5386
▁temple	-11.5386
▁basketball	-11.5386
▁idiot	-11.5386
▁delay	-11.5386
▁drain	-11.5386
▁swiss	-11.5386
▁bonobo	-11.5386
▁johnson	-11.5387
▁hallucination	-11.5387
▁mono	-11.5387
▁delicio	-11.5388
▁filmmaker	-11.5388
▁harmful	-11.5388
▁fertilizer	-11.5391
▁recall	-11.5393
second	-11.5395
▁adaptation	-11.5397
three	-11.5398
▁critic	-11.5399
▁trailer	-11.5403
▁debri	-11.5408
▁aggregate	-11.5408
▁55	-11.5409
▁decid	-11.5413
erial	-11.5422
▁payment	-11.5423
▁nigerian	-11.5425
▁190	-11.5428
quality	-11.5432
▁sar	-11.5437
▁collaborate	-11.5444
▁seattl	-11.5452
▁emergence	-11.5461
▁gase	-11.5461
▁42	-11.5462
cast	-11.5471
▁bann	-11.5476
▁hug	-11.5479
▁ignoran	-11.5482
aka	-11.5498
▁quad	-11.5504
frontal	-11.5508
▁wander	-11.5523
ius	-11.5532
▁simulate	-11.5533
▁triple	-11.5557
▁mum	-11.5563
▁developer	-11.5575
put	-11.5587
▁yoursel	-11.5588
▁ecolog	-11.5594
ounce	-11.5599
▁assign	-11.5601
▁centimeter	-11.5603
▁hemisphere	-11.5603
▁maximum	-11.5603
▁substantial	-11.5603
▁supreme	-11.5603
▁swallow	-11.5603
▁amateur	-11.5603
▁fifty	-11.5603
▁satisfy	-11.5603
▁stamp	-11.5603
▁cellphone	-11.5603
▁insulin	-11.5603
▁alpha	-11.5603
▁royal	-11.5603
▁exceed	-11.5603
▁germ	-11.5603
▁tomato	-11.5603
▁converg	-11.5604
▁casual	-11.5604
▁mandel	-11.5604
▁indoor	-11.5604
▁pizz	-11.5604
▁julia	-11.5604
▁conceptual	-11.5605
▁cosmolog	-11.5605
▁executive	-11.5605
▁girlfriend	-11.5605
▁iceberg	-11.5605
▁republican	-11.5605
▁workshop	-11.5606
▁legend	-11.5606
▁jean	-11.5606
▁digest	-11.5609
fire	-11.5609
▁pigment	-11.5611
▁rebel	-11.5617
▁shoe	-11.5625
▁arter	-11.5626
step	-11.5628
▁fatal	-11.5628
kill	-11.5641
active	-11.5657
▁concentrate	-11.5657
ouch	-11.5663
▁15-	-11.5663
▁voter	-11.5692
▁shy	-11.5707
▁qua	-11.5725
▁belly	-11.573
▁optic	-11.574
▁shak	-11.5746
▁evolv	-11.5755
▁lawn	-11.5758
▁lotter	-11.5768
grad	-11.5771
▁gree	-11.5786
▁syria	-11.581
▁kite	-11.582
▁stabilit	-11.582
▁manifest	-11.5822
▁instinct	-11.5824
▁initiat	-11.5824
qaeda	-11.5825
▁bamboo	-11.5825
▁devote	-11.5825
▁divorce	-11.5825
▁injustice	-11.5825
▁obtain	-11.5825
▁peculiar	-11.5825
▁purple	-11.5825
▁reputation	-11.5825
▁rethink	-11.5825
▁sibling	-11.5825
▁threshold	-11.5825
▁trivial	-11.5825
▁watson	-11.5825
▁choir	-11.5825
witzer	-11.5825
▁beij	-11.5825
▁november	-11.5825
▁keen	-11.5825
▁kilogram	-11.5826
▁alexand	-11.5826
▁proposition	-11.5826
▁emphasize	-11.5826
▁pirate	-11.5826
▁preference	-11.5826
▁refrigerator	-11.5828
▁whip	-11.5833
▁bleed	-11.5839
▁2002	-11.5841
▁sake	-11.5845
▁preach	-11.5846
▁beaten	-11.5846
▁mic	-11.5848
▁hans	-11.5851
▁lg	-11.5852
▁incentive	-11.5856
generation	-11.586
▁broader	-11.5862
sense	-11.5868
tta	-11.5878
▁alum	-11.5885
ini	-11.5887
▁scare	-11.589
eval	-11.5904
▁shower	-11.5905
▁ram	-11.5908
▁requir	-11.5913
▁sale	-11.5914
▁gentle	-11.5925
▁tourist	-11.5941
iful	-11.5945
▁350	-11.5965
cuba	-11.5971
▁propos	-11.5989
▁dri	-11.5999
▁shap	-11.6012
▁separat	-11.6048
▁abundance	-11.6053
▁apollo	-11.6053
▁canadian	-11.6053
▁envelope	-11.6053
▁glimpse	-11.6053
▁guitar	-11.6053
▁incorporat	-11.6053
▁pencil	-11.6053
▁creep	-11.6053
▁approve	-11.6053
▁warehouse	-11.6053
▁arrang	-11.6053
▁parasite	-11.6053
▁neuroscientist	-11.6053
▁multiply	-11.6053
▁chuck	-11.6053
▁impair	-11.6053
▁lifespan	-11.6053
wrestl	-11.6053
▁sperm	-11.6053
▁maldiv	-11.6054
ntact	-11.6055
▁punishment	-11.6055
▁crab	-11.6057
▁secretary	-11.6059
▁proposal	-11.6059
▁friendship	-11.6062
▁1900	-11.6068
▁governor	-11.6072
▁deck	-11.6075
keep	-11.6077
interest	-11.6078
▁endur	-11.6085
▁jose	-11.6085
spring	-11.6086
▁tide	-11.6092
▁innovate	-11.6099
▁lt	-11.61
▁practic	-11.6102
▁realization	-11.6103
▁zo	-11.6109
▁sixth	-11.6118
▁44	-11.6128
▁boundary	-11.6129
sky	-11.6134
wandering	-11.6137
imag	-11.6142
▁continuously	-11.6147
▁ethnic	-11.6151
inum	-11.6154
▁vice	-11.6168
▁assemble	-11.6184
▁radi	-11.6187
▁sang	-11.621
▁psych	-11.6211
▁regulate	-11.6212
five	-11.6216
▁foi	-11.6226
▁cooperate	-11.6235
▁democrac	-11.6236
▁owe	-11.6239
▁pound	-11.6252
▁precis	-11.6261
hong	-11.6268
cause	-11.628
▁artifact	-11.6285
▁genocide	-11.6285
▁grocer	-11.6285
▁horror	-11.6285
▁receptor	-11.6285
▁shrimp	-11.6285
▁synapse	-11.6285
▁scheme	-11.6285
▁gross	-11.6285
▁indigen	-11.6285
▁valid	-11.6285
▁stumbl	-11.6285
▁mosque	-11.6285
▁biosphere	-11.6285
▁infra	-11.6285
▁controversial	-11.6286
▁banana	-11.6286
▁tribal	-11.6286
▁regenerate	-11.6286
▁tapir	-11.6286
▁redesign	-11.6286
▁disney	-11.6286
▁barbar	-11.6287
▁congesti	-11.6287
▁2030	-11.6288
▁iranian	-11.6288
▁translator	-11.6289
▁rust	-11.6289
▁alert	-11.6293
▁olive	-11.6293
▁chew	-11.6294
▁mola	-11.6295
▁blade	-11.6297
▁campus	-11.6301
osity	-11.6315
together	-11.6315
▁masse	-11.6317
▁charter	-11.6323
▁dependenc	-11.6326
▁fg	-11.633
▁tile	-11.6331
▁apri	-11.6349
▁storyteller	-11.635
▁grip	-11.635
▁lar	-11.6353
▁embarrassing	-11.636
▁admir	-11.6362
▁kha	-11.6367
apped	-11.637
evel	-11.6378
▁graduat	-11.6382
ngest	-11.6387
▁accumulat	-11.6415
low	-11.6428
▁copie	-11.6464
acco	-11.6473
racing	-11.6486
▁robb	-11.649
▁mesh	-11.6505
▁tempo	-11.6523
▁bioluminescen	-11.6523
▁devastating	-11.6523
▁encyclopedia	-11.6523
▁flourish	-11.6523
▁prospect	-11.6523
▁thirty	-11.6523
▁vagina	-11.6523
▁remix	-11.6523
▁venus	-11.6523
jazz	-11.6523
▁brooklyn	-11.6523
▁nightmare	-11.6523
▁priest	-11.6524
▁friction	-11.6524
▁android	-11.6524
▁doodl	-11.6524
▁myceli	-11.6525
▁fluctuation	-11.6525
mile	-11.6527
▁uninten	-11.6527
▁destination	-11.6528
ipping	-11.653
▁denial	-11.6532
band	-11.6533
▁insert	-11.6534
▁modest	-11.6536
▁rubber	-11.6537
▁democratiz	-11.6538
▁193	-11.6538
▁memorial	-11.6544
▁blast	-11.6545
worth	-11.6558
income	-11.6559
screen	-11.6559
flow	-11.6561
▁transferr	-11.6564
▁yu	-11.6572
▁refus	-11.6576
speed	-11.6584
▁hut	-11.6587
symmetrical	-11.6588
▁convenient	-11.6593
ggle	-11.6598
▁1.5	-11.6602
▁rott	-11.6602
lah	-11.6604
▁vulnerabilit	-11.6612
▁humble	-11.6616
▁beep	-11.6618
digit	-11.662
▁riot	-11.6638
▁banker	-11.6638
▁gla	-11.6678
oline	-11.669
ibility	-11.6695
▁scot	-11.6697
▁accountabilit	-11.6713
▁bacteri	-11.6721
▁cope	-11.6737
▁impos	-11.6748
rank	-11.6753
▁convict	-11.6762
▁philip	-11.6764
therland	-11.6765
lihood	-11.6766
▁rehabilitat	-11.6767
▁absence	-11.6767
▁bloom	-11.6767
▁buzz	-11.6767
▁crap	-11.6767
▁diarrhea	-11.6767
▁immortal	-11.6767
▁penetrat	-11.6767
▁stadium	-11.6767
▁zimbabwe	-11.6767
▁arrangement	-11.6767
▁blob	-11.6767
▁holiday	-11.6767
▁settlement	-11.6767
▁turtle	-11.6767
▁vivid	-11.6767
▁steam	-11.6767
▁defining	-11.6767
▁stunn	-11.6767
▁criteri	-11.6768
▁flesh	-11.6768
▁trustworth	-11.6768
▁kong	-11.6768
▁connectome	-11.6769
▁juice	-11.6769
▁dropping	-11.6769
▁couch	-11.677
▁valve	-11.677
▁rig	-11.677
▁lago	-11.6771
▁separation	-11.6772
▁hint	-11.6775
40	-11.6778
▁exot	-11.6778
ima	-11.6778
▁coverage	-11.6781
▁baker	-11.6783
eur	-11.6785
▁wool	-11.6789
▁assure	-11.6796
found	-11.6804
rhythm	-11.6808
angelo	-11.6815
bacterial	-11.6815
▁fuse	-11.6815
▁assistant	-11.6817
▁generic	-11.6818
▁rear	-11.6818
inch	-11.6823
corps	-11.6828
▁refine	-11.6828
juan	-11.6831
path	-11.6842
▁nsa	-11.6857
▁translat	-11.6878
▁flipp	-11.688
▁uh	-11.689
▁slipp	-11.6917
▁spine	-11.6919
▁scaling	-11.6925
▁semi	-11.6967
▁classical	-11.6968
▁atmospher	-11.6969
▁demonstrat	-11.6993
▁brows	-11.7002
scape	-11.7011
▁enthusias	-11.7015
▁stereo	-11.7017
▁acoustic	-11.7017
▁circular	-11.7017
▁hurricane	-11.7017
▁intimacy	-11.7017
▁jordan	-11.7017
▁league	-11.7017
▁nitrogen	-11.7017
▁sierra	-11.7017
▁faint	-11.7017
▁conceive	-11.7017
▁famine	-11.7017
▁indonesia	-11.7017
▁resurrect	-11.7017
▁polite	-11.7017
▁libya	-11.7017
▁odor	-11.7017
▁spatial	-11.7018
▁strict	-11.7018
▁annoy	-11.7018
▁ventilat	-11.7018
▁pipeline	-11.7018
▁exposure	-11.7018
▁thai	-11.7019
▁kilo	-11.7019
lanta	-11.7019
▁negotiation	-11.702
▁stephen	-11.7021
▁selective	-11.7021
ectar	-11.7021
▁dune	-11.7023
scope	-11.7024
▁turk	-11.7024
▁isolation	-11.7028
▁digitiz	-11.7029
▁penis	-11.7029
▁iceland	-11.7029
▁laden	-11.7032
▁reactor	-11.7036
▁basement	-11.7037
▁zoo	-11.7037
far	-11.7039
▁paro	-11.704
lima	-11.7042
▁coordinate	-11.7049
conserv	-11.7055
▁hopeless	-11.7056
bound	-11.7064
wide	-11.7065
▁momentum	-11.7065
▁interconnected	-11.7068
urgenc	-11.707
▁deni	-11.7075
▁forbid	-11.7086
▁greet	-11.7093
▁swo	-11.7094
▁climber	-11.7095
▁bali	-11.7101
vity	-11.7118
▁stimul	-11.712
▁enforce	-11.7124
▁kir	-11.7125
▁eco	-11.7128
▁journalis	-11.7132
▁cooper	-11.7137
eyed	-11.7141
▁transcend	-11.7153
▁chap	-11.7162
▁heroin	-11.7163
▁viewer	-11.7179
generat	-11.7192
corn	-11.7207
▁astronom	-11.7207
▁resilien	-11.7211
racy	-11.7222
▁disabilit	-11.7224
rich	-11.7229
▁vibrat	-11.7253
▁jur	-11.7266
▁gaz	-11.7271
▁margin	-11.7273
▁explicit	-11.7274
▁bhutan	-11.7274
▁clinton	-11.7274
▁consensus	-11.7274
▁deficit	-11.7274
▁endeavor	-11.7274
▁entrance	-11.7274
▁favela	-11.7274
▁fuzz	-11.7274
▁impulse	-11.7274
▁incarcerat	-11.7274
▁locomot	-11.7274
▁marrow	-11.7274
▁persuade	-11.7274
▁reclaim	-11.7274
▁stagger	-11.7274
▁symphon	-11.7274
▁tunisia	-11.7274
▁unfair	-11.7274
▁velocit	-11.7274
▁vocabular	-11.7274
▁vocal	-11.7274
▁surgical	-11.7274
▁helmet	-11.7274
▁bitcoin	-11.7274
▁beetle	-11.7274
▁norden	-11.7274
▁lamb	-11.7274
▁stereotype	-11.7274
▁ministr	-11.7274
▁nasty	-11.7274
▁scholarship	-11.7274
▁terminal	-11.7274
▁beatbox	-11.7274
▁toxin	-11.7275
▁sauce	-11.7275
▁admitted	-11.7275
▁retail	-11.7276
▁1930	-11.7278
▁spade	-11.7281
▁santa	-11.7281
lice	-11.7282
▁rna	-11.7282
▁berk	-11.7283
▁millennia	-11.7284
▁donation	-11.7284
▁flap	-11.7291
▁therapist	-11.7291
▁taxe	-11.7294
▁armor	-11.7294
▁manufacturer	-11.7299
▁performer	-11.7303
viation	-11.7303
conic	-11.7307
▁von	-11.7312
clu	-11.7312
▁investigate	-11.7317
gli	-11.7327
▁mandat	-11.7327
proof	-11.7329
field	-11.7329
▁blown	-11.7332
oh	-11.7336
golia	-11.7337
▁pc	-11.734
18	-11.7353
▁noble	-11.736
▁pric	-11.7364
▁dai	-11.7385
▁moderat	-11.739
knit	-11.7396
▁rubb	-11.7398
▁spare	-11.74
▁rang	-11.7416
saw	-11.7425
▁doom	-11.7451
▁processor	-11.7459
▁migrate	-11.7463
▁revolutionar	-11.7465
▁hyp	-11.7467
▁anticipat	-11.7468
▁constrain	-11.7471
▁microscop	-11.7475
▁gig	-11.7481
▁mob	-11.7489
manda	-11.7503
▁listener	-11.7511
mination	-11.7514
▁carl	-11.752
ference	-11.7531
ira	-11.7531
▁restrict	-11.7532
▁drama	-11.7535
▁monument	-11.7537
▁abundant	-11.7537
▁archae	-11.7537
▁catholic	-11.7537
▁correlation	-11.7537
▁counsel	-11.7537
▁elaborate	-11.7537
▁evaporat	-11.7537
▁exaggerat	-11.7537
▁janitor	-11.7537
▁jungle	-11.7537
▁jupiter	-11.7537
▁petition	-11.7537
▁prostitut	-11.7537
▁spiral	-11.7537
▁schedule	-11.7537
▁premise	-11.7537
▁modifie	-11.7537
▁swarm	-11.7537
promising	-11.7537
▁funeral	-11.7537
▁crude	-11.7537
▁transit	-11.7537
▁spouse	-11.7537
▁presum	-11.7537
▁gluco	-11.7538
▁watt	-11.7538
▁blueprint	-11.7539
▁gamma	-11.754
▁divine	-11.754
▁courageous	-11.754
▁costume	-11.7541
▁microbi	-11.7542
bone	-11.7543
▁distinction	-11.7544
▁fade	-11.7545
▁max	-11.7545
▁canyon	-11.7546
pago	-11.7549
▁impose	-11.7551
▁celebrity	-11.7557
▁nail	-11.7558
▁ence	-11.7561
ssini	-11.7564
▁disk	-11.7568
▁prevention	-11.7568
▁fever	-11.7575
▁integr	-11.759
friend	-11.7596
▁yeast	-11.7596
securit	-11.7599
month	-11.7599
drop	-11.7599
▁symbolic	-11.7605
▁observer	-11.7612
creat	-11.7614
▁justify	-11.7633
▁nav	-11.7634
ennis	-11.7638
30	-11.7642
type	-11.7657
▁gee	-11.7659
hill	-11.7661
▁warn	-11.7666
▁brit	-11.7672
▁stare	-11.7692
▁warp	-11.7717
▁painter	-11.7722
▁luc	-11.774
lage	-11.7751
offend	-11.7751
▁identit	-11.7758
empt	-11.7767
apping	-11.7786
occ	-11.7798
▁violat	-11.7802
▁champion	-11.7807
▁anniversar	-11.7807
▁blockchain	-11.7807
▁elizabeth	-11.7807
▁epiphan	-11.7807
▁falcon	-11.7807
▁irrational	-11.7807
▁leopard	-11.7807
▁mammoth	-11.7807
▁revelation	-11.7807
▁conquer	-11.7807
▁soccer	-11.7807
▁tibet	-11.7807
▁depriv	-11.7807
▁craig	-11.7807
▁cabinet	-11.7807
▁lump	-11.7807
▁alliance	-11.7807
▁johnny	-11.7807
▁nike	-11.7808
▁rigid	-11.7808
▁preced	-11.7808
▁melod	-11.7808
▁differentiate	-11.7809
▁cooperative	-11.781
▁harsh	-11.7812
▁elevator	-11.7813
▁stimulation	-11.7814
▁mexican	-11.7814
▁prox	-11.7816
immer	-11.7817
▁decent	-11.7819
▁guest	-11.7819
istine	-11.7819
▁lethal	-11.782
▁sweep	-11.7821
▁nucle	-11.7825
▁syrian	-11.7825
▁historian	-11.7832
▁relativ	-11.7838
▁summarize	-11.7841
▁frequently	-11.7845
aker	-11.7845
▁province	-11.7847
▁negotiate	-11.785
amma	-11.786
▁bol	-11.7864
▁fleet	-11.787
style	-11.7872
▁upright	-11.7873
profit	-11.7875
▁glu	-11.7877
▁thankful	-11.7882
▁bern	-11.7883
controll	-11.7895
solv	-11.7902
▁phila	-11.7903
▁mytholog	-11.7906
▁entitle	-11.7913
▁accumulate	-11.7932
ibbe	-11.7952
asha	-11.7983
▁dome	-11.8009
▁squeeze	-11.8016
▁pursu	-11.8042
99	-11.805
▁explod	-11.805
▁trail	-11.8062
page	-11.8081
▁benjam	-11.8085
▁accompani	-11.8085
▁capsule	-11.8085
▁cholera	-11.8085
▁commut	-11.8085
▁competitor	-11.8085
▁fractal	-11.8085
▁ghost	-11.8085
▁incomplete	-11.8085
▁intrinsic	-11.8085
▁jeopard	-11.8085
▁pesticide	-11.8085
▁phoenix	-11.8085
▁reproduction	-11.8085
▁shatter	-11.8085
▁shepherd	-11.8085
▁sulfide	-11.8085
▁underestimate	-11.8085
▁dopamine	-11.8085
▁statue	-11.8085
qualifie	-11.8085
▁somalia	-11.8085
▁fetus	-11.8085
▁album	-11.8085
▁dvd	-11.8085
▁nepal	-11.8085
▁extensive	-11.8085
▁squid	-11.8085
▁saint	-11.8085
▁niece	-11.8085
▁authoritarian	-11.8085
▁opposition	-11.8085
▁minimal	-11.8085
▁firing	-11.8085
▁committee	-11.8086
▁roos	-11.8087
▁cafe	-11.8087
▁cement	-11.8088
▁spite	-11.8088
▁innovator	-11.8088
▁manifestation	-11.8089
skirt	-11.809
▁commandment	-11.8092
▁celebration	-11.8092
▁tempt	-11.8094
▁emitt	-11.8097
▁obsession	-11.8097
▁progressive	-11.8099
▁overlook	-11.8102
▁macro	-11.811
nice	-11.8111
▁scarce	-11.8126
▁progression	-11.813
▁reuse	-11.8134
ctor	-11.8143
gio	-11.8147
▁perceiv	-11.815
▁1.2	-11.8152
▁eliminat	-11.8157
effective	-11.8162
culture	-11.8163
traumatic	-11.8164
▁mag	-11.8172
▁milo	-11.8177
itting	-11.8179
▁informal	-11.8186
▁taxi	-11.8188
link	-11.8194
▁gener	-11.8199
▁northeast	-11.8203
▁rag	-11.8207
▁regenerati	-11.8216
ease	-11.8216
▁grim	-11.822
▁mul	-11.8226
lapse	-11.827
▁lee	-11.828
▁exceptional	-11.8282
▁plea	-11.8294
liberation	-11.8304
elli	-11.8326
master	-11.8337
eley	-11.8345
▁skeptic	-11.835
▁physiolog	-11.8359
▁repli	-11.8359
▁inflat	-11.8368
▁euro	-11.837
▁confess	-11.837
▁absurd	-11.837
▁adolescent	-11.837
▁austria	-11.837
▁contemplat	-11.837
▁corridor	-11.837
▁eternal	-11.837
▁expense	-11.837
▁fracture	-11.837
▁maneuver	-11.837
▁metabolic	-11.837
▁metropolitan	-11.837
▁mumbai	-11.837
▁neglect	-11.837
▁obsole	-11.837
▁oyster	-11.837
▁perpetu	-11.837
▁pessimis	-11.837
▁siberia	-11.837
▁taboo	-11.837
▁alaska	-11.837
▁sediment	-11.837
▁sovereign	-11.837
▁cardiac	-11.837
▁trunk	-11.8371
invasive	-11.8371
▁hammer	-11.8371
▁outdoor	-11.8371
fensive	-11.8371
▁insult	-11.8371
▁enrich	-11.8371
▁divergen	-11.8372
▁spike	-11.8372
▁brake	-11.8372
▁textile	-11.8373
▁1,500	-11.8373
▁lobe	-11.8376
minent	-11.8376
▁48	-11.8378
▁bolt	-11.8378
▁duty	-11.8379
openha	-11.838
▁behold	-11.838
▁echo	-11.8381
▁25,000	-11.8381
▁replacement	-11.8381
▁invitation	-11.8381
▁titanic	-11.8382
▁integration	-11.8386
▁jf	-11.8389
▁skeptical	-11.8391
▁ambition	-11.8392
▁sylvi	-11.8392
▁dick	-11.8395
▁larva	-11.8399
▁mindful	-11.8399
▁rail	-11.8402
▁thriv	-11.8404
▁prototyp	-11.8404
▁asthma	-11.8407
▁flee	-11.8409
▁meditat	-11.8411
change	-11.8417
▁neo	-11.8422
▁flame	-11.8425
▁redefine	-11.8432
▁freeze	-11.8438
▁pete	-11.8439
▁packag	-11.8442
▁publication	-11.8451
million	-11.8457
spread	-11.8457
▁liter	-11.846
produc	-11.8462
blowing	-11.8468
gate	-11.847
scribe	-11.8479
▁candy	-11.8485
▁nai	-11.8491
mple	-11.8494
▁31	-11.8497
▁grandma	-11.8505
▁provider	-11.8515
▁sympath	-11.8519
agan	-11.8524
elect	-11.853
▁receiver	-11.8544
▁ross	-11.8561
key	-11.8564
▁phil	-11.857
▁disrupti	-11.8575
▁emma	-11.8579
▁regional	-11.8587
▁significan	-11.8599
risk	-11.861
▁southwest	-11.8627
▁freez	-11.8635
▁sticker	-11.8638
lace	-11.8662
▁hypothes	-11.8663
▁outrage	-11.8663
▁exquisite	-11.8665
▁misunderst	-11.8665
▁pluto	-11.8665
▁adolescence	-11.8665
▁buddhis	-11.8665
▁calculating	-11.8665
▁calendar	-11.8665
▁commoditi	-11.8665
▁envision	-11.8665
▁module	-11.8665
▁namibia	-11.8665
▁occupation	-11.8665
▁propagand	-11.8665
▁recession	-11.8665
▁satisfie	-11.8665
▁specimen	-11.8665
▁staircase	-11.8665
▁submersible	-11.8665
▁suspicious	-11.8665
▁triumph	-11.8665
▁unleash	-11.8665
▁violin	-11.8665
▁doubling	-11.8665
▁kosov	-11.8665
delphi	-11.8665
▁vegetati	-11.8665
▁slogan	-11.8665
▁pleasant	-11.8665
▁praise	-11.8665
▁liberia	-11.8665
▁sudan	-11.8665
▁headache	-11.8665
▁algae	-11.8665
▁butterfl	-11.8665
▁hollow	-11.8665
▁auditorium	-11.8665
▁vaccinate	-11.8665
▁nonprofit	-11.8666
▁acute	-11.8666
▁tedster	-11.8666
▁towel	-11.8667
compatib	-11.8668
▁romance	-11.8669
▁flock	-11.867
▁anthropologist	-11.867
▁geological	-11.867
▁gent	-11.8672
▁fda	-11.8674
▁edward	-11.8674
▁empowerment	-11.8675
polis	-11.8677
venge	-11.868
izz	-11.8682
▁captiv	-11.8686
▁moz	-11.8687
▁jc	-11.8706
▁maria	-11.8709
▁peel	-11.871
leg	-11.8732
▁chess	-11.8746
shift	-11.876
▁visitor	-11.8765
rose	-11.8766
▁bitter	-11.8774
▁fighter	-11.8776
▁uk	-11.878
plicate	-11.8804
▁unst	-11.8804
▁biase	-11.8818
▁longest	-11.8822
nforcement	-11.884
▁folk	-11.8852
▁prim	-11.8883
flu	-11.8887
▁concentrat	-11.8888
code	-11.8898
▁stimulate	-11.8898
▁ferr	-11.8904
▁declin	-11.8908
▁curl	-11.8942
▁nuclei	-11.8946
▁salar	-11.8948
▁bounce	-11.8952
borne	-11.8964
▁pollut	-11.8965
rizon	-11.8967
▁basket	-11.8967
▁imperfect	-11.8968
▁kepler	-11.8968
vascular	-11.8968
▁ambulance	-11.8968
▁cockroach	-11.8968
▁comprehensi	-11.8968
▁dismiss	-11.8968
▁ethanol	-11.8968
▁fantasy	-11.8968
▁fingertip	-11.8968
▁metabolism	-11.8968
▁peripher	-11.8968
▁stratospher	-11.8968
▁leban	-11.8968
▁saturday	-11.8968
▁dysfunction	-11.8968
▁linux	-11.8968
▁postcard	-11.8968
▁swamp	-11.8968
▁helium	-11.8968
▁feather	-11.8968
▁carrot	-11.8968
▁pearl	-11.8968
▁cinema	-11.8968
▁hostile	-11.8969
▁lawsuit	-11.8969
▁tidy	-11.8969
▁nathan	-11.8969
▁prevalence	-11.897
▁cease	-11.897
▁shade	-11.897
▁gigant	-11.8971
▁flush	-11.8971
▁grape	-11.8971
▁fungi	-11.8972
▁restriction	-11.8973
▁8,000	-11.8974
▁apologize	-11.8974
▁elementary	-11.8975
▁adaptive	-11.8976
▁pee	-11.8977
▁roman	-11.8979
▁hindu	-11.8979
▁hallway	-11.8982
▁34	-11.8983
▁juggl	-11.8987
▁browser	-11.8988
dental	-11.8989
▁sara	-11.8991
▁optimize	-11.8991
▁speculati	-11.9
▁unifie	-11.9014
▁kenn	-11.902
onald	-11.9022
▁eba	-11.9024
▁overlap	-11.9028
▁muh	-11.9034
▁carne	-11.9041
25	-11.9064
pound	-11.907
broad	-11.9072
material	-11.9072
glass	-11.9072
specific	-11.9072
perform	-11.9072
hili	-11.9073
▁skip	-11.9098
▁peru	-11.9105
▁calv	-11.9111
dict	-11.9114
▁hatch	-11.9115
▁estimat	-11.9123
▁vest	-11.9138
▁transformati	-11.9153
▁arabia	-11.9156
▁prescrib	-11.916
▁roller	-11.9165
▁digg	-11.9173
▁manipulat	-11.9174
▁130	-11.9177
▁admire	-11.9178
▁ador	-11.9193
last	-11.922
▁cue	-11.9234
▁characterize	-11.9261
▁minor	-11.9272
▁circulat	-11.9275
▁passe	-11.9277
▁stigma	-11.9277
▁advent	-11.9279
▁incremental	-11.928
▁avenue	-11.928
▁benign	-11.928
▁christopher	-11.928
▁cocktail	-11.928
▁confusion	-11.928
▁cybercriminal	-11.928
▁daniel	-11.928
▁elbow	-11.928
▁embodie	-11.928
▁extrovert	-11.928
▁fluorescent	-11.928
▁hamburger	-11.928
▁headquarter	-11.928
▁hypothetical	-11.928
▁imperative	-11.928
▁irrelevan	-11.928
▁obligation	-11.928
▁perceptual	-11.928
▁puppet	-11.928
▁shakespeare	-11.928
▁syringe	-11.928
▁antibod	-11.928
▁hobby	-11.928
▁meadow	-11.928
▁boost	-11.928
▁guinea	-11.928
▁steep	-11.928
▁interfer	-11.928
▁cream	-11.928
▁bonus	-11.928
▁bosnia	-11.928
▁bypass	-11.928
▁masterpiece	-11.928
▁supercomputer	-11.928
▁slope	-11.9281
▁bombsight	-11.9281
▁fraud	-11.9281
▁wolve	-11.9281
▁1.3	-11.9282
▁guardian	-11.9283
▁hence	-11.9283
▁jones	-11.9283
▁gallon	-11.9284
▁mash	-11.9284
▁fuck	-11.9285
▁prosecutor	-11.9286
▁conviction	-11.9286
▁trad	-11.9286
▁potter	-11.9287
▁versa	-11.9288
▁dragon	-11.9289
▁swap	-11.9291
▁proton	-11.9294
▁philosophical	-11.9303
▁cartoonist	-11.9308
▁plac	-11.9315
▁bark	-11.9324
▁booth	-11.9324
▁rica	-11.9328
toleran	-11.9341
▁lama	-11.9347
▁43	-11.9348
▁iraqi	-11.9351
alai	-11.9358
▁compute	-11.9376
▁pier	-11.9385
word	-11.9385
school	-11.9394
worm	-11.9394
percent	-11.9396
▁polariz	-11.9405
tail	-11.9411
genesis	-11.9426
orbital	-11.9428
▁lew	-11.9433
rca	-11.9445
wear	-11.9446
coli	-11.9458
▁virgini	-11.9483
▁embarrass	-11.9497
▁columbia	-11.95
finite	-11.9507
tif	-11.9515
mount	-11.9525
▁aero	-11.9528
▁patholog	-11.9538
▁laborator	-11.9555
sylv	-11.9595
▁psychiatr	-11.9596
▁controvers	-11.9602
▁affirm	-11.9603
▁subsequent	-11.9603
▁anesthesi	-11.9603
▁crocodile	-11.9603
▁introvert	-11.9603
▁nanotechnolog	-11.9603
▁rectangle	-11.9603
▁singular	-11.9603
▁surrender	-11.9603
▁volcani	-11.9603
▁wizard	-11.9603
▁alphabet	-11.9603
▁jamaica	-11.9603
▁inhibit	-11.9603
▁logistic	-11.9603
▁louis	-11.9603
▁ancestr	-11.9603
▁intervene	-11.9603
▁snapshot	-11.9603
▁prophet	-11.9603
▁dispute	-11.9603
▁escalat	-11.9603
▁erupt	-11.9603
▁gait	-11.9603
centric	-11.9603
▁defect	-11.9603
▁hmm	-11.9603
▁inspect	-11.9604
▁dissolv	-11.9604
▁pollutant	-11.9604
▁portray	-11.9605
▁vanish	-11.9605
▁urgent	-11.9605
▁crank	-11.9606
▁lime	-11.9606
▁shack	-11.9606
▁fame	-11.9606
▁indication	-11.9607
plat	-11.9607
▁inflation	-11.9608
▁paradi	-11.9609
▁thermo	-11.9609
▁indicator	-11.961
▁stir	-11.9611
▁candle	-11.9611
▁weakness	-11.9611
▁ideological	-11.9611
▁tumbl	-11.9613
▁flexibilit	-11.9613
▁immerse	-11.9619
▁virtu	-11.962
▁abstraction	-11.9621
▁atheist	-11.9621
▁140	-11.9622
▁traffick	-11.9625
ubert	-11.9629
▁princess	-11.9642
▁prolif	-11.9647
▁australian	-11.9667
▁kenyan	-11.9673
nfl	-11.9675
▁reasonabl	-11.9684
▁mario	-11.9686
▁companion	-11.9691
▁52	-11.9692
▁eighth	-11.9694
bran	-11.9703
▁stat	-11.9704
▁helpless	-11.9709
▁wan	-11.9715
▁laur	-11.9718
▁operational	-11.9725
▁slip	-11.975
▁unsee	-11.9751
fred	-11.9754
▁gel	-11.976
▁kim	-11.9777
00,000	-11.9806
▁humbl	-11.9816
▁sensibl	-11.9824
ature	-11.985
▁mobilize	-11.986
ii	-11.9867
▁erase	-11.9868
▁bak	-11.9869
▁menu	-11.9873
▁synthesi	-11.988
▁visionar	-11.9886
▁influen	-11.9929
▁lever	-11.9931
▁autonom	-11.9934
▁yell	-11.9936
▁catastrophe	-11.9936
▁cylinder	-11.9936
▁disadvantage	-11.9936
▁embryo	-11.9936
▁equilibr	-11.9936
▁gadget	-11.9936
▁guerrilla	-11.9936
▁michigan	-11.9936
▁mutilat	-11.9936
▁oklahoma	-11.9936
▁pantheon	-11.9936
▁resemble	-11.9936
▁savanna	-11.9936
▁scatter	-11.9936
▁visceral	-11.9936
▁thrust	-11.9936
▁checklist	-11.9936
▁essay	-11.9936
plasma	-11.9936
▁grammar	-11.9936
▁mustache	-11.9936
▁salmon	-11.9936
▁coheren	-11.9936
▁dentist	-11.9936
▁stain	-11.9936
▁multinational	-11.9936
frost	-11.9936
▁parameter	-11.9937
▁legitimate	-11.9937
▁devise	-11.9937
▁missile	-11.9938
▁superpower	-11.9939
▁billboard	-11.9939
▁planner	-11.994
▁claw	-11.994
▁pillar	-11.994
▁brazilian	-11.9941
▁ipad	-11.9942
▁maximize	-11.9942
▁accomplishment	-11.9943
▁beef	-11.9947
▁shelve	-11.9949
aga	-11.995
position	-11.9951
▁correlate	-11.9953
▁conductor	-11.9954
▁gius	-11.9966
▁technologist	-11.998
▁glove	-11.9983
▁ramp	-11.9984
teem	-11.9985
▁gaze	-11.9986
▁dishe	-11.9988
▁amuse	-11.999
foam	-11.999
,200	-11.9991
▁acknowledg	-12.0004
▁stu	-12.0006
gne	-12.0011
ruct	-12.0047
istence	-12.0061
front	-12.0068
▁assistan	-12.0068
walk	-12.0071
sustainabl	-12.0071
resolution	-12.0072
africa	-12.0073
large	-12.0074
track	-12.0081
▁carti	-12.0088
▁crashe	-12.009
19	-12.0104
▁lik	-12.0121
minded	-12.014
94	-12.0166
▁globaliz	-12.0169
iger	-12.0173
hou	-12.0174
2.5	-12.0174
orway	-12.0183
▁synchroniz	-12.019
▁intentional	-12.0206
▁subsid	-12.0209
▁miner	-12.021
▁responsibilit	-12.0232
▁democrat	-12.0235
uddin	-12.0264
lept	-12.027
uri	-12.0271
▁suburb	-12.0279
▁cathedral	-12.0281
▁chemotherap	-12.0281
▁contagio	-12.0281
▁curtain	-12.0281
▁evaluate	-12.0281
▁graffiti	-12.0281
▁himalaya	-12.0281
▁mammograph	-12.0281
▁migrant	-12.0281
▁pharmac	-12.0281
▁plumb	-12.0281
▁reproductive	-12.0281
▁respirator	-12.0281
▁worship	-12.0281
▁anxious	-12.0281
▁cerebr	-12.0281
eith	-12.0281
▁fierce	-12.0281
▁intricate	-12.0281
▁retain	-12.0281
▁adversit	-12.0281
▁cabin	-12.0281
▁appoint	-12.0281
▁audaci	-12.0281
▁utopia	-12.0281
▁neurogenesis	-12.0281
▁bucket	-12.0281
▁crust	-12.0281
▁scroll	-12.0281
▁pancrea	-12.0281
▁ladder	-12.0282
inister	-12.0282
▁guideline	-12.0283
▁mixture	-12.0283
▁beneficia	-12.0283
▁margar	-12.0284
▁900	-12.0284
▁minimize	-12.0285
▁improvise	-12.0286
▁tedx	-12.0301
▁ninety	-12.0301
▁vibrate	-12.0302
▁geometric	-12.0319
▁acquir	-12.0322
▁mw	-12.0344
▁teache	-12.0357
▁interdependen	-12.0378
▁jess	-12.0391
▁autist	-12.0414
frame	-12.043
energy	-12.043
evolv	-12.0436
wash	-12.0442
sharing	-12.0455
▁convers	-12.0455
▁bruc	-12.0461
▁undergo	-12.0466
spectr	-12.0492
giv	-12.0513
▁dispers	-12.0514
▁collaborat	-12.0524
▁socio	-12.0533
ku	-12.0541
▁rage	-12.0552
osh	-12.0564
▁stimulat	-12.0565
▁accidental	-12.0581
▁fog	-12.0599
odd	-12.0605
▁organizer	-12.0608
▁clap	-12.061
▁hacker	-12.0628
▁chick	-12.0637
▁orphan	-12.0637
▁differ	-12.0637
osphere	-12.0638
▁congratulat	-12.0638
▁deplet	-12.0638
▁humiliat	-12.0638
▁ambassador	-12.0638
▁arbitrar	-12.0638
▁certificate	-12.0638
▁chaotic	-12.0638
▁convincing	-12.0638
▁exhilarat	-12.0638
▁fountain	-12.0638
▁genital	-12.0638
▁marathon	-12.0638
▁marshmallow	-12.0638
▁neurological	-12.0638
▁obscure	-12.0638
▁plague	-12.0638
▁prevail	-12.0638
▁repetiti	-12.0638
▁smuggl	-12.0638
▁surplus	-12.0638
▁tuberculosis	-12.0638
▁unnecessar	-12.0638
▁venezuela	-12.0638
▁brainstorm	-12.0638
▁whitopia	-12.0638
▁sensitivit	-12.0638
▁modification	-12.0638
▁modify	-12.0638
▁smash	-12.0638
▁ignit	-12.0638
▁blurr	-12.0638
▁symbio	-12.0638
▁radar	-12.0638
▁bulk	-12.0638
▁blanket	-12.0638
▁neocort	-12.0638
▁coincidence	-12.0639
▁epic	-12.0639
▁tilt	-12.064
▁reassur	-12.064
▁communist	-12.064
▁recreate	-12.064
litary	-12.0641
▁grassland	-12.0642
▁innate	-12.0642
▁gym	-12.0642
▁wallet	-12.0643
▁crispr	-12.0643
▁astronomical	-12.0643
▁manipulation	-12.0644
▁walter	-12.0644
▁infinit	-12.0649
▁spaceship	-12.0658
▁generator	-12.0659
▁cookie	-12.0662
▁strengthen	-12.0662
▁measl	-12.0664
banish	-12.0669
▁stan	-12.0673
▁compil	-12.0677
▁vein	-12.0677
▁tenth	-12.0677
▁dual	-12.0686
▁dug	-12.0701
▁esp	-12.0701
▁desir	-12.0704
▁54	-12.0706
▁seventh	-12.0707
▁halve	-12.0716
▁cia	-12.0724
▁env	-12.0732
▁indicat	-12.0751
▁wil	-12.0767
order	-12.0799
weight	-12.08
government	-12.08
jill	-12.0804
wig	-12.0807
▁seasonal	-12.0808
child	-12.081
tention	-12.0839
explored	-12.0859
lix	-12.0871
▁incidental	-12.0895
haul	-12.0937
▁salv	-12.0942
▁negotiat	-12.0945
▁stewar	-12.097
▁southeast	-12.0986
▁approache	-12.0995
▁numer	-12.0995
ecd	-12.0997
▁advoca	-12.0999
▁dispos	-12.1002
mmunity	-12.1006
▁marvel	-12.1007
voluntary	-12.1008
▁assault	-12.1008
▁cochlea	-12.1008
▁cognition	-12.1008
▁compliment	-12.1008
▁copernic	-12.1008
▁decentraliz	-12.1008
▁devastate	-12.1008
▁existential	-12.1008
▁jealous	-12.1008
▁lesbian	-12.1008
▁octopus	-12.1008
▁pittsburg	-12.1008
▁pivot	-12.1008
▁prejudice	-12.1008
▁secular	-12.1008
▁shield	-12.1008
▁shuffle	-12.1008
▁tasmanian	-12.1008
▁technician	-12.1008
▁undergraduate	-12.1008
▁vitamin	-12.1008
▁vulture	-12.1008
▁georgia	-12.1008
▁sentiment	-12.1008
▁superhero	-12.1008
▁superior	-12.1008
▁glory	-12.1008
▁regain	-12.1008
▁resonate	-12.1008
▁classmate	-12.1008
▁haunt	-12.1008
▁tinker	-12.1008
▁abnormal	-12.1008
▁polymer	-12.1009
▁disparit	-12.1009
▁problematic	-12.1009
▁conspirac	-12.1009
▁quantitative	-12.1009
▁europa	-12.1009
▁rival	-12.101
▁pension	-12.101
▁discard	-12.101
▁boson	-12.101
▁marvelous	-12.101
▁glide	-12.101
▁lesion	-12.101
▁shallow	-12.101
▁telecom	-12.1011
▁puff	-12.1011
▁timber	-12.1012
▁dude	-12.1012
▁railway	-12.1012
▁temptation	-12.1013
▁skype	-12.1013
▁eros	-12.1014
▁moham	-12.1014
▁permit	-12.1015
▁psychiatrist	-12.1016
▁novelty	-12.1016
▁deployment	-12.1016
▁veil	-12.1016
▁waterfall	-12.1017
▁execution	-12.1017
▁iteration	-12.1018
▁hover	-12.1018
▁sword	-12.1019
▁monk	-12.1019
▁grind	-12.1019
▁rode	-12.102
▁injection	-12.1021
▁400,000	-12.1022
▁monday	-12.1028
▁attraction	-12.1031
▁assess	-12.1036
▁daylight	-12.1037
▁gland	-12.1042
▁correction	-12.1044
▁coup	-12.105
▁upgrade	-12.1062
▁laz	-12.1069
▁sequ	-12.1088
▁migrat	-12.1109
▁corp	-12.1118
graphic	-12.1119
▁commander	-12.1127
▁customiz	-12.1128
▁ballet	-12.113
pont	-12.115
▁carrier	-12.1164
craft	-12.1179
script	-12.1184
plus	-12.1184
positive	-12.1185
sleep	-12.1185
group	-12.1185
social	-12.1186
▁purchas	-12.1188
▁cub	-12.1203
▁facilitate	-12.1224
▁seize	-12.1243
uza	-12.1266
▁hind	-12.1284
▁feminis	-12.1319
▁2,	-12.1332
ibati	-12.1344
▁mau	-12.137
▁prosecut	-12.1386
▁anthropolog	-12.1388
disciplinar	-12.1393
▁articulate	-12.1393
▁cambodia	-12.1393
▁colombia	-12.1393
▁condemn	-12.1393
▁confusing	-12.1393
▁diminish	-12.1393
▁dwarf	-12.1393
▁embark	-12.1393
▁epilep	-12.1393
▁equator	-12.1393
▁excerpt	-12.1393
▁immigration	-12.1393
▁intimidat	-12.1393
▁lithium	-12.1393
▁mammogram	-12.1393
▁millisecond	-12.1393
▁monarch	-12.1393
▁orangutan	-12.1393
▁prohibit	-12.1393
▁rainbow	-12.1393
▁sermon	-12.1393
▁submarine	-12.1393
▁substitute	-12.1393
▁susceptib	-12.1393
▁testimon	-12.1393
▁thunder	-12.1393
▁unacceptabl	-12.1393
▁unimaginabl	-12.1393
▁ushahidi	-12.1393
▁wavelength	-12.1393
munition	-12.1393
▁complication	-12.1393
▁filament	-12.1393
▁laundr	-12.1393
▁stiff	-12.1393
▁advertisement	-12.1393
▁caregiver	-12.1393
▁invasion	-12.1393
▁irrigat	-12.1393
▁microwave	-12.1393
▁burial	-12.1393
▁enslav	-12.1393
▁strive	-12.1393
▁wreck	-12.1393
▁biotechnolog	-12.1393
▁eager	-12.1393
▁ballot	-12.1393
▁jacket	-12.1393
▁waist	-12.1393
▁danny	-12.1393
▁packet	-12.1394
▁consent	-12.1394
▁russe	-12.1394
▁tutor	-12.1394
▁calci	-12.1394
▁payload	-12.1394
▁darpa	-12.1395
▁curator	-12.1395
▁portug	-12.1395
▁gall	-12.1395
▁assessment	-12.1395
▁bono	-12.1396
▁compris	-12.1397
▁viewpoint	-12.1397
▁dissect	-12.1398
▁poop	-12.1399
▁reconnect	-12.1399
▁disposal	-12.14
▁inmate	-12.14
▁wax	-12.1401
▁overload	-12.1402
▁payoff	-12.1402
▁excellence	-12.1403
▁plato	-12.1404
▁swear	-12.1404
▁expressive	-12.1405
▁analytical	-12.1409
▁meaningless	-12.1409
▁mp	-12.1414
▁lang	-12.1414
▁heroic	-12.1418
▁fairness	-12.1427
▁treasure	-12.1429
▁pav	-12.143
▁petri	-12.1442
▁semina	-12.1476
▁surge	-12.1484
▁prioritize	-12.1496
▁simulat	-12.151
▁revolutioniz	-12.1511
▁sec	-12.1528
load	-12.1548
communication	-12.1585
massive	-12.1585
week	-12.1586
resistan	-12.1601
educat	-12.1604
▁generalize	-12.1605
▁refin	-12.1615
brew	-12.1626
illin	-12.1634
▁induce	-12.1635
▁kri	-12.1642
lude	-12.1693
▁infer	-12.1703
▁axe	-12.1712
▁northwest	-12.1719
▁activis	-12.1728
▁copp	-12.1733
▁geographical	-12.1735
▁sneak	-12.1737
▁summar	-12.1745
▁compass	-12.1788
▁emphasi	-12.1792
▁auditor	-12.1793
ibera	-12.1793
▁instantaneous	-12.1793
▁thorough	-12.1793
▁abortion	-12.1793
▁delicate	-12.1793
▁destructive	-12.1793
▁feminin	-12.1793
▁hominid	-12.1793
▁implicit	-12.1793
▁mermaid	-12.1793
▁mortgage	-12.1793
▁nanoparticle	-12.1793
▁occupie	-12.1793
▁oregon	-12.1793
▁paragraph	-12.1793
▁pervasive	-12.1793
▁pheromone	-12.1793
▁redundan	-12.1793
▁resonance	-12.1793
▁taxpayer	-12.1793
▁unpredictabl	-12.1793
▁2013	-12.1793
▁buddha	-12.1793
▁chord	-12.1793
▁exclude	-12.1793
▁sterile	-12.1793
▁vapor	-12.1793
▁counterpart	-12.1793
▁ozone	-12.1793
▁draft	-12.1793
▁persuasi	-12.1793
▁resort	-12.1793
▁simon	-12.1793
▁linguist	-12.1793
▁matern	-12.1793
▁superstar	-12.1793
▁facult	-12.1793
▁nuance	-12.1793
vinci	-12.1793
▁ruling	-12.1793
▁orchid	-12.1793
▁ingenu	-12.1793
▁battlefield	-12.1793
▁sync	-12.1794
▁illiterate	-12.1794
▁aquatic	-12.1794
nourish	-12.1794
▁hatred	-12.1794
advert	-12.1794
▁goose	-12.1795
▁criticism	-12.1795
▁victorian	-12.1795
sterda	-12.1796
▁feat	-12.1796
▁enthusiastic	-12.1796
▁trek	-12.1796
abbage	-12.1796
▁stall	-12.1797
▁darwinian	-12.1798
▁nazi	-12.1798
▁philippi	-12.1798
▁alternat	-12.1798
▁posture	-12.1799
onica	-12.1799
▁token	-12.1799
▁beast	-12.1799
▁firefl	-12.1801
▁plugg	-12.1802
gowan	-12.1803
▁reconstruction	-12.1805
▁merit	-12.1809
rdon	-12.1809
sourc	-12.181
▁resin	-12.181
nanometer	-12.1811
▁mock	-12.1811
▁juni	-12.1812
▁parade	-12.1815
rief	-12.1822
▁bald	-12.1823
▁bj	-12.1825
▁norman	-12.1835
▁intent	-12.1835
▁clapp	-12.1866
▁strap	-12.1893
▁touris	-12.1898
▁complet	-12.1921
▁stripp	-12.1968
sensitive	-12.2001
fashion	-12.2001
cultural	-12.2001
economic	-12.2002
grand	-12.2002
virus	-12.2002
boat	-12.201
linear	-12.2017
▁entrepreneuri	-12.2025
barack	-12.2028
plex	-12.2057
divid	-12.2073
▁whit	-12.2082
lateral	-12.2087
ough	-12.2164
▁ox	-12.2176
eight	-12.2185
proving	-12.2201
▁bureau	-12.221
▁premature	-12.221
▁accommodate	-12.221
▁beekeeper	-12.221
▁biodegrad	-12.221
▁buffet	-12.221
▁cafeteria	-12.221
▁catastrophic	-12.221
▁commodity	-12.221
▁evaluation	-12.221
▁jacque	-12.221
▁juvenile	-12.221
▁lettuce	-12.221
▁metronome	-12.221
▁migraine	-12.221
▁pediatric	-12.221
▁pixar	-12.221
▁provision	-12.221
▁relevanc	-12.221
▁remittance	-12.221
▁resign	-12.221
▁responsive	-12.221
▁template	-12.221
▁throat	-12.221
▁venue	-12.221
▁circum	-12.221
▁dallas	-12.221
▁montana	-12.221
▁sleeve	-12.221
▁zambia	-12.221
▁fundrais	-12.221
▁hectare	-12.221
▁straw	-12.221
▁mutant	-12.221
▁elastic	-12.221
▁energetic	-12.221
▁orientation	-12.221
▁ultrasound	-12.221
▁serge	-12.221
▁polish	-12.221
▁choreograph	-12.221
▁cynic	-12.221
▁disseminat	-12.221
▁jefferson	-12.221
▁preschool	-12.2211
▁ardu	-12.2211
▁obey	-12.2211
▁kidnappe	-12.2211
▁glorious	-12.2211
▁splash	-12.2211
▁cmu	-12.2212
▁decode	-12.2213
▁knot	-12.2214
ahedron	-12.2214
▁humid	-12.2214
▁verge	-12.2216
▁roger	-12.2216
▁livelihood	-12.2217
▁oak	-12.2217
▁violation	-12.2217
▁simplify	-12.2219
cumen	-12.222
▁balti	-12.2222
▁robin	-12.2228
▁reviv	-12.2231
▁propeller	-12.2239
home	-12.2248
▁vega	-12.2248
▁harle	-12.2248
▁massac	-12.2274
lerant	-12.2283
▁mach	-12.2285
▁bioma	-12.2294
▁mobiliz	-12.2306
built	-12.2331
▁copi	-12.2348
▁uncertain	-12.2357
▁fundamentalist	-12.2361
▁balanc	-12.2406
piece	-12.2436
—	-12.2437
great	-12.2437
market	-12.2437
patient	-12.2439
color	-12.2449
emia	-12.2472
▁tackl	-12.2571
nburg	-12.2572
▁patien	-12.2579
chester	-12.2617
▁refrigerat	-12.2639
▁multipli	-12.2642
▁aqua	-12.2643
counterintuitive	-12.2644
▁algebra	-12.2644
▁anecdote	-12.2644
▁approval	-12.2644
▁bumblebee	-12.2644
▁catalyst	-12.2644
▁cosmetic	-12.2644
▁doctrine	-12.2644
▁excavat	-12.2644
▁frugal	-12.2644
▁grassroots	-12.2644
▁improbabl	-12.2644
▁irregular	-12.2644
▁multitask	-12.2644
▁nanopatch	-12.2644
▁plunge	-12.2644
▁sapien	-12.2644
▁sulfur	-12.2644
▁sydney	-12.2644
▁tectonic	-12.2644
▁unequal	-12.2644
▁unthink	-12.2644
▁asphalt	-12.2644
▁shredd	-12.2644
▁squeak	-12.2644
▁swirl	-12.2644
▁unaware	-12.2644
▁gorilla	-12.2644
▁spawn	-12.2644
▁chalk	-12.2644
▁coworker	-12.2644
▁premier	-12.2644
▁collage	-12.2645
▁wetsuit	-12.2645
▁homosexual	-12.2645
▁propagat	-12.2645
▁confer	-12.2645
▁deteriorat	-12.2645
▁harass	-12.2645
▁motorcycle	-12.2645
▁vector	-12.2645
▁anchor	-12.2645
▁cheek	-12.2645
▁biomaterial	-12.2645
▁comedian	-12.2645
▁regulator	-12.2646
▁dictate	-12.2646
▁catalog	-12.2646
▁consultant	-12.2646
▁cough	-12.2647
▁wiki	-12.2647
▁offshor	-12.2647
▁emergen	-12.2651
▁persever	-12.2652
▁barber	-12.2654
▁klei	-12.2656
▁acceleration	-12.2657
▁delete	-12.2658
▁scout	-12.2659
▁alaba	-12.266
▁accelerator	-12.266
▁500,000	-12.2666
agile	-12.2674
▁contractor	-12.2678
▁shir	-12.2681
round	-12.2683
deli	-12.2719
▁industrialize	-12.2745
▁poetic	-12.2749
▁originate	-12.2753
idden	-12.2771
moth	-12.278
▁continual	-12.282
▁immersi	-12.286
induc	-12.2875
▁participator	-12.2878
nutrition	-12.2889
degree	-12.2891
structure	-12.2891
fund	-12.2893
▁radiat	-12.2916
▁mott	-12.2916
▁radioactiv	-12.2956
mega	-12.2992
riff	-12.2995
▁dj	-12.3004
▁replica	-12.3012
▁capacit	-12.305
▁whil	-12.3054
▁visualiz	-12.3069
▁dictator	-12.3099
▁archimed	-12.3099
▁empirical	-12.3099
▁inexpensive	-12.3099
▁optimal	-12.3099
▁palestine	-12.3099
▁turbulen	-12.3099
▁ambiguit	-12.3099
▁apparatus	-12.3099
▁appliance	-12.3099
▁armstrong	-12.3099
▁asylum	-12.3099
▁biblical	-12.3099
▁biofuel	-12.3099
▁brigade	-12.3099
▁calculator	-12.3099
▁census	-12.3099
▁eleven	-12.3099
▁everglade	-12.3099
▁heartbreak	-12.3099
▁improvisation	-12.3099
▁infidel	-12.3099
▁intercept	-12.3099
▁interrogat	-12.3099
▁intestine	-12.3099
▁odysse	-12.3099
▁peanut	-12.3099
▁picasso	-12.3099
▁plaque	-12.3099
▁pneumo	-12.3099
▁qatar	-12.3099
▁recipient	-12.3099
▁recreation	-12.3099
▁recurr	-12.3099
▁rhetoric	-12.3099
▁taiwan	-12.3099
▁tamiflu	-12.3099
▁teszler	-12.3099
▁tribute	-12.3099
▁turbine	-12.3099
▁unfamiliar	-12.3099
▁vicious	-12.3099
▁adjacen	-12.3099
▁barbershop	-12.3099
▁delusion	-12.3099
▁distress	-12.3099
▁eagle	-12.3099
▁reckless	-12.3099
▁announcement	-12.3099
▁altruis	-12.3099
▁cereal	-12.3099
▁ukrain	-12.3099
▁honeybee	-12.3099
▁martian	-12.3099
▁embass	-12.3099
▁lemon	-12.3099
▁ivory	-12.3099
▁sponge	-12.3099
▁aquariu	-12.3099
▁underpin	-12.3099
▁hunch	-12.3099
▁influenza	-12.3099
▁warrant	-12.3099
▁speculate	-12.3099
▁anomal	-12.31
▁notebook	-12.31
▁cubic	-12.31
▁composite	-12.31
▁crown	-12.3101
▁orphanage	-12.3101
fetch	-12.3101
▁1.4	-12.3101
▁admission	-12.3101
▁biotech	-12.3101
▁marble	-12.3101
▁horrific	-12.3102
▁instinctive	-12.3102
▁chok	-12.3102
▁mason	-12.3102
▁embarrassment	-12.3102
▁jenn	-12.3103
▁shortcut	-12.3104
▁informant	-12.3104
▁navigation	-12.3104
withstand	-12.3105
▁rect	-12.3106
▁peek	-12.3106
▁lava	-12.3107
▁electora	-12.3109
▁geologist	-12.3109
▁constructive	-12.3109
▁powerpoint	-12.311
▁cobra	-12.3112
▁mimick	-12.3112
▁slate	-12.3113
▁medal	-12.3113
▁physiological	-12.3118
▁bait	-12.3118
▁contributor	-12.312
▁bounc	-12.3129
chille	-12.3171
▁metaphorical	-12.3221
▁synchron	-12.3221
▁subjectiv	-12.3269
terior	-12.3278
carriage	-12.3286
▁messag	-12.3304
transcenden	-12.3319
▁navigat	-12.3339
bucks	-12.3367
secure	-12.3367
polar	-12.3367
different	-12.3367
fell	-12.3372
▁53	-12.3392
▁whistl	-12.3433
▁glori	-12.3435
▁astonish	-12.3473
utilize	-12.3534
▁contradict	-12.357
disproportionate	-12.3575
fahren	-12.3575
gnostic	-12.3575
▁attorney	-12.3575
▁carcinogen	-12.3575
▁conscience	-12.3575
▁convenience	-12.3575
▁crochet	-12.3575
▁explosive	-12.3575
▁extremism	-12.3575
▁extremist	-12.3575
▁giraffe	-12.3575
▁hummingbird	-12.3575
▁hurdle	-12.3575
▁identification	-12.3575
▁kindergarten	-12.3575
▁lawrence	-12.3575
▁mcdonald	-12.3575
▁mundan	-12.3575
▁murray	-12.3575
▁netflix	-12.3575
▁opponent	-12.3575
▁patriarch	-12.3575
▁patriot	-12.3575
▁photosynthesi	-12.3575
▁plume	-12.3575
▁pollinator	-12.3575
▁pornograph	-12.3575
▁reconciliation	-12.3575
▁reprogram	-12.3575
▁reservoir	-12.3575
▁ribbon	-12.3575
▁servant	-12.3575
▁skyscraper	-12.3575
▁sprawl	-12.3575
▁superconductor	-12.3575
▁tyrann	-12.3575
▁vegetarian	-12.3575
▁whistleblower	-12.3575
▁coalition	-12.3575
▁detach	-12.3575
▁embryonic	-12.3575
▁queue	-12.3575
▁reflex	-12.3575
▁ripple	-12.3575
▁sniff	-12.3575
▁bureaucrac	-12.3575
▁headphone	-12.3575
▁stagna	-12.3575
▁toddler	-12.3575
▁brute	-12.3575
▁knob	-12.3575
▁untouch	-12.3575
▁ingenious	-12.3575
▁summon	-12.3575
▁hydrocarbon	-12.3575
▁goddess	-12.3575
▁roommate	-12.3575
▁brook	-12.3575
▁replicator	-12.3575
▁cemeter	-12.3576
▁dictatorship	-12.3576
▁francis	-12.3576
▁petrol	-12.3576
▁worn	-12.3576
▁vend	-12.3576
▁tapestr	-12.3576
▁ideo	-12.3576
▁bmw	-12.3576
▁holistic	-12.3576
▁algeria	-12.3576
▁allocate	-12.3576
▁subset	-12.3576
▁delegat	-12.3577
▁fibro	-12.3577
▁unnatural	-12.3577
▁variant	-12.3577
▁automo	-12.3578
▁outrageous	-12.3578
▁suburban	-12.3578
▁loom	-12.3579
▁lightweight	-12.358
▁possession	-12.358
▁delta	-12.358
crony	-12.3583
▁ambien	-12.3583
▁circulation	-12.3583
▁twentie	-12.3583
▁simplistic	-12.3584
▁romo	-12.3587
closure	-12.3589
▁symboliz	-12.3591
replicating	-12.3593
▁lick	-12.36
▁clau	-12.3604
▁misuse	-12.3605
▁educator	-12.3606
zoning	-12.3606
▁senat	-12.3608
▁slot	-12.3608
▁susan	-12.361
▁stewards	-12.3626
▁populat	-12.3629
supervis	-12.3631
▁infuse	-12.3632
literate	-12.3632
▁terminat	-12.3635
▁deflect	-12.3672
▁inclin	-12.3676
sanitary	-12.3694
dec	-12.3712
▁fertilize	-12.3725
▁marsha	-12.373
▁rib	-12.3851
conduct	-12.3867
mobile	-12.3867
function	-12.3867
white	-12.3867
people	-12.3867
▁rescu	-12.3894
angular	-12.394
▁snap	-12.3951
▁flex	-12.3964
safe	-12.398
finish	-12.3982
▁visi	-12.3984
ippi	-12.3984
▁frequent	-12.4005
▁propell	-12.404
▁possess	-12.407
▁fluctu	-12.4072
▁embed	-12.4075
▁intellect	-12.4075
▁buffalo	-12.4075
▁carpenter	-12.4075
▁clitoris	-12.4075
▁communal	-12.4075
▁cyborg	-12.4075
▁deconstruct	-12.4075
▁discomfort	-12.4075
▁disparate	-12.4075
▁gossip	-12.4075
▁heartbeat	-12.4075
▁homicide	-12.4075
▁laureate	-12.4075
▁prestig	-12.4075
▁primordial	-12.4075
▁rediscover	-12.4075
▁repertoire	-12.4075
▁rigorous	-12.4075
▁sputnik	-12.4075
▁twelve	-12.4075
▁unpleasant	-12.4075
▁incubator	-12.4075
▁necessit	-12.4075
▁orleans	-12.4075
▁galile	-12.4075
▁siege	-12.4075
▁socket	-12.4075
▁solemn	-12.4075
borough	-12.4075
▁vacant	-12.4075
▁darfur	-12.4075
▁distill	-12.4075
▁lgbt	-12.4075
▁lanka	-12.4075
▁hippie	-12.4075
▁subtract	-12.4075
▁scandal	-12.4075
▁scour	-12.4075
▁psychopath	-12.4075
▁absent	-12.4075
▁subconscious	-12.4076
▁stink	-12.4076
▁paranoi	-12.4076
ouri	-12.4076
▁clich	-12.4076
partisan	-12.4076
▁aspire	-12.4076
▁interference	-12.4076
▁mainframe	-12.4076
▁imaginative	-12.4077
▁fingerprint	-12.4077
▁restoration	-12.4077
▁traumatiz	-12.4077
▁feasib	-12.4077
▁boyfriend	-12.4077
▁interval	-12.4078
▁1,1	-12.4078
▁instructor	-12.4078
▁saturat	-12.4079
▁breakdown	-12.408
▁tolerate	-12.408
▁dwell	-12.408
▁monet	-12.4081
▁kitten	-12.4081
▁vendor	-12.4082
▁disagreement	-12.4082
▁bombard	-12.4082
▁sufi	-12.4084
▁exile	-12.4088
gatherer	-12.4093
▁hike	-12.4095
cycle	-12.4123
credit	-12.4147
▁emulat	-12.4154
pong	-12.4184
▁colonize	-12.4186
▁vene	-12.4224
fabricat	-12.4226
▁communi	-12.4251
▁burm	-12.4274
▁escap	-12.4311
erusal	-12.4332
▁swee	-12.4344
▁abusi	-12.4387
symmetr	-12.4391
violen	-12.4393
appropriate	-12.4393
author	-12.4393
limited	-12.4393
driving	-12.4393
protect	-12.4394
species	-12.4394
first	-12.4394
clean	-12.4397
national	-12.4404
text	-12.4407
quat	-12.4458
▁redefin	-12.4491
▁interconnect	-12.4494
▁broc	-12.4544
▁optimiz	-12.456
hrir	-12.4566
▁mortal	-12.4596
▁rhino	-12.4601
▁effic	-12.4601
▁acquisition	-12.4601
▁arithmetic	-12.4601
▁ceramic	-12.4601
▁constitute	-12.4601
▁diffuse	-12.4601
▁dreyfus	-12.4601
▁ecsta	-12.4601
▁eyebrow	-12.4601
▁gecko	-12.4601
▁gloom	-12.4601
▁gradient	-12.4601
▁hippocamp	-12.4601
▁hygien	-12.4601
▁jennifer	-12.4601
▁messenger	-12.4601
▁modular	-12.4601
▁pepper	-12.4601
▁plural	-12.4601
▁precipitat	-12.4601
▁privatiz	-12.4601
▁qualify	-12.4601
▁reception	-12.4601
▁reconcile	-12.4601
▁relocate	-12.4601
▁reptile	-12.4601
▁sanctuar	-12.4601
▁seizure	-12.4601
▁transgender	-12.4601
▁amendment	-12.4601
▁chariot	-12.4601
▁microrna	-12.4601
▁suitcase	-12.4601
▁bargain	-12.4601
▁discrete	-12.4601
▁landfill	-12.4601
▁levitat	-12.4601
▁retriev	-12.4601
▁seatbelt	-12.4601
▁trawl	-12.4601
▁courtyard	-12.4601
▁nichol	-12.4601
▁audition	-12.4602
electrifie	-12.4602
mpulsive	-12.4602
▁abraham	-12.4602
▁balcon	-12.4602
▁condens	-12.4602
▁cymatic	-12.4602
▁barbie	-12.4602
▁propulsi	-12.4602
▁blunt	-12.4602
▁seamless	-12.4602
▁hurry	-12.4602
▁inquiry	-12.4602
▁tembere	-12.4602
▁unveil	-12.4602
scence	-12.4602
▁crumbl	-12.4602
▁billionaire	-12.4602
▁byproduct	-12.4602
▁quiz	-12.4602
▁biomedic	-12.4602
▁motive	-12.4602
▁mahmo	-12.4602
▁omni	-12.4602
▁complian	-12.4602
▁offense	-12.4602
▁championship	-12.4602
▁charming	-12.4602
▁attain	-12.4602
▁urine	-12.4602
▁megacit	-12.4602
▁cern	-12.4603
▁mediocr	-12.4603
▁campfire	-12.4603
▁wilson	-12.4603
▁rooftop	-12.4603
▁resume	-12.4603
▁photoshop	-12.4603
▁nomad	-12.4603
▁magnify	-12.4603
▁chore	-12.4603
▁enroll	-12.4604
▁irish	-12.4604
▁forehead	-12.4604
▁verify	-12.4605
▁cubicle	-12.4605
▁techno	-12.4605
▁pedal	-12.4605
▁gaga	-12.4605
▁distinctive	-12.4606
▁vienn	-12.4607
▁forager	-12.4607
▁simulator	-12.4607
▁senator	-12.4607
▁underlie	-12.4613
▁superintelligen	-12.4615
▁sip	-12.4617
▁solidari	-12.4627
▁memorabl	-12.4634
▁energiz	-12.4639
▁ovari	-12.4658
rdin	-12.4686
colonial	-12.4689
▁pisa	-12.4694
taller	-12.4701
ggy	-12.4718
▁patric	-12.473
▁snapp	-12.4736
▁medica	-12.4764
▁geolog	-12.482
▁compensat	-12.4864
fitted	-12.4897
▁apolog	-12.4901
▁discour	-12.4913
▁crowdsourc	-12.492
▁plausib	-12.4938
fifth	-12.4948
terroris	-12.4948
belief	-12.4949
healthy	-12.4949
chemical	-12.4949
performance	-12.4951
plain	-12.496
eater	-12.5031
credible	-12.5051
▁functionalit	-12.5055
▁brillian	-12.5092
▁numb	-12.5127
bertie	-12.5152
▁prevalen	-12.5153
▁clarif	-12.5155
sufficien	-12.5156
▁rejuvenat	-12.5157
▁amplify	-12.5157
▁astrolabe	-12.5157
▁aurora	-12.5157
▁blackberry	-12.5157
▁cheetah	-12.5157
▁diabetic	-12.5157
▁embody	-12.5157
▁expenditure	-12.5157
▁hondura	-12.5157
▁inferior	-12.5157
▁insecticide	-12.5157
▁katrina	-12.5157
▁mangrove	-12.5157
▁metaboliz	-12.5157
▁miraculous	-12.5157
▁pavilion	-12.5157
▁pentagon	-12.5157
▁pluripotent	-12.5157
▁puzzling	-12.5157
▁rehearsal	-12.5157
▁supernova	-12.5157
▁supplement	-12.5157
▁tadpole	-12.5157
▁wednesday	-12.5157
▁whiske	-12.5157
▁yogurt	-12.5157
▁dilut	-12.5157
▁dizzy	-12.5157
▁menstruati	-12.5157
▁preconce	-12.5157
▁quark	-12.5157
▁rupee	-12.5157
▁stockpile	-12.5157
▁vibrant	-12.5157
▁enlist	-12.5157
▁intertwin	-12.5157
▁latitude	-12.5157
▁morocc	-12.5157
▁vaccination	-12.5157
▁perfume	-12.5157
▁notorious	-12.5157
▁nudge	-12.5157
▁indulge	-12.5157
▁nickname	-12.5157
▁sushi	-12.5157
dispens	-12.5157
▁oscar	-12.5157
▁sabbatical	-12.5157
▁charisma	-12.5157
▁jackson	-12.5158
▁dividend	-12.5158
▁palace	-12.5158
▁rumor	-12.5158
▁cursor	-12.5158
▁vague	-12.5158
elusive	-12.5158
vantage	-12.5159
▁fond	-12.5159
▁holoc	-12.5159
▁autops	-12.5159
▁grove	-12.5159
▁rodent	-12.5159
▁paleontologist	-12.516
▁stockhol	-12.516
▁milestone	-12.516
becca	-12.516
▁mutate	-12.516
▁narrat	-12.5161
guay	-12.5161
▁abyss	-12.5163
▁skydiv	-12.5166
▁ecologist	-12.5166
ouver	-12.5168
junction	-12.5187
shaw	-12.5207
▁husk	-12.5215
▁withdraw	-12.5227
feld	-12.5257
▁discourag	-12.5298
▁leverag	-12.5307
▁methodolog	-12.5332
plication	-12.5399
▁financ	-12.5409
▁hostilit	-12.5421
▁styl	-12.5507
present	-12.5534
determin	-12.5536
consum	-12.5536
correct	-12.5537
typical	-12.5537
organic	-12.5537
carbon	-12.5537
process	-12.5537
machine	-12.5537
ocean	-12.5538
value	-12.5552
▁mello	-12.5593
natal	-12.5637
spiring	-12.567
▁urbaniz	-12.5675
▁invisib	-12.5689
anthrop	-12.5742
aggressi	-12.5745
▁lexico	-12.5745
▁segregat	-12.5745
▁seroton	-12.5745
▁prompt	-12.5745
percussion	-12.5745
▁abolish	-12.5745
▁appetite	-12.5745
▁arrogan	-12.5745
▁astounding	-12.5745
▁athletic	-12.5745
▁boulder	-12.5745
▁bundle	-12.5745
▁burglar	-12.5745
▁censorship	-12.5745
▁cruise	-12.5745
▁cumulative	-12.5745
▁daydream	-12.5745
▁detergent	-12.5745
▁devastation	-12.5745
▁ecuador	-12.5745
▁epidemiolog	-12.5745
▁exoplanet	-12.5745
▁grizzl	-12.5745
▁guatemala	-12.5745
▁horrify	-12.5745
▁malignan	-12.5745
▁papaya	-12.5745
▁perpetrator	-12.5745
▁plaster	-12.5745
▁practitioner	-12.5745
▁precursor	-12.5745
▁psychotherap	-12.5745
▁railroad	-12.5745
▁reconfigur	-12.5745
▁refresh	-12.5745
▁retrospect	-12.5745
▁sargass	-12.5745
▁semester	-12.5745
▁shrunk	-12.5745
▁thursday	-12.5745
▁valentine	-12.5745
▁virulen	-12.5745
▁bailout	-12.5745
▁bulldoz	-12.5745
▁dementia	-12.5745
▁hispanic	-12.5745
▁imprison	-12.5745
▁provoke	-12.5745
▁staple	-12.5745
▁suspens	-12.5745
▁transcript	-12.5745
▁artisan	-12.5745
▁persecut	-12.5745
▁probation	-12.5745
▁snail	-12.5745
▁strawberr	-12.5745
▁churn	-12.5745
▁windmill	-12.5745
▁champa	-12.5745
▁irritat	-12.5745
▁orchard	-12.5745
▁tweak	-12.5745
▁savage	-12.5745
▁cherish	-12.5745
▁reign	-12.5745
▁douglas	-12.5745
▁mound	-12.5745
▁daunt	-12.5745
▁prosthes	-12.5745
▁snack	-12.5745
▁ellip	-12.5745
▁evoke	-12.5745
▁birch	-12.5746
umann	-12.5746
:30	-12.5746
▁99.9	-12.5746
▁relay	-12.5746
▁radiologist	-12.5746
▁alexandria	-12.5746
▁rosling	-12.5746
▁pacemaker	-12.5746
▁disclosure	-12.5746
▁dissent	-12.5746
▁hocke	-12.5746
▁reverberat	-12.5746
▁nanoscale	-12.5746
▁crease	-12.5746
▁anthon	-12.5746
rajan	-12.5747
▁salad	-12.5747
▁fantasi	-12.5747
▁shoreline	-12.5747
▁panama	-12.5747
▁spear	-12.5748
▁sunset	-12.5748
▁assert	-12.5757
▁crisp	-12.5762
▁numerical	-12.577
▁descen	-12.5779
▁relat	-12.5837
▁accr	-12.5877
helve	-12.5948
▁subsidiz	-12.6023
▁mcca	-12.6087
tooth	-12.616
define	-12.6161
industrial	-12.6162
birth	-12.6162
sound	-12.6162
condition	-12.6162
focus	-12.6163
grain	-12.6163
mouth	-12.6163
throw	-12.6164
speak	-12.6174
respective	-12.6198
▁antiqu	-12.6216
▁decompos	-12.6245
▁midwest	-12.6285
▁rattl	-12.6314
▁celebrit	-12.632
▁analytic	-12.6344
▁desperat	-12.6346
appy	-12.6363
▁temperat	-12.637
▁indefinite	-12.637
▁nikola	-12.637
jazeera	-12.637
ocular	-12.637
▁administrative	-12.637
▁aerodynamic	-12.637
▁amplifie	-12.637
▁antidepressant	-12.637
▁arthriti	-12.637
▁autobiograph	-12.637
▁bankrupt	-12.637
▁benchmark	-12.637
▁constellation	-12.637
▁dazzl	-12.637
▁decisive	-12.637
▁disguise	-12.637
▁hijack	-12.637
▁kuwait	-12.637
▁leisure	-12.637
▁malaysia	-12.637
▁microorganism	-12.637
▁misconception	-12.637
▁mitochondria	-12.637
▁moisture	-12.637
▁neurologist	-12.637
▁neutrino	-12.637
▁outweigh	-12.637
▁plummet	-12.637
▁portfolio	-12.637
▁pragmatic	-12.637
▁semantic	-12.637
▁sophistication	-12.637
▁sprinkle	-12.637
▁stubborn	-12.637
▁suspicion	-12.637
▁synonym	-12.637
▁thermostat	-12.637
▁thirst	-12.637
▁trumpet	-12.637
▁unravel	-12.637
▁wrinkle	-12.637
▁braille	-12.637
▁brochure	-12.637
▁disintegrat	-12.637
▁immoral	-12.637
▁mitigate	-12.637
▁pandora	-12.637
▁schwarz	-12.637
▁scoop	-12.637
fifteen	-12.637
▁bruise	-12.637
▁cowboy	-12.637
▁gospel	-12.637
▁napkin	-12.637
▁nominate	-12.637
▁sequester	-12.637
▁sociologist	-12.637
▁tuition	-12.637
▁vigil	-12.637
▁clerk	-12.637
▁detain	-12.637
▁freud	-12.637
▁orgasm	-12.637
▁shaman	-12.637
▁maslow	-12.637
▁shuttle	-12.637
▁stalin	-12.637
▁lexicograph	-12.637
▁craftsman	-12.6371
▁bookstore	-12.6371
▁decay	-12.6371
▁endemic	-12.6371
▁duct	-12.6371
ludge	-12.6371
▁kelly	-12.6371
culus	-12.6371
archie	-12.6371
▁beaver	-12.6371
▁unchar	-12.6371
▁mailbox	-12.6371
▁oops	-12.6371
▁sciss	-12.6371
▁monstro	-12.6371
▁clunk	-12.6371
▁dumm	-12.6371
▁sentien	-12.6371
▁cohesi	-12.6371
▁progeri	-12.6372
▁niche	-12.6373
▁wobbl	-12.6375
▁remedi	-12.6375
▁implie	-12.6376
▁repressi	-12.6376
trude	-12.6385
▁competenc	-12.639
▁ashle	-12.64
name	-12.6459
agnes	-12.6468
argon	-12.6509
▁wiggl	-12.654
eastern	-12.6584
▁credi	-12.6611
maryland	-12.6628
atomic	-12.6683
rital	-12.6703
▁miniatur	-12.6731
▁miniaturiz	-12.6748
▁ethnicit	-12.6748
▁culminat	-12.6787
hitler	-12.6789
design	-12.6826
computer	-12.6828
infect	-12.6828
sexual	-12.6829
definition	-12.6829
famous	-12.6829
voice	-12.6829
thousand	-12.6829
▁multiplicati	-12.6831
ficial	-12.6877
course	-12.6958
haired	-12.6965
aggregat	-12.6965
bureaucratic	-12.6975
▁franc	-12.6979
▁disast	-12.701
exercis	-12.7012
variabl	-12.7033
▁anonym	-12.7035
nclusion	-12.7036
multipotentialit	-12.7037
▁barbecue	-12.7037
▁breeze	-12.7037
▁chernobyl	-12.7037
▁coconut	-12.7037
▁colonoscop	-12.7037
▁crucifi	-12.7037
▁cryptograph	-12.7037
▁desalinat	-12.7037
▁discharge	-12.7037
▁discount	-12.7037
▁emperor	-12.7037
▁encompass	-12.7037
▁fragrance	-12.7037
▁handcuff	-12.7037
▁hologram	-12.7037
▁holographic	-12.7037
▁humpback	-12.7037
▁matthew	-12.7037
▁mitchell	-12.7037
▁nephew	-12.7037
▁pajama	-12.7037
▁pendulum	-12.7037
▁pinnacle	-12.7037
▁prehistor	-12.7037
▁preoccup	-12.7037
▁quantify	-12.7037
▁reintroduc	-12.7037
▁relentless	-12.7037
▁repositor	-12.7037
▁scrutin	-12.7037
▁senegal	-12.7037
▁soybean	-12.7037
▁spectacle	-12.7037
▁spreadsheet	-12.7037
▁squirrel	-12.7037
▁squish	-12.7037
▁archetyp	-12.7037
▁leapfrog	-12.7037
▁ridicule	-12.7037
▁rifle	-12.7037
▁sneez	-12.7037
▁taxonom	-12.7037
▁yahoo	-12.7037
▁biomimic	-12.7037
▁defecat	-12.7037
▁erotic	-12.7037
▁pianist	-12.7037
▁prairie	-12.7037
▁pseudo	-12.7037
▁locus	-12.7037
▁maurit	-12.7037
▁widow	-12.7037
clamation	-12.7037
▁prophec	-12.7037
trophy	-12.7037
hhhh	-12.7037
▁caution	-12.7037
▁incision	-12.7037
▁sprout	-12.7037
▁alchem	-12.7037
▁enigma	-12.7037
▁dimitr	-12.7037
▁ballast	-12.7037
▁antiretroviral	-12.7037
▁spoon	-12.7037
▁ascend	-12.7037
brahim	-12.7037
▁frantic	-12.7037
▁barric	-12.7037
▁morgan	-12.7037
anguish	-12.7038
▁raft	-12.7038
▁litigat	-12.7038
▁contingen	-12.7039
▁stride	-12.704
▁monopol	-12.704
▁seren	-12.7041
▁rude	-12.7041
▁lyric	-12.7042
▁coerci	-12.7042
▁recit	-12.7043
chlor	-12.7045
acular	-12.7046
▁stroma	-12.7047
▁applica	-12.706
annie	-12.7079
▁simplifie	-12.708
▁utiliz	-12.7095
▁inertia	-12.7124
phyl	-12.7176
spiration	-12.742
▁considerabl	-12.7444
building	-12.745
▁archiv	-12.7459
convenient	-12.7541
billion	-12.7543
global	-12.7543
spoke	-12.7546
flection	-12.7602
activat	-12.7609
enhanc	-12.7637
▁innocen	-12.7651
▁columb	-12.7723
▁instruct	-12.7742
▁intersect	-12.7747
▁horrifi	-12.7747
▁sabbat	-12.7751
▁eject	-12.7751
▁eloquent	-12.7751
▁evacuat	-12.7751
▁gravitat	-12.7751
▁apprentice	-12.7751
▁cassette	-12.7751
▁johannes	-12.7751
▁mismatch	-12.7751
▁ominous	-12.7751
▁seductive	-12.7751
▁simpson	-12.7751
▁strangl	-12.7751
▁trespass	-12.7751
▁troubling	-12.7751
extraterrestrial	-12.7751
neurotransmitter	-12.7751
▁adhesive	-12.7751
▁amoeba	-12.7751
▁amputation	-12.7751
▁annihilat	-12.7751
▁apocalyp	-12.7751
▁bueno	-12.7751
▁buoy	-12.7751
▁decipher	-12.7751
▁detriment	-12.7751
▁diffusion	-12.7751
▁exclusion	-12.7751
▁exxon	-12.7751
▁granddaughter	-12.7751
▁hydrant	-12.7751
▁isotope	-12.7751
▁jirga	-12.7751
▁kilowatt	-12.7751
▁latrine	-12.7751
)	-14.9347
?	-14.9348
♫	-14.9348
