<pad>	0
<unk>	0
<s>	0
</s>	0
▁,	-3.04594
s	-3.1835
▁.	-3.20323
▁the	-3.38787
▁and	-3.74647
▁to	-3.8607
▁	-3.89427
▁a	-3.93201
▁of	-3.99372
▁'	-4.15379
▁that	-4.18999
▁i	-4.2814
▁in	-4.35033
▁it	-4.37991
▁we	-4.48932
▁you	-4.50343
ed	-4.55125
ing	-4.59492
`	-4.619
▁is	-4.62559
▁''	-4.71105
▁this	-4.83298
ly	-4.97955
t	-5.11541
▁so	-5.1177
▁was	-5.28153
▁they	-5.29902
▁on	-5.30699
y	-5.33369
▁for	-5.34114
▁are	-5.3979
▁have	-5.40921
d	-5.41591
▁with	-5.42805
▁but	-5.44838
▁what	-5.45637
▁do	-5.46786
▁—	-5.53795
▁be	-5.58976
'	-5.62103
▁n	-5.62671
▁can	-5.6268
▁?	-5.63022
-	-5.67728
▁about	-5.69882
re	-5.71665
▁there	-5.72322
▁not	-5.76672
▁an	-5.78045
▁my	-5.79902
▁all	-5.80133
▁at	-5.8221
▁one	-5.84342
▁like	-5.93476
▁people	-5.95772
▁from	-5.99648
▁if	-5.99863
▁our	-6.04942
▁as	-6.05047
▁now	-6.06493
m	-6.0862
▁he	-6.09522
▁just	-6.10061
▁these	-6.10527
▁)	-6.11055
(	-6.11112
▁:	-6.11677
▁or	-6.13378
▁us	-6.15578
▁when	-6.15602
e	-6.16207
▁see	-6.17409
▁because	-6.21004
▁me	-6.21178
very	-6.22067
▁out	-6.24405
▁know	-6.2571
▁by	-6.26376
▁how	-6.26757
▁up	-6.28225
▁them	-6.33307
▁more	-6.3391
▁had	-6.34851
▁going	-6.35235
ve	-6.36949
▁some	-6.37373
▁think	-6.38419
▁would	-6.39586
es	-6.40685
▁your	-6.40792
▁who	-6.40952
▁look	-6.42161
▁were	-6.42261
▁get	-6.43058
▁here	-6.44789
▁their	-6.45711
▁which	-6.47009
▁really	-6.48407
▁want	-6.50871
▁time	-6.51975
▁world	-6.54098
▁then	-6.55944
▁go	-6.56292
▁has	-6.58284
▁actual	-6.59601
▁other	-6.63344
▁could	-6.64964
n	-6.651
ies	-6.65293
▁into	-6.66782
▁will	-6.67562
▁way	-6.68203
▁did	-6.69545
▁where	-6.70055
▁no	-6.71888
laughter	-6.72341
▁years	-6.74021
▁things	-6.75487
▁make	-6.78037
▁right	-6.78111
▁well	-6.79383
▁t	-6.82595
▁she	-6.85937
▁need	-6.86521
been	-6.87469
▁start	-6.87526
▁first	-6.8868
se	-6.89555
▁work	-6.90623
▁say	-6.91081
▁two	-6.92519
▁something	-6.9256
▁new	-6.93648
▁much	-6.94365
er	-6.96059
▁over	-6.96495
▁than	-6.9693
▁every	-6.98831
lso	-6.99254
▁take	-6.99769
▁call	-6.99975
▁said	-7.00034
hose	-7.00208
▁thing	-7.00975
▁come	-7.01093
▁most	-7.01323
▁kind	-7.01755
▁little	-7.01902
▁got	-7.02501
▁back	-7.03649
▁lot	-7.04799
▁even	-7.05568
▁life	-7.07155
▁his	-7.11886
▁talk	-7.12235
ll	-7.12298
▁many	-7.14048
▁around	-7.22108
▁good	-7.22242
▁different	-7.22303
▁does	-7.22345
▁applau	-7.22443
▁change	-7.22691
▁any	-7.22748
▁her	-7.23862
.	-7.25028
▁through	-7.251
▁♫	-7.25124
▁let	-7.25976
▁why	-7.26022
day	-7.2893
▁down	-7.29438
▁use	-7.30615
▁mean	-7.31043
a	-7.31152
▁tell	-7.32504
▁idea	-7.33579
▁show	-7.34334
▁same	-7.34998
▁great	-7.38734
▁being	-7.3902
▁ca	-7.40798
ity	-7.4092
▁three	-7.41242
▁try	-7.41485
▁problem	-7.41525
r	-7.41741
▁put	-7.42009
▁human	-7.42411
▁day	-7.44313
;	-7.45725
▁part	-7.46622
▁thank	-7.48624
▁place	-7.49767
▁ask	-7.50182
self	-7.51441
▁give	-7.51623
▁doing	-7.53478
one	-7.5387
▁percent	-7.53991
▁made	-7.54279
▁after	-7.54467
▁year	-7.55943
in	-7.56622
▁fact	-7.57753
▁happen	-7.60456
al	-7.60832
able	-7.61262
▁find	-7.61574
▁own	-7.61695
▁e	-7.61979
other	-7.62626
▁big	-7.63025
▁turn	-7.63774
l	-7.64964
▁last	-7.66816
▁should	-7.67059
▁important	-7.68565
▁thought	-7.69993
▁before	-7.70428
▁end	-7.71385
o	-7.72362
▁him	-7.72482
▁might	-7.74011
▁never	-7.7417
▁live	-7.74623
▁together	-7.75229
▁better	-7.75838
▁example	-7.76175
▁bit	-7.76577
▁few	-7.77177
h	-7.77343
▁point	-7.77384
▁help	-7.7741
▁course	-7.77996
ion	-7.78129
▁system	-7.78205
▁love	-7.78348
▁off	-7.78568
▁still	-7.78744
each	-7.78902
▁again	-7.78905
▁able	-7.78954
▁design	-7.79327
▁story	-7.79401
▁next	-7.80337
▁million	-7.80375
▁school	-7.81308
▁brain	-7.81388
▁came	-7.82231
▁ago	-7.82549
▁create	-7.84092
▁long	-7.84271
▁number	-7.85388
▁technology	-7.86326
▁learn	-7.86385
ther	-7.87215
▁question	-7.87278
on	-7.87414
▁sort	-7.87652
went	-7.88029
▁real	-7.8836
▁water	-7.88745
▁play	-7.89565
▁kid	-7.89631
out	-7.91357
▁bet	-7.91906
ween	-7.93351
▁women	-7.934
▁found	-7.93451
w	-7.94105
▁too	-7.94269
▁cell	-7.94484
ally	-7.94609
▁become	-7.94927
▁data	-7.95716
▁understand	-7.95792
ce	-7.96192
▁al	-7.96462
▁believe	-7.97291
▁feel	-7.97956
▁maybe	-7.98166
▁ever	-7.99138
▁may	-7.99679
▁done	-8.01651
▁children	-8.0185
▁per	-8.02736
▁man	-8.028
▁space	-8.03271
▁four	-8.03613
▁whole	-8.04135
▁light	-8.04183
▁always	-8.04556
▁second	-8.04677
▁move	-8.05935
ok	-8.06004
▁power	-8.06209
▁person	-8.07261
▁everything	-8.07665
▁old	-8.09202
▁information	-8.09649
▁small	-8.09817
▁picture	-8.10052
▁project	-8.11132
▁home	-8.11225
c	-8.1148
▁10	-8.11561
▁computer	-8.11996
▁reason	-8.12558
▁guy	-8.12622
▁b	-8.13397
▁high	-8.13473
en	-8.13652
▁building	-8.14215
▁working	-8.1446
▁country	-8.14662
way	-8.15256
▁20	-8.15702
▁un	-8.16199
▁five	-8.16243
ves	-8.16405
▁experience	-8.1672
▁sense	-8.19076
▁money	-8.19252
▁future	-8.19405
ic	-8.19526
▁open	-8.20087
▁case	-8.2061
▁earth	-8.21029
▁food	-8.2224
▁hard	-8.22508
▁basic	-8.23397
▁thinking	-8.24009
▁form	-8.24142
▁moment	-8.24186
th	-8.24348
▁under	-8.24704
▁car	-8.24797
quite	-8.24892
▁social	-8.24993
nough	-8.25016
▁planet	-8.2502
▁left	-8.25094
▁group	-8.25202
k	-8.25364
▁interesting	-8.26039
▁imagine	-8.26298
▁mak	-8.26648
ld	-8.26846
▁process	-8.27038
▁billion	-8.27076
▁matter	-8.27383
0	-8.2741
▁best	-8.27526
▁bring	-8.27561
▁energy	-8.27592
▁getting	-8.28181
est	-8.28664
▁am	-8.28852
▁less	-8.29218
▁music	-8.29348
▁image	-8.29732
▁video	-8.30162
ever	-8.30294
▁hand	-8.30305
▁city	-8.30617
▁probabl	-8.30663
▁health	-8.31649
▁pretty	-8.31957
▁science	-8.32829
▁answer	-8.32841
▁animal	-8.33268
▁grow	-8.33384
▁simple	-8.33562
▁body	-8.33951
▁stuff	-8.34241
▁piece	-8.3464
▁countr	-8.34851
▁room	-8.35132
▁far	-8.35158
▁coming	-8.35229
▁africa	-8.35565
across	-8.35682
▁half	-8.35691
▁build	-8.35835
▁line	-8.35925
▁keep	-8.35999
▁possibl	-8.36034
▁remember	-8.36034
▁seem	-8.36334
▁job	-8.36586
ation	-8.36692
▁face	-8.36747
ness	-8.36903
▁dollars	-8.37032
g	-8.37042
▁family	-8.38136
▁government	-8.38282
▁such	-8.38322
▁set	-8.38595
us	-8.38604
▁allow	-8.393
▁saw	-8.39391
▁hav	-8.394
▁name	-8.39502
ything	-8.40533
▁lives	-8.40651
▁young	-8.4069
▁girl	-8.40781
▁global	-8.40921
▁men	-8.40953
▁almost	-8.41423
▁business	-8.41637
▁else	-8.41916
▁share	-8.42099
▁living	-8.4212
▁side	-8.42239
▁machine	-8.42319
▁complete	-8.42553
i	-8.42694
▁later	-8.42891
▁while	-8.43032
▁week	-8.43084
▁yet	-8.43254
▁oka	-8.433
▁art	-8.43454
▁close	-8.43531
▁societ	-8.43936
▁times	-8.44218
ers	-8.44825
▁unit	-8.45465
▁war	-8.45694
▁inside	-8.46031
▁thousand	-8.46144
▁sure	-8.4626
▁disease	-8.46515
le	-8.47285
▁care	-8.47544
▁nothing	-8.47837
p	-8.47929
▁particular	-8.48135
▁single	-8.48447
▁age	-8.48469
▁once	-8.48875
▁amazing	-8.49815
▁mind	-8.50268
stead	-8.50615
▁histor	-8.51153
▁six	-8.51845
▁u	-8.52015
▁order	-8.52049
▁both	-8.52054
▁watch	-8.52304
▁often	-8.52308
▁ra	-8.52607
ready	-8.5274
▁bad	-8.53184
▁final	-8.53778
▁whe	-8.5388
ment	-8.53906
▁student	-8.54022
▁large	-8.543
▁certain	-8.54456
▁book	-8.5447
▁child	-8.5495
▁hope	-8.55031
▁community	-8.55727
▁beautiful	-8.56544
▁public	-8.56651
▁days	-8.56817
▁walk	-8.5739
▁minute	-8.57547
▁cost	-8.57582
▁study	-8.57773
▁sometimes	-8.57823
▁level	-8.57922
▁since	-8.58113
▁run	-8.58816
▁stop	-8.58848
▁exact	-8.58904
▁read	-8.58915
▁months	-8.58942
▁everybody	-8.59035
▁head	-8.59168
▁yes	-8.59212
▁self	-8.59411
▁interest	-8.60063
▁game	-8.6022
▁states	-8.60504
▁happens	-8.60694
▁hundred	-8.6074
▁wrong	-8.60971
▁nature	-8.61222
▁woman	-8.61473
▁test	-8.615
▁universe	-8.62022
▁figure	-8.62053
▁top	-8.63403
▁oh	-8.63444
▁control	-8.63749
▁result	-8.64757
▁challenge	-8.64868
▁heard	-8.65487
▁research	-8.65613
▁internet	-8.6597
▁market	-8.66026
▁entire	-8.66092
▁house	-8.66149
▁re	-8.6621
▁model	-8.66279
▁built	-8.66516
▁individual	-8.66581
▁plant	-8.66745
▁creat	-8.66746
▁term	-8.67363
▁difference	-8.67585
▁unti	-8.67612
▁yea	-8.67736
▁saying	-8.67895
▁couple	-8.68067
▁environment	-8.68298
▁los	-8.68437
▁sound	-8.68596
▁american	-8.68643
▁true	-8.68796
▁lead	-8.69133
▁state	-8.69381
▁past	-8.69503
▁black	-8.69826
▁language	-8.69967
▁mother	-8.70065
▁words	-8.70112
came	-8.70199
▁phone	-8.70221
▁ocean	-8.70249
▁middle	-8.70334
taking	-8.70428
▁night	-8.70838
▁air	-8.71343
▁though	-8.71355
▁makes	-8.71431
f	-8.71578
▁education	-8.71715
▁must	-8.7214
▁issue	-8.7253
▁heart	-8.72658
▁w	-8.727
▁hear	-8.73
▁follow	-8.73179
▁stories	-8.73194
▁tool	-8.73219
▁leave	-8.73705
▁decided	-8.73781
▁god	-8.73953
▁cancer	-8.7397
▁quick	-8.74233
▁land	-8.74384
▁ways	-8.74434
▁happening	-8.74472
▁species	-8.7456
against	-8.74609
ten	-8.74859
▁speak	-8.75019
▁natural	-8.75064
▁economic	-8.75108
▁india	-8.75136
▁huge	-8.75179
an	-8.75333
▁object	-8.75557
▁...	-8.75581
less	-8.75711
▁develop	-8.75719
▁friends	-8.75814
▁fly	-8.75826
▁discover	-8.75919
▁force	-8.76382
▁color	-8.76444
▁kne	-8.76544
▁america	-8.76655
or	-8.77321
▁spend	-8.77496
▁stand	-8.77625
▁word	-8.77655
msel	-8.78594
▁realize	-8.78681
▁company	-8.79541
▁network	-8.79821
b	-8.79886
ability	-8.79893
▁oursel	-8.80103
where	-8.80246
▁1	-8.80258
u	-8.80485
▁30	-8.80532
ous	-8.80945
▁along	-8.81154
▁culture	-8.8175
▁leas	-8.81807
▁50	-8.81849
haps	-8.81935
▁program	-8.8216
ry	-8.82217
▁free	-8.82227
▁deal	-8.82271
▁pay	-8.82283
▁19	-8.82364
▁tree	-8.82725
▁experiment	-8.82747
▁structure	-8.83007
▁front	-8.83707
▁view	-8.83918
▁de	-8.8403
▁outside	-8.84187
▁100	-8.84359
▁robot	-8.84662
▁somebody	-8.84712
▁act	-8.84915
▁difficult	-8.85294
▁die	-8.85296
▁hours	-8.85926
gan	-8.8593
▁step	-8.86576
▁questions	-8.86582
▁dur	-8.86795
▁third	-8.87015
▁scientist	-8.87691
▁ok	-8.87714
▁pick	-8.87743
▁field	-8.87809
▁g	-8.87867
▁team	-8.88001
▁listen	-8.88136
▁simpl	-8.88164
▁sea	-8.88476
▁15	-8.8869
▁cause	-8.88837
▁death	-8.88914
▁population	-8.88937
▁choice	-8.89219
▁ted	-8.89424
▁exist	-8.89604
▁early	-8.90272
▁co	-8.90639
▁buy	-8.90823
▁amount	-8.9102
▁poor	-8.9109
▁engineer	-8.91186
▁scale	-8.91223
▁center	-8.9128
▁di	-8.91528
ch	-8.91678
▁wait	-8.91871
▁device	-8.92665
▁deep	-8.92748
▁blue	-8.92983
▁compani	-8.93266
▁common	-8.93301
▁audience	-8.93304
▁focus	-8.93356
▁explain	-8.93465
▁relationship	-8.93465
▁learning	-8.93683
moving	-8.93758
▁pattern	-8.93828
▁gave	-8.93967
▁father	-8.94274
▁full	-8.94275
▁surface	-8.94631
▁century	-8.94698
▁seven	-8.94778
▁beginning	-8.94922
te	-8.94929
▁size	-8.95231
▁happy	-8.95248
▁bigge	-8.95396
▁media	-8.95484
▁drive	-8.95509
▁risk	-8.95527
▁local	-8.95576
▁support	-8.95772
▁short	-8.95891
▁effect	-8.95912
▁fish	-8.9613
▁reach	-8.96369
▁major	-8.97085
▁teacher	-8.97297
to	-8.97372
▁physical	-8.97563
man	-8.97767
▁safe	-8.978
▁wonderful	-8.9841
▁behind	-8.98573
▁wall	-8.98574
year	-8.98613
▁movement	-8.98792
▁parents	-8.98895
▁stay	-8.99252
▁produce	-8.99861
▁area	-8.99906
▁generation	-9.00091
▁map	-9.00128
5	-9.00445
▁absolute	-9.0045
▁works	-9.00542
▁easy	-9.00795
▁green	-9.00828
▁feeling	-9.00858
▁near	-9.01007
▁behavior	-9.01315
▁kill	-9.01339
▁friend	-9.01469
▁china	-9.01695
▁red	-9.01716
▁organization	-9.01727
▁save	-9.01772
▁powerful	-9.01858
▁systems	-9.01968
▁white	-9.02311
▁obvious	-9.02735
▁notice	-9.03081
▁protect	-9.03449
2	-9.03765
▁york	-9.03937
▁political	-9.03968
▁normal	-9.04207
▁personal	-9.04451
▁paper	-9.04493
▁oil	-9.04618
▁citi	-9.04807
▁sun	-9.04958
▁eight	-9.05051
▁add	-9.05097
▁c	-9.05214
▁complex	-9.05547
▁slow	-9.0558
old	-9.05834
▁boy	-9.05893
▁eyes	-9.05955
▁hold	-9.06226
▁rest	-9.06491
age	-9.06641
▁decision	-9.07036
▁movie	-9.0722
▁longer	-9.07364
▁value	-9.07466
▁wo	-9.076
▁send	-9.07736
▁film	-9.07743
▁news	-9.07858
▁tho	-9.07968
▁stage	-9.07976
▁3	-9.08194
▁begin	-9.08328
felt	-9.08337
um	-9.08387
▁service	-9.08774
▁ground	-9.08779
▁rate	-9.08799
▁national	-9.0905
▁voice	-9.09123
▁hands	-9.09436
up	-9.09525
▁fight	-9.09594
▁fear	-9.0976
is	-9.09862
▁travel	-9.10056
ur	-9.10304
▁gone	-9.1065
▁fall	-9.10692
▁200	-9.10987
▁growth	-9.11484
▁dark	-9.11533
▁born	-9.11705
▁40	-9.1176
▁dna	-9.11942
▁perfect	-9.12282
▁tried	-9.12448
ance	-9.1282
▁doctor	-9.1293
ter	-9.12952
▁low	-9.13454
▁opportunity	-9.13479
▁climate	-9.13889
▁record	-9.14298
ive	-9.14318
▁present	-9.14329
▁economy	-9.14482
▁access	-9.14542
▁sitt	-9.14606
▁treat	-9.14866
▁extreme	-9.14879
▁action	-9.14988
▁key	-9.1524
z	-9.15327
▁material	-9.15668
▁toward	-9.15888
it	-9.15915
▁feet	-9.1636
▁approach	-9.16497
▁incredible	-9.16531
▁digital	-9.16704
▁camera	-9.16713
▁pass	-9.16858
▁cut	-9.17439
ton	-9.17549
▁street	-9.17672
▁sudden	-9.17705
▁south	-9.17734
▁solve	-9.17862
▁spen	-9.17935
away	-9.1798
▁either	-9.181
▁resource	-9.18111
▁impact	-9.18115
▁giv	-9.18143
▁essential	-9.18321
▁tin	-9.18342
▁clear	-9.18873
▁increase	-9.18941
▁message	-9.19
ism	-9.19143
▁blood	-9.19216
▁eat	-9.19255
▁average	-9.19356
▁consider	-9.19412
▁bas	-9.19691
▁known	-9.197
▁expect	-9.19959
el	-9.20037
▁realit	-9.20162
▁nice	-9.20185
▁write	-9.20335
▁photograph	-9.20389
▁shape	-9.20465
▁measure	-9.20486
changing	-9.20779
▁humans	-9.20812
▁innovation	-9.20825
▁fun	-9.21484
▁technologi	-9.21645
▁fundamental	-9.21831
▁lab	-9.2199
▁sign	-9.22046
▁potential	-9.22099
▁cool	-9.22652
▁law	-9.22781
▁literal	-9.22805
▁morning	-9.23174
▁forward	-9.2334
▁condition	-9.23461
▁artist	-9.2359
▁pull	-9.2362
▁train	-9.23944
▁conversation	-9.2492
▁takes	-9.25029
alone	-9.25041
▁attention	-9.25158
▁continue	-9.2539
▁areas	-9.25415
▁development	-9.258
▁18	-9.25808
▁bottom	-9.25833
▁chance	-9.26026
▁ice	-9.26312
▁patients	-9.26332
▁miles	-9.26339
ty	-9.26384
▁african	-9.26601
▁recently	-9.2663
▁understanding	-9.26636
▁forest	-9.26912
▁developed	-9.26919
▁knowledge	-9.2695
▁code	-9.27088
▁meet	-9.27285
▁push	-9.27371
▁hospital	-9.27595
▁electric	-9.27774
▁wonder	-9.27888
▁situation	-9.28049
▁serious	-9.28057
▁break	-9.28279
▁village	-9.28503
▁general	-9.28552
▁dream	-9.28686
▁solution	-9.28692
▁modern	-9.28731
▁spread	-9.28891
nt	-9.29004
▁product	-9.29022
▁eye	-9.29105
▁theory	-9.29261
▁fast	-9.29572
▁europe	-9.29634
▁special	-9.29639
▁met	-9.29681
▁page	-9.2984
▁touch	-9.29895
▁goal	-9.29955
▁truth	-9.30143
▁soon	-9.30287
▁hit	-9.30613
rought	-9.30752
▁source	-9.30769
▁12	-9.30826
▁books	-9.30856
▁box	-9.31051
▁fire	-9.31072
▁late	-9.31074
▁non	-9.31333
▁strong	-9.31417
rote	-9.31738
▁similar	-9.31922
▁specific	-9.32179
▁current	-9.3222
▁worth	-9.3242
ought	-9.32552
▁cars	-9.32769
▁p	-9.32937
▁sit	-9.32955
▁north	-9.33064
▁patient	-9.33156
▁baby	-9.33173
▁studie	-9.33411
▁industry	-9.3365
v	-9.33716
▁putting	-9.33932
▁connect	-9.33983
▁cover	-9.34264
specially	-9.34714
▁dead	-9.35096
▁solar	-9.35102
▁among	-9.35104
▁avail	-9.35114
▁plan	-9.35306
▁attack	-9.35346
▁guess	-9.35347
▁son	-9.35464
▁smart	-9.35847
▁google	-9.3594
land	-9.35958
▁journey	-9.3608
▁mars	-9.36304
▁trust	-9.36594
▁skill	-9.36604
▁main	-9.36619
▁several	-9.36821
▁beyon	-9.36829
▁type	-9.36915
,000	-9.37038
▁easi	-9.37102
▁galax	-9.37319
▁direct	-9.37331
▁affect	-9.37607
▁medical	-9.38072
▁runn	-9.38592
▁leg	-9.38656
given	-9.39238
▁usual	-9.39628
▁site	-9.39717
▁mo	-9.39796
▁english	-9.3984
▁region	-9.39921
▁period	-9.40403
▁nine	-9.406
▁block	-9.40615
▁carbon	-9.40644
▁institution	-9.40645
▁nation	-9.40754
▁success	-9.40859
taken	-9.40898
▁st	-9.40914
▁please	-9.40942
▁track	-9.41022
▁teach	-9.41063
▁securit	-9.41064
▁con	-9.41251
▁f	-9.41451
tic	-9.41544
▁rich	-9.41593
▁rules	-9.41708
▁nobod	-9.41908
▁role	-9.41914
▁star	-9.41949
▁web	-9.42486
▁represent	-9.42666
▁road	-9.42726
▁song	-9.42762
incredibly	-9.42953
▁university	-9.43058
3	-9.43123
ful	-9.43598
▁vision	-9.43701
▁wind	-9.43727
▁college	-9.43747
▁provide	-9.43923
aught	-9.44225
▁led	-9.44272
▁sex	-9.44315
▁connection	-9.44326
▁fund	-9.44376
▁leaders	-9.44573
▁sell	-9.44631
▁revolution	-9.4465
▁2	-9.44652
▁extraordinar	-9.44815
▁screen	-9.44819
▁online	-9.44883
▁predict	-9.45043
▁speed	-9.45043
4	-9.45159
▁mass	-9.45174
▁arm	-9.45226
▁equal	-9.45293
▁character	-9.45522
▁evidence	-9.45624
▁scientific	-9.45694
▁wear	-9.4581
▁search	-9.45895
▁mom	-9.46024
ia	-9.46049
▁wish	-9.46183
▁office	-9.46341
▁perspective	-9.46439
▁fair	-9.4669
▁super	-9.4671
▁sounds	-9.46736
▁invent	-9.4713
▁flow	-9.47133
▁benefit	-9.4731
ybody	-9.47376
▁list	-9.47379
▁subject	-9.47549
▁concept	-9.47812
▁count	-9.47931
▁shows	-9.48013
ie	-9.48037
▁response	-9.4809
▁class	-9.48147
▁designer	-9.48338
▁gre	-9.48379
▁o	-9.48506
▁hole	-9.48797
▁violen	-9.4899
▁recognize	-9.49135
▁effective	-9.49144
more	-9.49145
▁table	-9.49285
▁clean	-9.49314
▁park	-9.49325
▁secret	-9.4948
▁collect	-9.49653
▁skin	-9.49672
▁crazy	-9.49768
ian	-9.49787
▁medicine	-9.49808
▁virus	-9.49907
▁adult	-9.50051
▁detail	-9.50052
▁evolution	-9.50112
▁function	-9.50381
▁indeed	-9.5062
▁choose	-9.50788
▁visual	-9.50936
head	-9.51145
▁join	-9.51171
▁further	-9.51194
▁anyway	-9.51472
▁international	-9.51475
1	-9.51549
▁25	-9.51623
ist	-9.52029
▁democracy	-9.5211
▁price	-9.52236
▁molecule	-9.5234
▁mine	-9.52346
▁month	-9.52466
▁event	-9.52472
▁writing	-9.5254
▁traditional	-9.52635
▁successful	-9.52638
▁walking	-9.52641
cy	-9.52726
▁raise	-9.52893
▁favorite	-9.52921
▁drug	-9.53149
▁poverty	-9.53245
▁west	-9.5329
time	-9.53321
▁connected	-9.53389
▁store	-9.53805
▁k	-9.53859
▁creative	-9.5396
▁eventual	-9.54094
▁signal	-9.5416
▁lose	-9.54269
00	-9.54367
▁realiz	-9.54551
▁tend	-9.548
▁carry	-9.55035
▁includ	-9.55038
▁faster	-9.55102
as	-9.55276
▁suggest	-9.55533
▁communit	-9.55725
8	-9.55797
▁throw	-9.55971
▁progress	-9.56122
▁immediate	-9.56175
▁waste	-9.56203
▁drugs	-9.56242
▁square	-9.56253
▁stick	-9.56374
▁exciting	-9.56476
▁software	-9.56779
ro	-9.56911
▁everywhere	-9.56978
co	-9.57127
how	-9.5713
▁cold	-9.57362
▁print	-9.57667
▁necessar	-9.5769
▁remain	-9.5769
▁onto	-9.57727
▁base	-9.57849
▁post	-9.57924
▁moral	-9.57998
▁zero	-9.58045
▁offer	-9.58052
ra	-9.58227
▁bacteria	-9.583
▁tru	-9.58383
ri	-9.58627
▁require	-9.5863
▁fit	-9.58724
▁finish	-9.58735
x	-9.589
▁east	-9.5892
▁inspire	-9.5898
▁lower	-9.59084
▁letter	-9.59148
▁card	-9.5916
ta	-9.59591
▁ready	-9.59642
▁higher	-9.5995
▁stars	-9.5996
ar	-9.6007
▁materials	-9.60071
ized	-9.60108
▁transform	-9.60127
▁conflict	-9.60163
9	-9.60231
▁account	-9.60237
▁door	-9.60384
▁fine	-9.60436
▁colleague	-9.60477
▁hour	-9.60582
▁position	-9.60625
▁chemical	-9.60906
▁sent	-9.61167
▁depend	-9.61508
▁sleep	-9.61592
▁famili	-9.61734
▁accept	-9.6174
▁surprise	-9.6174
ish	-9.62036
▁religion	-9.62059
▁gas	-9.62059
▁bank	-9.62084
▁dr	-9.62309
▁fail	-9.62318
aid	-9.62527
▁treatment	-9.62731
ese	-9.62778
ary	-9.62816
▁scar	-9.6296
live	-9.62979
▁complicated	-9.63021
▁wife	-9.63064
▁check	-9.63344
▁describe	-9.6363
▁increasing	-9.63667
▁rain	-9.63826
▁involv	-9.63932
▁worker	-9.63934
▁genes	-9.63978
▁version	-9.63992
▁return	-9.63993
▁quality	-9.6406
▁visit	-9.64273
▁daughter	-9.64317
▁address	-9.64318
▁brother	-9.64353
▁communication	-9.64492
▁factor	-9.64517
▁compassion	-9.64641
▁architecture	-9.64695
▁moon	-9.65022
lo	-9.65027
▁warm	-9.65069
▁feed	-9.65089
ant	-9.6513
▁appear	-9.6529
▁ultimate	-9.65301
▁worse	-9.65301
▁german	-9.65303
▁direction	-9.65356
▁supposed	-9.65477
▁finding	-9.65485
▁intelligence	-9.65631
▁possibilit	-9.65631
▁11	-9.65669
la	-9.65747
▁larger	-9.66149
▁context	-9.66293
▁plastic	-9.66294
▁earlie	-9.66298
▁total	-9.6637
▁shift	-9.6652
▁pre	-9.66608
▁above	-9.66629
▁rise	-9.66758
▁hot	-9.66818
▁unfortunate	-9.66962
▁80	-9.67045
▁famous	-9.67399
▁text	-9.6742
▁meant	-9.67488
▁interact	-9.6762
▁launch	-9.67634
▁pain	-9.67706
▁expert	-9.68311
▁female	-9.68311
▁afghan	-9.68311
▁activity	-9.68508
the	-9.6858
▁male	-9.68646
▁freedom	-9.68654
▁mental	-9.6868
refore	-9.68705
▁practice	-9.68724
▁invest	-9.68926
▁pressure	-9.68995
▁fuel	-9.69111
▁fill	-9.69121
▁president	-9.69335
▁impossibl	-9.69341
▁virtual	-9.69445
▁smaller	-9.6946
ate	-9.69563
▁press	-9.69798
▁original	-9.69898
▁neurons	-9.69921
▁floor	-9.70028
▁sub	-9.70078
▁painting	-9.70198
▁strange	-9.70251
ling	-9.70346
▁standard	-9.70362
▁principle	-9.70369
▁particle	-9.7037
▁organism	-9.70378
▁clearly	-9.70483
▁meeting	-9.70541
▁genetic	-9.7065
▁publish	-9.70819
▁r	-9.70968
▁element	-9.71058
li	-9.71116
▁task	-9.71171
▁x	-9.71184
▁purpose	-9.71415
▁report	-9.71449
▁bone	-9.71607
▁deliver	-9.7163
▁unique	-9.71766
▁biolog	-9.71943
▁afford	-9.72083
▁shot	-9.72126
▁larges	-9.72203
▁draw	-9.72392
▁fantastic	-9.72471
ood	-9.72497
▁relative	-9.72586
▁bill	-9.726
▁excited	-9.72606
▁la	-9.72827
▁none	-9.72893
▁constant	-9.73182
▁central	-9.73274
▁environmental	-9.73535
▁content	-9.73552
▁win	-9.73776
▁police	-9.73808
▁models	-9.73874
▁creature	-9.73904
▁enter	-9.73906
▁heat	-9.73923
▁dy	-9.73925
ization	-9.73959
ily	-9.7397
▁lesson	-9.74062
though	-9.74178
un	-9.74202
▁bunch	-9.74257
▁enormous	-9.74257
▁happiness	-9.74298
▁except	-9.74576
▁cheap	-9.74619
do	-9.74765
▁memory	-9.74981
▁foot	-9.75111
ine	-9.75222
▁effort	-9.75344
▁enjoy	-9.75344
▁massive	-9.75544
▁meter	-9.75597
▁financial	-9.75709
▁capital	-9.76074
▁products	-9.76134
▁glass	-9.76338
▁wild	-9.76403
▁extra	-9.76445
▁becom	-9.76449
▁apply	-9.76449
▁board	-9.76516
istan	-9.76531
▁rule	-9.76626
▁path	-9.76688
▁mention	-9.76825
ac	-9.77132
▁respond	-9.77182
▁target	-9.77182
▁terribl	-9.77182
▁beaut	-9.77186
▁dangerous	-9.77188
at	-9.7731
▁policy	-9.77388
▁range	-9.7739
▁private	-9.77604
▁positive	-9.77752
ma	-9.77908
▁finger	-9.77932
▁wide	-9.78179
▁healthy	-9.78281
▁pro	-9.78348
▁decades	-9.78442
▁wave	-9.78598
▁expensive	-9.78677
▁genome	-9.78677
▁physics	-9.78677
▁seri	-9.78777
▁rock	-9.78788
▁writ	-9.7879
▁critical	-9.78793
▁chin	-9.79036
▁crisis	-9.79056
▁hiv	-9.79086
be	-9.79306
▁concern	-9.79434
▁saving	-9.79452
▁insect	-9.79824
▁radio	-9.80043
▁peace	-9.80179
▁demand	-9.80196
▁weight	-9.80258
▁reading	-9.80543
▁straight	-9.80579
▁tissue	-9.80579
▁vehicle	-9.80579
▁neighborhood	-9.80581
▁corner	-9.80634
ge	-9.80844
▁interview	-9.81236
ab	-9.81241
kept	-9.81424
▁j	-9.81533
▁solutions	-9.81803
▁h	-9.81807
▁cap	-9.81816
▁remarkabl	-9.81869
▁mobile	-9.81895
older	-9.82027
▁21	-9.82065
com	-9.82109
▁museum	-9.82126
▁instance	-9.82127
▁prison	-9.82128
ul	-9.82262
▁explore	-9.82311
▁bodi	-9.82649
▁grand	-9.83038
▁mission	-9.8309
▁organ	-9.83114
▁familiar	-9.83311
▁micro	-9.83318
▁cross	-9.83471
▁communicate	-9.83519
▁drop	-9.8354
▁emotion	-9.83553
▁sky	-9.83643
▁income	-9.83644
▁summer	-9.83698
▁brand	-9.83703
▁trial	-9.83753
line	-9.83826
▁stopp	-9.83992
▁remind	-9.84033
▁military	-9.84095
▁atmosphere	-9.84165
▁sustain	-9.84371
▁investment	-9.84516
▁forget	-9.8452
▁decade	-9.84744
il	-9.84746
▁politic	-9.84859
▁blind	-9.84868
▁river	-9.84892
▁stem	-9.84899
▁slight	-9.8493
▁typical	-9.85054
▁14	-9.85176
▁protein	-9.85295
like	-9.85372
▁define	-9.85405
▁recent	-9.85422
▁survive	-9.85422
▁race	-9.85434
▁dimension	-9.85569
▁consequence	-9.85698
▁driving	-9.85854
▁tv	-9.85903
▁citizens	-9.85942
▁dance	-9.85964
▁training	-9.85965
▁improve	-9.86086
▁expand	-9.86103
▁gene	-9.86146
▁achieve	-9.86191
▁significant	-9.86268
▁sand	-9.86415
▁western	-9.86502
▁paint	-9.86516
▁strateg	-9.86618
▁luck	-9.86622
▁trade	-9.86636
▁performance	-9.86668
▁fix	-9.86677
▁technique	-9.86917
▁landscape	-9.86919
▁various	-9.8692
▁production	-9.86994
▁jump	-9.87083
▁layer	-9.87205
▁satellite	-9.87327
▁double	-9.87327
▁collective	-9.87343
▁decide	-9.87442
▁urban	-9.8748
▁bar	-9.87584
▁dad	-9.87588
▁circle	-9.88082
▁apart	-9.88136
▁temperature	-9.88152
▁vaccine	-9.88569
▁spot	-9.88724
▁career	-9.88802
▁ta	-9.8886
▁perform	-9.8891
side	-9.88957
▁hair	-9.8903
ph	-9.89153
▁neighbor	-9.89399
and	-9.89451
▁nuclear	-9.89477
▁cultural	-9.89494
▁reduce	-9.89631
▁bear	-9.89696
ger	-9.8977
▁wealth	-9.89825
▁cook	-9.89876
▁indian	-9.90249
▁magic	-9.90342
by	-9.90348
ck	-9.90576
▁london	-9.90668
ci	-9.9067
▁passion	-9.90749
▁respect	-9.90926
▁drink	-9.91093
▁chris	-9.91218
ize	-9.91225
▁bag	-9.91246
na	-9.91386
▁teaching	-9.91493
▁foundation	-9.9169
▁manage	-9.91727
▁90	-9.91782
▁consciousness	-9.91965
wise	-9.92123
▁values	-9.92186
▁l	-9.9231
▁farm	-9.92333
▁website	-9.92381
▁random	-9.92382
▁email	-9.92387
▁sister	-9.92391
vi	-9.92522
▁ka	-9.92543
▁sat	-9.92551
▁noise	-9.92594
▁separate	-9.9261
▁underst	-9.92686
▁town	-9.9277
▁13	-9.92935
▁user	-9.93147
▁destroy	-9.93249
▁giant	-9.93251
▁justice	-9.93252
▁photo	-9.93344
▁hell	-9.93403
▁station	-9.93732
▁breath	-9.93776
▁ran	-9.93797
▁ten	-9.93812
▁br	-9.93833
ble	-9.93956
ber	-9.94018
▁damage	-9.94075
▁honest	-9.94124
▁compare	-9.94239
ne	-9.9437
▁dog	-9.9441
▁bed	-9.94541
▁math	-9.94565
▁flight	-9.94568
▁imagination	-9.94573
▁interaction	-9.9462
▁meaning	-9.9463
▁distance	-9.94661
▁useful	-9.94678
water	-9.94746
▁san	-9.94972
▁trouble	-9.95007
▁infrastructure	-9.95007
go	-9.95074
▁birth	-9.95083
▁sad	-9.95168
▁emotional	-9.95171
▁failure	-9.95454
▁professional	-9.95582
▁prevent	-9.95847
▁ancient	-9.95898
▁surviv	-9.96151
▁vi	-9.96335
ol	-9.9664
▁instrument	-9.96745
▁scene	-9.96797
▁worst	-9.96797
▁produc	-9.96845
▁belief	-9.96961
▁catch	-9.97015
▁convince	-9.97249
▁smell	-9.97249
▁laws	-9.97397
▁199	-9.97403
▁vote	-9.97621
▁agree	-9.97691
▁forth	-9.97707
▁speech	-9.97784
ver	-9.97877
ti	-9.98014
▁airplane	-9.9816
▁disappear	-9.9816
▁types	-9.9821
▁rare	-9.98226
▁capacity	-9.9827
▁promise	-9.98619
fi	-9.9873
▁charge	-9.98756
ated	-9.98767
▁ball	-9.98976
▁profound	-9.99081
▁argument	-9.99087
▁option	-9.99087
▁document	-9.99183
▁consumer	-9.9923
▁sentence	-9.99257
▁aware	-9.99459
▁john	-9.99541
▁popular	-9.99543
▁motion	-9.99548
▁trip	-9.99558
▁babi	-9.99579
bility	-9.99648
▁brains	-9.99671
▁tough	-9.99736
▁sing	-9.99757
▁serve	-9.99916
▁davi	-10.0001
▁television	-10.0001
▁careful	-10.0005
▁below	-10.0006
▁match	-10.0017
▁contact	-10.0048
▁cycle	-10.0067
▁rough	-10.0077
▁edge	-10.0077
▁surger	-10.008
▁influence	-10.0085
▁campaign	-10.0094
▁sorry	-10.0095
▁player	-10.0095
tally	-10.01
▁flower	-10.0104
▁hey	-10.0114
▁sharing	-10.0121
▁sequence	-10.0129
▁mountain	-10.0129
▁worry	-10.0134
eath	-10.0136
▁vast	-10.0143
▁coast	-10.015
ha	-10.0154
▁birds	-10.0161
▁paid	-10.0164
▁slide	-10.0175
▁surprising	-10.0189
▁prize	-10.0191
▁link	-10.0213
▁active	-10.0215
▁afr	-10.0241
▁continent	-10.0244
▁highly	-10.0263
▁minds	-10.0276
▁miss	-10.0283
▁climb	-10.0286
▁9	-10.0287
▁mark	-10.0291
▁release	-10.03
ent	-10.0303
▁method	-10.032
▁gold	-10.0321
▁express	-10.0327
▁fold	-10.033
▁outcome	-10.0333
▁election	-10.0334
▁evolved	-10.0334
▁involve	-10.0341
▁basi	-10.0343
▁li	-10.0344
▁da	-10.0344
▁legal	-10.0345
▁king	-10.0368
▁bio	-10.0369
▁limit	-10.037
men	-10.0379
▁feature	-10.0381
▁despi	-10.0381
▁lack	-10.0382
bas	-10.0396
▁roll	-10.0399
▁industrial	-10.0419
am	-10.0421
▁seat	-10.0422
▁california	-10.0429
▁yellow	-10.0429
▁hopeful	-10.0433
▁sick	-10.0433
▁bridge	-10.0453
▁drawing	-10.0471
ba	-10.0474
▁thanks	-10.0478
▁coral	-10.0479
▁gain	-10.048
▁500	-10.0488
hand	-10.05
▁magazine	-10.0527
▁commercial	-10.0532
▁kilometer	-10.0534
▁sexual	-10.0542
▁won	-10.057
▁threat	-10.0574
▁supply	-10.0576
▁switch	-10.0576
▁muscle	-10.0576
▁mr	-10.0578
▁aid	-10.0581
▁streets	-10.0584
▁missing	-10.0585
▁wood	-10.0591
▁biological	-10.0606
▁desire	-10.062
▁professor	-10.0626
▁tremendous	-10.0626
▁twice	-10.0626
▁soldier	-10.0626
▁efficient	-10.0654
▁window	-10.0658
bi	-10.0658
▁oxygen	-10.0676
▁border	-10.0676
▁contain	-10.0697
▁emerg	-10.0712
▁plann	-10.0715
▁civil	-10.0724
▁monkey	-10.0726
▁responsibility	-10.0733
▁electronic	-10.0736
▁pop	-10.075
ical	-10.0754
▁ship	-10.0778
▁malaria	-10.0799
rs	-10.0813
▁plane	-10.0818
▁component	-10.0826
pa	-10.0843
▁cr	-10.0848
▁hearing	-10.0864
hi	-10.087
▁24	-10.0877
▁desert	-10.0877
▁tumor	-10.0877
▁forever	-10.0909
▁multi	-10.0924
▁victim	-10.0928
▁apple	-10.093
▁background	-10.0934
▁10,000	-10.0936
▁european	-10.0939
▁definition	-10.0944
▁sample	-10.095
0,000	-10.0955
▁na	-10.0958
▁seconds	-10.0972
▁eating	-10.0977
▁claim	-10.098
▁garden	-10.098
▁crime	-10.098
▁muslim	-10.0988
▁mistake	-10.1018
▁radical	-10.102
▁fully	-10.1033
night	-10.1033
▁4	-10.1039
▁advance	-10.1042
▁correct	-10.1045
▁bang	-10.1047
▁master	-10.1056
▁generate	-10.1074
▁aspect	-10.1083
▁root	-10.1083
▁accident	-10.1091
▁ph	-10.1107
▁enable	-10.1108
▁operation	-10.1121
▁researcher	-10.1131
▁coffee	-10.1135
▁husband	-10.1135
▁court	-10.1135
▁conference	-10.1135
▁rid	-10.1139
▁rapid	-10.1188
▁chair	-10.1188
▁click	-10.1195
11	-10.1207
▁invisibl	-10.1224
▁held	-10.1227
▁ex	-10.1233
▁platform	-10.124
▁motor	-10.124
▁civilization	-10.1241
▁washing	-10.1242
▁labor	-10.1244
▁opportunit	-10.1245
▁reflect	-10.1248
▁party	-10.1261
▁extend	-10.1263
ray	-10.1265
▁boat	-10.1267
ng	-10.129
▁application	-10.1293
▁avoid	-10.1308
tro	-10.131
ig	-10.134
▁lo	-10.1343
▁mechanism	-10.1346
▁funny	-10.1346
▁pair	-10.1347
▁mouth	-10.1363
▁creation	-10.1364
▁leader	-10.1367
▁hate	-10.1386
▁capture	-10.1388
tra	-10.1391
▁architect	-10.1398
▁refugee	-10.14
▁technical	-10.14
▁telescope	-10.14
▁dynamic	-10.1402
▁quote	-10.1402
ium	-10.1412
▁300	-10.1416
▁cloud	-10.1417
▁jam	-10.1432
▁members	-10.1433
▁include	-10.1443
▁balance	-10.145
ut	-10.1454
▁gap	-10.1456
uar	-10.1478
▁encourage	-10.1507
▁detect	-10.1509
im	-10.1524
dimensional	-10.1525
▁core	-10.1528
▁island	-10.1529
gen	-10.1538
▁dis	-10.154
▁graph	-10.1549
▁mid	-10.1552
▁mathematics	-10.1562
▁gender	-10.1562
▁advantage	-10.1562
▁exercise	-10.1564
▁chain	-10.1564
▁reaction	-10.1565
▁etc	-10.1577
▁notion	-10.158
▁broken	-10.1583
▁asia	-10.1601
▁foreign	-10.1616
▁sector	-10.1616
▁reward	-10.1617
▁facebook	-10.1617
▁sustainabl	-10.1618
▁beat	-10.1624
▁struggle	-10.1637
▁prove	-10.1637
▁curve	-10.1643
▁degrees	-10.1648
▁spirit	-10.1671
▁alternative	-10.1671
▁childhood	-10.1673
▁1,000	-10.1675
op	-10.1681
▁due	-10.1684
▁compar	-10.1712
▁japan	-10.1726
▁ecosystem	-10.1727
▁dramatic	-10.1727
▁stuck	-10.1727
▁adopt	-10.1728
▁creativ	-10.173
▁farmers	-10.1773
orrow	-10.1779
▁sh	-10.1787
mo	-10.1796
▁fac	-10.1796
▁bird	-10.182
▁article	-10.1838
▁artificial	-10.1838
▁crowd	-10.1857
▁flu	-10.1868
▁introduce	-10.187
▁tradition	-10.1893
▁librar	-10.1894
▁reveal	-10.1894
▁opposite	-10.1894
▁recover	-10.1895
▁cry	-10.1896
▁diversity	-10.1897
▁willing	-10.1915
▁soil	-10.1922
▁odd	-10.1926
▁hero	-10.1937
▁rais	-10.194
▁traffic	-10.1948
▁bread	-10.1951
▁inter	-10.1963
▁band	-10.1968
▁sp	-10.1979
50	-10.1985
ier	-10.199
▁attempt	-10.2007
▁anti	-10.2011
▁adapt	-10.2013
▁argue	-10.2024
▁bomb	-10.2027
ada	-10.2032
▁divide	-10.2036
▁net	-10.2045
▁caus	-10.2046
ho	-10.2058
▁camp	-10.2063
▁regular	-10.2065
▁snow	-10.2065
▁unlike	-10.2069
▁transformation	-10.207
▁era	-10.2088
▁frank	-10.2092
▁engage	-10.2094
▁manufactur	-10.2102
▁breast	-10.2122
▁french	-10.2122
▁stone	-10.2127
▁religious	-10.2128
▁identity	-10.2132
▁le	-10.215
▁fashion	-10.215
▁loss	-10.2153
▁discovery	-10.2156
▁spin	-10.2161
he	-10.2167
▁organic	-10.2178
ership	-10.218
▁bright	-10.2182
▁depression	-10.2182
▁ma	-10.2187
▁sold	-10.219
▁laugh	-10.2199
▁universal	-10.2238
▁dinosaur	-10.2238
▁holding	-10.2271
wa	-10.2285
▁faith	-10.2296
▁competition	-10.2297
▁stress	-10.2297
▁fascinating	-10.2299
▁suit	-10.2306
ow	-10.2324
▁trick	-10.2348
▁strength	-10.2352
▁honor	-10.2355
▁responsibl	-10.2355
▁weather	-10.2356
▁zone	-10.236
▁worri	-10.2362
▁estimate	-10.241
▁lay	-10.2411
▁gift	-10.2415
▁phenomeno	-10.2415
▁grandmother	-10.2415
▁orbit	-10.2426
care	-10.2451
▁iraq	-10.2464
rew	-10.2467
▁newspaper	-10.2474
▁succeed	-10.2474
▁fresh	-10.2474
▁score	-10.2474
▁metal	-10.2475
▁related	-10.2506
▁dollar	-10.2512
▁ro	-10.2527
▁equation	-10.2534
▁patent	-10.2534
▁weird	-10.2535
▁bus	-10.2535
▁proper	-10.2536
▁marrie	-10.254
▁parent	-10.254
▁engine	-10.257
▁marriage	-10.2594
▁hurt	-10.2595
term	-10.2602
▁location	-10.2611
▁suffer	-10.2614
po	-10.2624
id	-10.2634
▁controll	-10.2649
▁shark	-10.2655
▁row	-10.2659
▁identify	-10.2663
▁independent	-10.2675
▁multiple	-10.268
ex	-10.2682
▁gentlem	-10.2683
j	-10.2683
▁driver	-10.2689
▁limited	-10.2689
▁bottle	-10.2716
▁british	-10.2716
▁politician	-10.2717
▁analys	-10.272
▁according	-10.2723
ating	-10.2728
▁sensor	-10.2731
▁pr	-10.2731
▁robotic	-10.2733
da	-10.2753
▁algorithm	-10.2757
▁perception	-10.2777
▁twitter	-10.2777
▁classroom	-10.2778
▁proud	-10.2778
ors	-10.278
ah	-10.2792
ga	-10.2809
▁bo	-10.2836
▁harder	-10.2852
▁chose	-10.2872
▁epidemic	-10.2901
▁survey	-10.2901
▁dozen	-10.2901
▁mouse	-10.2901
▁mess	-10.2902
ial	-10.2902
▁receive	-10.2903
▁circuit	-10.2908
▁remove	-10.2922
▁copy	-10.2923
▁meat	-10.2937
▁statistic	-10.2941
▁mal	-10.2942
▁graduate	-10.2963
▁channel	-10.2963
▁church	-10.2963
▁interface	-10.2964
▁display	-10.2964
▁belong	-10.2981
▁photos	-10.2997
▁pounds	-10.3014
que	-10.3026
▁quantum	-10.3026
▁curious	-10.3026
▁minister	-10.3026
▁taste	-10.3029
▁customer	-10.3042
▁shock	-10.3051
ru	-10.3052
▁insight	-10.3068
▁mu	-10.3069
▁suffering	-10.3069
ley	-10.3079
wood	-10.308
▁degree	-10.3082
▁fossil	-10.3089
▁brazil	-10.3089
▁string	-10.309
per	-10.3104
▁closed	-10.3121
▁fell	-10.3131
board	-10.314
▁agricultur	-10.3141
▁existence	-10.3153
▁applie	-10.3154
▁pole	-10.3155
▁occurr	-10.3169
▁bubble	-10.3181
▁debate	-10.3181
▁factory	-10.3188
▁equivalent	-10.3217
▁trillion	-10.3217
▁hidden	-10.3217
▁pack	-10.322
▁tri	-10.3221
▁negative	-10.3232
ists	-10.3238
▁spring	-10.3275
▁angel	-10.3276
ff	-10.3283
mas	-10.3285
of	-10.3288
▁agenc	-10.3295
▁deeply	-10.3303
fish	-10.3318
corruption	-10.3344
▁balloon	-10.3347
▁einstein	-10.3347
▁institute	-10.3347
▁wisdom	-10.3347
▁precise	-10.3353
▁brilliant	-10.3354
▁pig	-10.3355
▁conscious	-10.3359
▁wow	-10.3362
▁mis	-10.3367
▁invite	-10.3371
▁bare	-10.3385
▁property	-10.3388
▁remote	-10.3408
▁elephant	-10.3412
▁opinion	-10.3412
▁equip	-10.3412
▁cat	-10.3413
io	-10.3415
▁atom	-10.3428
▁receiv	-10.3446
▁collapse	-10.3446
▁shop	-10.3449
no	-10.346
▁occur	-10.3462
▁metaphor	-10.3468
▁budget	-10.3478
▁error	-10.3478
▁valley	-10.3478
▁witness	-10.3478
▁disorder	-10.3478
▁ha	-10.3478
▁department	-10.3478
▁employee	-10.3479
▁gra	-10.3479
▁provid	-10.3493
▁fourth	-10.3505
▁operat	-10.3507
▁liquid	-10.3544
▁fellow	-10.3544
▁ordinar	-10.3552
▁coal	-10.3552
▁hop	-10.3554
▁invention	-10.3554
▁chip	-10.3555
▁replace	-10.3561
▁daily	-10.3563
▁date	-10.3567
▁symbol	-10.3571
▁clip	-10.3593
▁aim	-10.3598
▁ho	-10.3601
▁bi	-10.3607
▁quiet	-10.3611
▁variet	-10.3611
▁brief	-10.3611
▁solv	-10.3612
▁hum	-10.3613
▁expression	-10.3624
ca	-10.3627
▁seed	-10.3633
▁battle	-10.3641
▁profit	-10.3661
▁cave	-10.3671
▁ancestor	-10.3678
▁dinner	-10.3678
▁leaving	-10.3678
▁spoke	-10.3684
mi	-10.3685
dp	-10.37
▁blow	-10.3705
bo	-10.3711
ud	-10.3726
▁150	-10.3734
▁lung	-10.3746
▁ride	-10.3747
▁truck	-10.3754
▁stoo	-10.3755
▁grown	-10.3777
▁lu	-10.38
▁diet	-10.3805
▁restaurant	-10.3814
▁wake	-10.3815
▁litera	-10.3816
ard	-10.3821
▁narrative	-10.3823
ware	-10.3826
em	-10.3828
▁frame	-10.3834
▁lie	-10.3862
▁tens	-10.3862
▁stream	-10.3864
▁cartoon	-10.3878
▁fortunate	-10.3882
▁mirror	-10.3882
▁nervous	-10.3882
▁lift	-10.3882
▁transition	-10.3883
▁injur	-10.3885
▁paul	-10.3885
versus	-10.3887
ap	-10.3887
▁intelligent	-10.389
▁100,000	-10.389
▁dreams	-10.3896
▁gay	-10.3901
▁app	-10.391
▁nor	-10.3936
▁lad	-10.3936
▁manag	-10.3945
▁volunteer	-10.3951
▁democratic	-10.3954
▁management	-10.3954
▁joy	-10.3984
▁dry	-10.3992
▁member	-10.3993
car	-10.4001
▁army	-10.4006
▁cognitive	-10.4021
▁gun	-10.4043
▁quarter	-10.4045
▁chemistr	-10.4052
▁writer	-10.4055
▁400	-10.4068
▁prime	-10.4079
▁aids	-10.408
▁govern	-10.4084
▁cup	-10.4098
▁programm	-10.4098
▁collection	-10.4101
▁mit	-10.4104
▁comment	-10.4109
▁surround	-10.413
▁shoes	-10.4157
▁discuss	-10.4157
▁note	-10.4159
▁rural	-10.4161
▁silence	-10.4161
▁roof	-10.4161
▁mathematical	-10.4162
▁exploration	-10.4163
▁lifetime	-10.4182
▁flat	-10.4182
▁round	-10.4193
▁rat	-10.4201
ham	-10.4202
▁whom	-10.4211
ture	-10.4212
▁kenya	-10.4219
▁beach	-10.4224
▁construct	-10.4227
▁puzzle	-10.4232
▁lunch	-10.4232
▁sugar	-10.4232
▁gravity	-10.4232
▁sight	-10.4235
▁construction	-10.4236
▁myster	-10.4236
▁yester	-10.4239
▁protection	-10.4249
▁director	-10.4251
▁combine	-10.4256
▁nasa	-10.426
▁mad	-10.4261
▁measur	-10.4262
▁soul	-10.4268
▁shoot	-10.4273
▁gather	-10.428
▁empower	-10.4301
▁judge	-10.4302
▁awesome	-10.4303
▁initial	-10.4303
▁discussion	-10.4308
▁cure	-10.4323
bu	-10.4344
▁operate	-10.4346
▁therap	-10.4353
ught	-10.436
▁broke	-10.4363
▁topic	-10.4363
▁practical	-10.4367
▁horse	-10.4375
▁brown	-10.4375
▁economist	-10.4377
hip	-10.4378
▁partner	-10.4398
▁folks	-10.4402
▁continu	-10.4407
▁resistan	-10.4424
▁pen	-10.4427
▁journalist	-10.4429
▁hill	-10.4437
▁mosquito	-10.4448
▁pocket	-10.4448
▁northern	-10.4448
▁southern	-10.4448
▁chicken	-10.4448
▁variation	-10.4448
▁complexit	-10.4459
ka	-10.4459
▁highest	-10.4474
▁fat	-10.4479
lan	-10.4483
aging	-10.4484
▁dan	-10.449
▁ba	-10.4495
▁terrorist	-10.4502
▁actor	-10.4514
▁george	-10.4521
▁combination	-10.4522
▁cent	-10.4522
▁hu	-10.4524
di	-10.4539
sis	-10.4543
▁electrical	-10.4547
ee	-10.4552
▁ver	-10.4555
▁mix	-10.4562
▁congress	-10.4594
▁medium	-10.4595
▁evolutionary	-10.4596
▁worldwide	-10.4598
▁button	-10.4606
▁arms	-10.4623
▁v	-10.4625
▁ideal	-10.4639
▁hang	-10.4643
q	-10.4647
▁smile	-10.4656
▁cutting	-10.467
▁fiber	-10.4675
▁volume	-10.4678
▁official	-10.4689
▁sl	-10.4698
▁speaker	-10.4699
▁credit	-10.4705
▁broad	-10.4708
▁hi	-10.4739
▁transport	-10.4741
▁dolphin	-10.4743
▁doubt	-10.4743
▁definite	-10.4743
off	-10.4744
▁disaster	-10.4745
▁2,000	-10.4745
▁abuse	-10.475
pe	-10.475
erson	-10.4759
▁infect	-10.4761
life	-10.4765
▁input	-10.4768
sumption	-10.477
▁mothers	-10.4782
▁conduct	-10.4785
▁inner	-10.479
▁lady	-10.4796
▁organiz	-10.4805
▁heavy	-10.4818
▁bond	-10.4818
▁peak	-10.4819
▁novel	-10.4819
▁silk	-10.482
▁2000	-10.4836
▁load	-10.4857
▁undern	-10.4863
▁mammal	-10.4894
▁physicist	-10.4894
▁convert	-10.4894
▁studio	-10.4894
▁loud	-10.4894
▁kick	-10.4895
▁grant	-10.4895
▁challeng	-10.4899
▁france	-10.49
▁embrace	-10.4902
▁establish	-10.4903
▁determine	-10.4908
▁du	-10.4909
▁assume	-10.4911
▁5	-10.4956
▁alien	-10.4962
▁analog	-10.4962
▁richard	-10.4971
▁melt	-10.4973
▁hall	-10.4984
ification	-10.4984
▁addition	-10.4997
▁8	-10.5014
▁visibl	-10.5014
ped	-10.5018
▁australia	-10.5034
▁killing	-10.5035
▁ring	-10.5044
▁encounter	-10.5047
▁explanation	-10.5047
▁intellectual	-10.5047
▁plate	-10.5049
▁historical	-10.505
▁iran	-10.5057
▁explor	-10.5072
▁opening	-10.5072
▁categor	-10.5074
▁capabilit	-10.5078
▁en	-10.5092
▁z	-10.5095
▁fan	-10.5113
▁mexic	-10.5123
▁maintain	-10.5125
▁spectrum	-10.5125
▁title	-10.5125
▁feedback	-10.5125
▁rocket	-10.5127
▁winter	-10.5127
▁theater	-10.5127
▁setting	-10.513
▁wheel	-10.5132
▁march	-10.5135
▁arrive	-10.5142
▁grid	-10.5142
▁bike	-10.5146
▁swimm	-10.5146
▁battery	-10.5147
▁burn	-10.5151
▁ag	-10.5156
▁emissions	-10.5191
▁nurse	-10.5195
▁pleasure	-10.5203
▁spider	-10.5203
▁stupid	-10.5203
▁hydrogen	-10.5203
▁accurate	-10.5203
▁mortality	-10.5204
▁sum	-10.5208
▁zoom	-10.521
▁recording	-10.5213
▁hide	-10.5224
ir	-10.5226
▁sweet	-10.524
ship	-10.524
▁peer	-10.5262
▁extract	-10.5277
▁blog	-10.5281
ious	-10.5281
▁reef	-10.5281
▁awful	-10.5282
▁ignore	-10.5282
▁surgeon	-10.5282
▁toilet	-10.5282
▁enem	-10.5282
▁reform	-10.5283
▁clinic	-10.5284
▁distribution	-10.5285
▁el	-10.529
▁35	-10.5293
right	-10.5294
▁propert	-10.5313
▁origin	-10.5325
▁fle	-10.535
▁198	-10.5359
▁pump	-10.5361
▁repair	-10.5361
▁conclusion	-10.5361
▁rush	-10.5361
▁height	-10.5361
▁valuable	-10.5362
▁facilit	-10.5362
▁tape	-10.5372
▁ne	-10.5382
scale	-10.54
▁season	-10.5406
▁bias	-10.5415
▁figur	-10.5419
▁crash	-10.5421
bel	-10.5425
▁evolve	-10.5428
▁attract	-10.5435
▁clinical	-10.5437
▁privilege	-10.5441
▁crop	-10.5442
▁illness	-10.5442
▁wire	-10.5446
▁bush	-10.5451
▁statement	-10.5453
▁wi	-10.546
▁grade	-10.5488
▁shapes	-10.5512
▁weapons	-10.5512
▁talent	-10.5522
▁hotel	-10.5524
▁label	-10.5526
▁previous	-10.5533
▁iron	-10.5534
▁stock	-10.555
▁bla	-10.5554
▁lies	-10.5569
▁host	-10.557
we	-10.5571
▁partners	-10.5582
▁22	-10.5586
ory	-10.5599
▁regard	-10.5603
▁implication	-10.5603
▁lawyer	-10.5603
▁arab	-10.5603
▁joke	-10.5604
▁brita	-10.5604
▁tear	-10.5618
▁seek	-10.565
▁th	-10.5657
▁nigeria	-10.5672
▁fruit	-10.5685
▁steel	-10.5685
▁forgot	-10.5685
tion	-10.5691
▁stranger	-10.5713
work	-10.5722
▁pool	-10.5725
▁mechanical	-10.5728
ja	-10.5751
▁conservation	-10.5761
▁teeth	-10.5767
▁kitchen	-10.5767
▁empty	-10.5767
▁francisco	-10.5767
▁primary	-10.5768
▁filter	-10.5768
▁charles	-10.5776
▁assumption	-10.5802
▁tall	-10.5809
▁criminal	-10.5811
ni	-10.5812
▁pure	-10.5815
▁rational	-10.5815
▁finance	-10.5822
ner	-10.5833
confidence	-10.5851
▁cluster	-10.5851
▁laptop	-10.5851
▁voices	-10.5857
▁mountains	-10.5873
▁threaten	-10.5874
hood	-10.5879
▁suppose	-10.589
▁infinite	-10.5891
ping	-10.5891
▁tail	-10.5902
▁invit	-10.5902
▁relate	-10.5907
ifi	-10.5916
▁empath	-10.5928
▁deserve	-10.5935
▁entertain	-10.5935
▁youtube	-10.5935
▁technological	-10.5936
▁lake	-10.5936
▁transportation	-10.5937
▁contract	-10.594
▁thin	-10.5945
▁prediction	-10.5948
▁drone	-10.5949
▁imp	-10.595
over	-10.5966
▁nest	-10.5983
▁vulnerab	-10.5987
▁escape	-10.5997
▁su	-10.6014
▁translate	-10.6016
rice	-10.6017
▁happi	-10.6017
▁danger	-10.6019
▁autism	-10.602
▁crack	-10.602
▁passionate	-10.6021
▁radiation	-10.6021
▁apartment	-10.6024
▁comfort	-10.6025
rtex	-10.6026
▁biologist	-10.6033
end	-10.6034
▁pilot	-10.6042
▁comput	-10.6053
▁ray	-10.6054
▁soft	-10.6055
▁section	-10.6056
▁activit	-10.6057
mber	-10.6059
ground	-10.606
▁react	-10.6081
▁logic	-10.6089
oc	-10.6094
lin	-10.6103
▁apparent	-10.6105
▁fiction	-10.6105
▁poem	-10.6105
▁status	-10.6106
▁queen	-10.6106
▁unknown	-10.6107
▁2008	-10.6108
▁terroris	-10.611
▁sheet	-10.611
▁molecular	-10.6113
▁participate	-10.6114
▁expectation	-10.6115
▁symmetr	-10.6121
▁importan	-10.6129
qui	-10.6134
▁tip	-10.6146
om	-10.6146
art	-10.6154
▁heal	-10.6158
foot	-10.616
▁needle	-10.6165
▁calling	-10.617
▁golf	-10.6182
▁darwin	-10.619
▁israel	-10.6191
▁calculate	-10.6191
▁harvard	-10.6191
▁iphone	-10.6191
▁jail	-10.6192
▁ear	-10.6192
▁reference	-10.6192
▁infection	-10.6196
▁pink	-10.62
▁protest	-10.6222
▁knee	-10.6223
ron	-10.623
▁appreciate	-10.6248
▁polic	-10.6252
▁wherea	-10.6272
▁organize	-10.6274
▁circumstance	-10.6278
▁client	-10.6278
▁concrete	-10.6278
▁length	-10.6278
▁ritual	-10.6278
▁dirt	-10.6279
▁observation	-10.628
▁earn	-10.6285
▁activist	-10.6291
▁raw	-10.6308
izing	-10.6308
▁grain	-10.6313
▁secure	-10.6316
▁po	-10.6335
▁arriv	-10.6342
▁swim	-10.6343
▁harm	-10.6357
va	-10.6358
▁titan	-10.6365
▁grab	-10.6366
▁false	-10.6368
▁poll	-10.6368
▁awareness	-10.637
▁exchange	-10.6395
▁entrepreneurs	-10.6399
ible	-10.6406
▁23	-10.6406
▁plus	-10.6413
▁fe	-10.6414
ana	-10.6431
▁abstract	-10.645
▁attach	-10.6452
▁england	-10.6454
▁illegal	-10.6454
▁michael	-10.6454
▁firm	-10.6459
ps	-10.6463
▁jan	-10.6497
▁mc	-10.6515
▁busy	-10.6528
har	-10.6531
▁electron	-10.6532
▁gut	-10.6535
▁45	-10.6541
▁advice	-10.6544
▁vessel	-10.6544
▁harvest	-10.6544
▁elder	-10.6544
▁severe	-10.6546
▁chart	-10.6551
▁automatic	-10.6558
▁magnetic	-10.6565
▁upper	-10.657
▁loop	-10.6571
▁musical	-10.6576
▁author	-10.6576
cent	-10.6591
▁hat	-10.6598
▁danc	-10.6613
bur	-10.6617
▁ah	-10.6619
▁economi	-10.6624
led	-10.6625
▁oppos	-10.6634
▁pacific	-10.6634
▁stretch	-10.6634
▁symptom	-10.6634
▁unusual	-10.6634
▁japanese	-10.6635
▁improv	-10.6636
▁clever	-10.6637
▁marine	-10.6646
▁clothes	-10.6648
▁grandfather	-10.665
▁trend	-10.6668
▁ab	-10.6679
light	-10.6683
▁reverse	-10.6685
▁breathe	-10.6707
▁select	-10.6721
▁curiosity	-10.6725
▁ingredient	-10.6725
▁penguin	-10.6725
▁vertical	-10.6725
▁instant	-10.6725
▁younger	-10.6726
▁panel	-10.6726
▁2010	-10.6726
▁teenager	-10.673
▁droppe	-10.673
▁suck	-10.6732
▁dense	-10.6739
▁wine	-10.6745
▁former	-10.6746
▁myth	-10.6755
▁emerge	-10.6776
con	-10.6786
▁handle	-10.6786
▁prototype	-10.6809
cra	-10.6811
▁implement	-10.6816
▁inevitabl	-10.6816
▁relevant	-10.6816
▁staff	-10.6816
▁productive	-10.6821
▁musician	-10.6825
ise	-10.6827
▁illusion	-10.6829
au	-10.6829
▁sphere	-10.683
▁recycl	-10.6853
▁ri	-10.6855
pp	-10.6858
▁union	-10.6869
▁contribute	-10.6874
▁habitat	-10.6889
half	-10.6892
▁islands	-10.6894
▁inform	-10.6896
▁globe	-10.6909
▁paradigm	-10.6909
▁phrase	-10.6909
▁dedicat	-10.6909
▁domestic	-10.6909
▁advertis	-10.6909
▁innovative	-10.6909
▁split	-10.6909
▁pollution	-10.691
▁ski	-10.6914
▁defense	-10.6922
▁habit	-10.6928
▁pour	-10.6936
▁names	-10.6948
▁cord	-10.695
▁pregnan	-10.696
▁pan	-10.6984
▁russia	-10.6989
▁ben	-10.6994
▁admit	-10.7002
▁centuries	-10.7002
▁lecture	-10.7002
▁barrier	-10.7002
▁obama	-10.7002
▁3,000	-10.7007
▁pa	-10.7008
▁pit	-10.7009
▁agent	-10.7015
▁tie	-10.7021
▁microscope	-10.7023
▁emergenc	-10.704
▁obes	-10.705
▁storm	-10.7051
▁favor	-10.7074
▁flie	-10.7091
destruction	-10.7097
▁contrast	-10.7097
▁mathematician	-10.7097
▁sophisticate	-10.7097
▁sculpture	-10.7097
▁password	-10.7097
▁greenhouse	-10.7098
▁adam	-10.71
▁drill	-10.7101
▁counter	-10.7104
▁describ	-10.7108
▁violent	-10.7112
▁decline	-10.7129
▁rap	-10.7137
▁angle	-10.7137
▁pi	-10.715
▁experienc	-10.7156
▁celebrate	-10.7165
▁sa	-10.7174
▁dress	-10.7184
▁monitor	-10.7186
▁september	-10.7192
▁ultra	-10.7192
▁unexpected	-10.7192
pi	-10.7192
▁instruction	-10.7193
▁airport	-10.7193
▁collaboration	-10.7193
▁consume	-10.7193
▁nerve	-10.72
▁laboratory	-10.7206
▁officer	-10.7227
▁appropriate	-10.7229
▁flag	-10.7234
▁ju	-10.7242
▁scan	-10.7245
▁mile	-10.725
▁command	-10.7263
▁advanc	-10.7264
surance	-10.7265
▁fisher	-10.7268
▁engaged	-10.7269
rising	-10.7272
▁repeat	-10.7279
▁fascinat	-10.7283
▁chimpanzee	-10.7288
▁higgs	-10.7288
▁privacy	-10.7288
▁scratch	-10.7288
▁christian	-10.7288
▁amazon	-10.7289
▁predator	-10.729
▁improvement	-10.73
▁eggs	-10.7307
▁bees	-10.7317
▁participat	-10.7325
▁whales	-10.7343
ite	-10.7343
▁sil	-10.7347
istic	-10.7349
▁cit	-10.7349
▁inspiration	-10.7357
▁tax	-10.7357
▁heads	-10.7371
▁roads	-10.7372
for	-10.7373
ology	-10.7374
what	-10.7377
▁confront	-10.7383
▁memori	-10.7384
▁orchestra	-10.7385
▁boring	-10.7386
ative	-10.7388
▁humor	-10.7388
▁1990	-10.7391
ua	-10.7391
▁tag	-10.7398
▁internal	-10.7399
▁shoulder	-10.7401
▁stronger	-10.7425
▁dogs	-10.7451
▁cl	-10.7479
▁absorb	-10.7483
▁depth	-10.7483
▁permanent	-10.7483
▁evil	-10.7483
▁meaningful	-10.7485
▁attend	-10.7486
▁1980	-10.7488
▁poster	-10.7488
▁cheat	-10.7495
▁polar	-10.7497
▁spa	-10.7499
▁efficienc	-10.7505
▁frequenc	-10.7507
▁lion	-10.7508
▁pet	-10.751
▁tap	-10.7517
▁hous	-10.7531
han	-10.7535
▁employ	-10.7544
call	-10.7555
▁alzheimer	-10.7582
▁corporation	-10.7582
▁polio	-10.7582
▁animation	-10.7582
▁arrest	-10.7582
▁phase	-10.7582
▁flood	-10.7582
▁orange	-10.7583
▁simulation	-10.7583
▁wireless	-10.7584
▁exhibition	-10.7585
ler	-10.7591
▁attitude	-10.7594
▁style	-10.7597
▁bin	-10.7598
▁photographer	-10.7599
▁cable	-10.7626
▁bay	-10.7644
▁bat	-10.7655
▁weigh	-10.7673
▁council	-10.7682
▁exploit	-10.7682
▁regret	-10.7682
▁reject	-10.7682
▁framework	-10.7683
▁latin	-10.7683
▁commitment	-10.7683
▁route	-10.7686
▁bible	-10.7686
▁objective	-10.769
▁pile	-10.7693
▁tower	-10.7693
▁pe	-10.7695
uc	-10.7701
▁sports	-10.7702
▁inequalit	-10.7708
▁percentage	-10.7712
▁committ	-10.7713
▁trans	-10.772
▁ii	-10.773
▁sensitive	-10.7732
▁classic	-10.7732
▁tour	-10.7734
rb	-10.7751
▁gray	-10.7758
▁jo	-10.7767
che	-10.7776
truck	-10.7782
▁shut	-10.7783
▁liberal	-10.7783
▁license	-10.7783
▁immune	-10.7783
▁steal	-10.7783
▁regime	-10.7784
▁tank	-10.7784
▁2009	-10.7787
▁authentic	-10.7791
▁grass	-10.7813
▁behave	-10.7814
▁rely	-10.7826
▁exception	-10.7827
▁theme	-10.7839
▁swede	-10.7844
▁steve	-10.7873
tech	-10.7884
▁prisoner	-10.7885
▁crucial	-10.7885
▁explosion	-10.7885
▁silicon	-10.7885
▁bicycle	-10.7885
▁antarctic	-10.7885
▁club	-10.7886
power	-10.7886
room	-10.7887
▁laser	-10.7888
ack	-10.7894
▁feeding	-10.7896
▁limb	-10.7901
▁burning	-10.7916
▁resolution	-10.7947
▁nose	-10.7955
▁distribut	-10.7965
▁welcome	-10.7975
▁associat	-10.7976
▁ya	-10.7981
fu	-10.7985
▁agreed	-10.7988
▁asteroid	-10.7988
▁silent	-10.7989
▁shame	-10.799
▁download	-10.799
▁gps	-10.7991
▁asset	-10.7999
▁presentation	-10.8001
ari	-10.8003
▁file	-10.8025
▁demonstrate	-10.8026
ug	-10.8027
▁worm	-10.8029
▁highway	-10.8029
▁exten	-10.8052
▁engag	-10.8057
▁shake	-10.8063
rr	-10.8071
▁hack	-10.8082
▁install	-10.8092
▁behavioral	-10.8092
▁physician	-10.8093
▁footprint	-10.8093
▁spiritual	-10.8093
▁interactive	-10.8096
▁breed	-10.8098
▁adventure	-10.8103
▁bl	-10.8105
▁academic	-10.8106
▁paris	-10.8106
▁tea	-10.8108
ngry	-10.8116
▁lens	-10.8119
▁educational	-10.8121
wi	-10.8127
▁lock	-10.8141
▁polle	-10.8168
tar	-10.8175
gi	-10.818
▁99	-10.8183
▁comfortabl	-10.8191
▁solid	-10.8195
▁afternoon	-10.8198
▁froze	-10.8198
▁surveillance	-10.8198
▁ceo	-10.8199
either	-10.8209
▁russian	-10.8212
lf	-10.8214
▁perceive	-10.8215
▁dh	-10.8216
▁min	-10.823
itude	-10.8279
▁del	-10.8283
ure	-10.8284
▁islam	-10.8298
▁thick	-10.8302
▁complain	-10.8304
▁affair	-10.8304
▁recognition	-10.8304
▁thumb	-10.8304
▁transplant	-10.8304
▁characteristic	-10.8305
▁shall	-10.8305
▁review	-10.8305
▁poetry	-10.8305
▁uncle	-10.8306
▁painful	-10.8307
▁homes	-10.831
▁golden	-10.8311
▁overall	-10.8311
▁telephone	-10.8313
▁pill	-10.8313
icity	-10.8317
▁weak	-10.833
▁windows	-10.8344
▁prepared	-10.8348
▁whale	-10.8352
ility	-10.8355
▁guide	-10.836
▁wondered	-10.8377
▁meal	-10.8382
▁seal	-10.8383
▁hub	-10.8389
▁refer	-10.8397
▁spaces	-10.8398
ak	-10.8403
▁depress	-10.8408
▁cloth	-10.8411
▁knock	-10.8412
▁implant	-10.8412
▁embedded	-10.8412
oxide	-10.8412
til	-10.8413
▁dust	-10.8417
▁selection	-10.8417
▁martin	-10.8417
▁rocks	-10.8419
▁obsess	-10.8427
ake	-10.8437
lic	-10.8437
▁authority	-10.8445
▁hire	-10.8445
▁conventional	-10.8449
▁script	-10.8453
▁boxe	-10.8462
▁trace	-10.8471
▁bost	-10.8491
▁wash	-10.8491
▁rose	-10.8498
▁sail	-10.8514
▁sir	-10.8516
▁5,000	-10.852
▁glacier	-10.852
▁piano	-10.852
▁shadow	-10.852
▁skull	-10.852
▁elite	-10.8521
▁defend	-10.8521
▁horrible	-10.8523
▁lifestyle	-10.8524
▁measurement	-10.8531
▁blame	-10.8535
▁mice	-10.8537
ade	-10.8538
house	-10.8542
▁citizen	-10.8564
▁farmer	-10.8567
▁mode	-10.8576
▁cyber	-10.8577
stone	-10.8599
▁observ	-10.86
▁ugl	-10.8603
▁magnet	-10.8605
▁mar	-10.8605
ories	-10.8607
▁processe	-10.8614
▁cast	-10.8618
▁har	-10.8619
▁egypt	-10.863
▁chicago	-10.863
▁revenue	-10.863
▁drove	-10.863
▁chaos	-10.8631
▁fluid	-10.8631
▁greek	-10.8632
▁skeleton	-10.8632
▁desperate	-10.8634
▁hook	-10.8637
▁cash	-10.8639
ivity	-10.8643
▁presence	-10.8652
▁pitch	-10.8653
verse	-10.8657
▁portrait	-10.8657
down	-10.8667
▁mi	-10.8668
▁ja	-10.8673
▁digni	-10.8687
▁wal	-10.8712
ina	-10.8714
▁beside	-10.8733
▁dece	-10.8736
▁column	-10.8741
▁illustrate	-10.8741
▁transparency	-10.8741
▁intervention	-10.8741
▁database	-10.8742
▁fake	-10.8743
▁tech	-10.8743
▁mentor	-10.8745
▁headline	-10.8747
▁hunger	-10.8748
▁sw	-10.8749
ide	-10.875
so	-10.875
bb	-10.8751
mak	-10.876
let	-10.8762
▁bee	-10.8764
back	-10.8766
▁linked	-10.8768
▁magn	-10.8773
▁neuron	-10.8784
▁cart	-10.8785
▁liver	-10.8787
▁imagin	-10.8797
tz	-10.88
▁expos	-10.8815
▁printer	-10.8821
▁milk	-10.883
▁youth	-10.8835
▁geo	-10.8844
▁suspect	-10.8854
▁dictionar	-10.8854
▁pretend	-10.8854
▁flash	-10.8854
▁afterward	-10.8857
ik	-10.8857
▁194	-10.8858
aa	-10.8863
uck	-10.8864
▁parallel	-10.8864
▁item	-10.887
▁brave	-10.8874
▁palm	-10.8876
▁shell	-10.8877
▁rescue	-10.8885
log	-10.8894
town	-10.8899
▁jun	-10.8911
▁bend	-10.892
▁productivit	-10.893
▁pin	-10.8941
▁resist	-10.8949
▁transfer	-10.895
▁plot	-10.8961
▁pyramid	-10.8967
▁distant	-10.8967
▁christmas	-10.8968
▁psychological	-10.897
▁suicide	-10.8973
▁fabric	-10.8989
ches	-10.8995
source	-10.9009
▁densit	-10.9026
▁pot	-10.9031
hu	-10.9033
▁floating	-10.9034
▁struggl	-10.904
▁philosoph	-10.9049
▁sel	-10.9069
▁integrat	-10.9071
▁twin	-10.9077
▁deploy	-10.908
▁isolat	-10.9081
▁expedition	-10.9082
▁genius	-10.9082
▁mushroom	-10.9082
▁scream	-10.9082
▁session	-10.9082
▁wound	-10.9082
▁audio	-10.9082
▁confuse	-10.9082
▁jew	-10.9083
▁acid	-10.9085
▁stepp	-10.9089
▁va	-10.9093
▁representation	-10.9093
▁cha	-10.9106
▁chest	-10.9115
80	-10.9118
▁stor	-10.9127
▁merc	-10.9132
gun	-10.9133
▁reduc	-10.9136
▁port	-10.914
▁flip	-10.9153
▁additional	-10.9157
▁smok	-10.916
▁pray	-10.9187
▁pakistan	-10.9189
▁journal	-10.9195
▁candidate	-10.9199
▁concert	-10.9199
▁rainforest	-10.9199
▁federal	-10.9199
▁octo	-10.9199
▁tight	-10.9199
ub	-10.9199
▁leap	-10.9199
▁desk	-10.9199
▁optimistic	-10.92
▁hungry	-10.92
▁motivation	-10.9202
▁vital	-10.9203
▁consistent	-10.9222
▁clos	-10.9243
▁choos	-10.9246
▁mayor	-10.9251
▁wars	-10.927
▁excite	-10.9271
ang	-10.9278
▁shipp	-10.9278
ani	-10.9278
▁clouds	-10.9279
▁proof	-10.9292
▁opera	-10.9299
▁ears	-10.93
▁korea	-10.9303
▁edit	-10.9307
▁accomplish	-10.9314
▁compound	-10.9316
▁corporate	-10.9316
▁miracle	-10.9316
▁passenger	-10.9316
▁trigger	-10.9316
▁initiative	-10.9317
▁earthquake	-10.9317
▁subtle	-10.9317
▁ooh	-10.9317
▁pm	-10.9318
ile	-10.9318
▁psycholog	-10.9319
▁dear	-10.9323
▁mary	-10.9331
▁birthday	-10.9335
bra	-10.9336
▁eastern	-10.9354
▁prepar	-10.9364
▁generat	-10.9366
ill	-10.9376
▁functional	-10.938
lit	-10.9398
▁relie	-10.9403
▁anger	-10.9405
▁tube	-10.9412
▁bell	-10.9428
▁correspond	-10.9435
▁diagram	-10.9435
▁excuse	-10.9435
▁heaven	-10.9435
▁narrow	-10.9435
▁obstacle	-10.9435
▁scenario	-10.9435
▁appeal	-10.9435
▁probabilit	-10.9436
▁plent	-10.9436
▁judgment	-10.9436
▁household	-10.9436
▁stack	-10.9437
▁microbe	-10.9437
ran	-10.945
rous	-10.9461
▁imag	-10.9463
▁dive	-10.9468
▁smoke	-10.9475
▁introduc	-10.9486
ov	-10.9487
▁breaking	-10.9493
▁peter	-10.9499
▁meme	-10.95
▁wings	-10.9525
iv	-10.9527
12	-10.9532
▁identical	-10.9556
▁procedure	-10.9556
▁request	-10.9556
▁prosper	-10.9556
▁trait	-10.9556
▁tuna	-10.9557
▁educate	-10.9571
▁intense	-10.9573
▁jim	-10.9578
▁recogniz	-10.9586
▁scott	-10.9588
▁fears	-10.9595
▁holly	-10.9595
american	-10.9595
▁elect	-10.9602
▁assembl	-10.9611
▁den	-10.9629
▁universit	-10.9629
▁propose	-10.9636
▁boom	-10.964
ris	-10.9644
ag	-10.9656
▁ban	-10.9658
ify	-10.9666
▁courage	-10.9676
▁chocolate	-10.9678
▁chromosome	-10.9678
▁conservative	-10.9678
▁ridiculous	-10.9678
▁terrifi	-10.9678
▁demographic	-10.9678
▁medication	-10.9678
▁ticket	-10.9678
▁utter	-10.9678
▁sunlight	-10.9679
▁van	-10.968
▁2004	-10.9683
▁2005	-10.9686
▁replicate	-10.9687
▁prefer	-10.9694
ick	-10.9697
▁gu	-10.9709
▁colony	-10.9723
▁cute	-10.9738
▁cam	-10.9742
▁fixed	-10.9752
▁promote	-10.9758
▁tu	-10.9778
▁accessibl	-10.9778
▁rhythm	-10.978
▁cow	-10.978
teen	-10.9782
▁killer	-10.9801
▁essence	-10.9801
▁pioneer	-10.9801
▁antibiotic	-10.9801
▁debt	-10.9801
▁domain	-10.9801
▁football	-10.9802
▁overcome	-10.9803
▁loan	-10.9805
▁achievement	-10.9807
▁dig	-10.9808
▁boss	-10.9837
century	-10.9847
while	-10.9847
▁analyze	-10.9874
▁kan	-10.9878
▁parking	-10.9879
state	-10.9884
▁icon	-10.9912
▁bug	-10.9916
being	-10.9925
▁description	-10.9926
▁fabulous	-10.9926
▁uganda	-10.9926
▁uncomfortabl	-10.9926
▁screw	-10.9926
▁mask	-10.9927
▁alarm	-10.9928
▁clue	-10.9928
▁output	-10.9933
▁sweat	-10.9933
▁kiss	-10.994
▁bother	-10.9946
▁feminist	-10.9948
▁sam	-10.9949
▁guard	-10.9951
▁corn	-10.9974
dollar	-10.9975
▁tune	-10.9977
▁rating	-10.999
▁intention	-10.9999
tor	-11.0004
▁bob	-11.0007
▁legac	-11.001
▁salt	-11.001
▁indicate	-11.0021
▁ngo	-11.003
▁incentives	-11.0034
▁ensure	-11.0034
▁remov	-11.0035
etic	-11.0051
▁optimis	-11.0052
▁atlantic	-11.0053
▁chief	-11.0053
▁synthetic	-11.0053
▁vegetable	-11.0053
▁wikipedia	-11.0053
▁contemporar	-11.0053
▁immense	-11.0053
▁traged	-11.0053
▁reserve	-11.0053
▁guilt	-11.0053
▁haiti	-11.0053
▁permission	-11.0054
▁toxic	-11.0054
▁demonstration	-11.0055
▁reported	-11.0056
▁vent	-11.0057
▁gi	-11.0057
▁1950	-11.0058
▁em	-11.006
▁manager	-11.006
bl	-11.008
▁sch	-11.0081
▁fi	-11.0095
▁mechanic	-11.0114
▁sides	-11.0115
▁artistic	-11.0125
fa	-11.0163
▁ti	-11.0168
▁ceiling	-11.0181
▁recruit	-11.0181
▁smartphone	-11.0181
▁tunnel	-11.0181
▁dialogue	-11.0181
▁infant	-11.0181
▁robert	-11.0181
▁partnership	-11.0182
▁galler	-11.0184
▁extinction	-11.0185
▁abilit	-11.0195
▁autonomous	-11.0197
▁associate	-11.0208
▁par	-11.0212
▁fifth	-11.0228
hour	-11.0241
zi	-11.0242
ically	-11.0277
▁magical	-11.0281
▁colon	-11.0306
▁capita	-11.0306
▁scann	-11.0306
▁award	-11.0308
▁external	-11.0311
▁intuition	-11.0311
▁unbelievabl	-11.0311
▁biodivers	-11.0311
▁mutation	-11.0311
▁saturn	-11.0311
▁bump	-11.0311
▁spark	-11.0311
▁olympic	-11.0311
▁narrator	-11.0311
▁unclear	-11.0312
▁reduction	-11.0312
val	-11.0313
▁locked	-11.0314
▁psychologist	-11.0316
▁stroke	-11.0329
dependent	-11.0329
fare	-11.033
▁ai	-11.0334
▁gon	-11.0334
rate	-11.0336
▁jet	-11.0352
▁wage	-11.0363
▁occasional	-11.037
▁cooperat	-11.0372
▁inventor	-11.0375
▁32	-11.0381
class	-11.0382
▁combin	-11.0384
▁terror	-11.0386
cal	-11.0404
kind	-11.041
▁bf	-11.0415
▁backwards	-11.0422
▁adjust	-11.0442
▁rwanda	-11.0442
▁tweet	-11.0442
▁neural	-11.0443
▁abandon	-11.0443
▁primari	-11.0443
▁tropic	-11.0443
▁comparison	-11.0443
▁aircraft	-11.0443
▁copyright	-11.0443
▁laid	-11.0446
▁extinct	-11.0454
▁carrie	-11.0456
▁identifie	-11.0458
▁201	-11.0463
▁garb	-11.0465
ney	-11.0486
▁quit	-11.0486
▁hanging	-11.0491
third	-11.0505
forward	-11.0505
than	-11.0506
▁drawn	-11.0519
▁argu	-11.0536
▁capitalis	-11.0538
▁mac	-11.0543
▁gates	-11.0552
▁demo	-11.0555
▁achiev	-11.0558
ura	-11.056
▁coat	-11.0562
▁hyper	-11.0565
▁mate	-11.0568
▁interpret	-11.0573
▁manhattan	-11.0576
▁stanford	-11.0576
▁yield	-11.0576
▁agenda	-11.0576
▁cousin	-11.0576
▁breakthrough	-11.0576
▁voting	-11.0576
▁array	-11.0576
▁chapter	-11.0576
▁carri	-11.0577
▁observe	-11.0581
▁slice	-11.0586
▁sacred	-11.0587
▁nutrient	-11.0589
▁confident	-11.0591
▁discipline	-11.0594
▁compete	-11.0595
▁teams	-11.06
za	-11.0601
cellular	-11.0608
▁mold	-11.0613
▁sal	-11.0618
▁mere	-11.0619
▁axis	-11.0625
▁shooting	-11.0633
▁cop	-11.0639
▁preserv	-11.0648
▁pad	-11.0661
▁entrepreneur	-11.0664
af	-11.0665
chi	-11.0688
▁tele	-11.0702
▁devil	-11.0711
▁district	-11.0711
▁expansion	-11.0711
▁profile	-11.0711
▁simultaneous	-11.0711
▁dump	-11.0711
▁smooth	-11.0711
▁naked	-11.0712
▁clay	-11.0712
▁slavery	-11.0713
▁slum	-11.0713
▁congo	-11.0714
▁jesu	-11.0714
▁rome	-11.0716
ung	-11.0716
▁shout	-11.072
▁priorit	-11.0731
▁norm	-11.0732
▁philosopher	-11.0745
long	-11.0746
▁fin	-11.0747
▁motivat	-11.0751
▁globally	-11.0751
bot	-11.0758
bola	-11.0767
box	-11.0781
▁wise	-11.0786
▁marker	-11.0804
▁relations	-11.0821
▁poet	-11.0826
▁clar	-11.0826
▁mimic	-11.0845
▁frighten	-11.0848
▁helicopter	-11.0848
▁snake	-11.0848
▁signature	-11.0849
▁mindset	-11.0849
▁swa	-11.0849
▁yard	-11.085
▁arabic	-11.0853
▁engagement	-11.0853
▁bind	-11.0853
▁penn	-11.0857
▁repeated	-11.0862
ou	-11.0862
▁250	-11.0866
▁methan	-11.087
▁charit	-11.0871
arctic	-11.0875
▁disability	-11.0878
▁israeli	-11.0878
▁tackle	-11.0882
nar	-11.0892
▁creator	-11.0899
children	-11.0922
bridge	-11.0926
▁rio	-11.0934
▁mail	-11.094
▁ge	-11.0951
▁videos	-11.0964
tial	-11.0973
well	-11.0973
drew	-11.0975
▁clock	-11.0984
▁intuitive	-11.0987
▁texas	-11.0987
▁gesture	-11.0987
▁ghana	-11.0987
▁gulf	-11.0987
▁anonymous	-11.0987
▁stunt	-11.0987
▁renewable	-11.0988
▁neat	-11.0988
▁coach	-11.0989
▁probe	-11.0989
▁rent	-11.1005
she	-11.1006
▁leak	-11.1006
▁till	-11.1017
ograph	-11.1022
lock	-11.1039
▁nets	-11.1042
▁believ	-11.1046
▁tir	-11.1056
bit	-11.1071
▁pose	-11.1076
▁integrate	-11.1081
▁releas	-11.1082
▁dancer	-11.1086
▁fed	-11.1091
▁leverage	-11.1112
▁industri	-11.112
▁inject	-11.1123
▁addict	-11.1124
▁slave	-11.1126
▁aesthetic	-11.1128
▁conclude	-11.1128
▁diabetes	-11.1128
▁guarantee	-11.1128
▁recipe	-11.1128
▁pulse	-11.1128
▁sharp	-11.1128
▁fraction	-11.1128
▁burst	-11.1128
▁william	-11.1128
▁twenty	-11.1129
▁ecological	-11.113
▁drum	-11.1134
▁limitation	-11.1135
▁guns	-11.1137
len	-11.1138
▁yorker	-11.1143
▁alter	-11.1154
▁inspiring	-11.1159
▁faci	-11.1166
▁psycho	-11.1169
lp	-11.1173
form	-11.1174
▁don	-11.1179
▁bound	-11.1187
▁op	-11.12
▁sacrifice	-11.1217
▁preserve	-11.1218
rin	-11.1225
van	-11.1228
▁institutional	-11.1251
▁sales	-11.1267
▁neuroscien	-11.127
▁jihad	-11.1271
▁calculation	-11.1271
▁diamond	-11.1271
▁fragment	-11.1271
▁primitive	-11.1271
▁senior	-11.1271
▁spectacular	-11.1271
▁transparent	-11.1271
▁robust	-11.1271
▁transmission	-11.1271
▁dragonfl	-11.1271
▁textbook	-11.1271
▁neuro	-11.1271
▁cheese	-11.1271
▁assignment	-11.1272
▁friday	-11.1274
▁highlight	-11.1275
▁jer	-11.1276
▁borrow	-11.1278
▁lean	-11.1279
▁rover	-11.1279
▁tension	-11.128
▁damn	-11.1281
▁banks	-11.1283
▁lane	-11.1284
▁fastest	-11.1287
▁shirt	-11.1289
▁weapon	-11.1307
▁frustrat	-11.1308
▁ethical	-11.1314
▁homo	-11.1317
▁dish	-11.1328
▁bu	-11.1333
▁surrounding	-11.1335
▁craft	-11.1349
▁branch	-11.1352
▁underly	-11.1355
▁rob	-11.1361
▁replac	-11.1377
▁murder	-11.138
▁rotate	-11.1386
rum	-11.1389
▁strip	-11.1403
▁nano	-11.1408
▁hip	-11.141
▁trauma	-11.1414
▁disturb	-11.1414
▁rape	-11.1415
▁strike	-11.1415
▁kingdom	-11.1416
▁poison	-11.1417
▁winner	-11.1417
▁collaborator	-11.1419
ek	-11.142
▁bored	-11.1422
▁cosmi	-11.1424
▁50,000	-11.1425
▁darkness	-11.1433
▁rebuild	-11.1435
▁pur	-11.1447
▁flexibl	-11.1448
gging	-11.1452
fin	-11.1457
▁div	-11.1457
▁educat	-11.1461
▁nick	-11.1462
bar	-11.1468
▁plain	-11.1469
▁decrease	-11.1474
ai	-11.1476
▁crossing	-11.15
▁consum	-11.1518
fold	-11.1518
ji	-11.154
▁120	-11.1541
▁node	-11.1545
audi	-11.1547
mor	-11.1552
▁destin	-11.156
▁alcohol	-11.1563
▁athlete	-11.1563
▁encrypt	-11.1563
▁vacation	-11.1563
▁bulb	-11.1563
▁regulation	-11.1563
▁broadcast	-11.1563
▁jelly	-11.1563
▁crush	-11.1563
▁italian	-11.1563
▁systematic	-11.1563
thermal	-11.1563
▁advocate	-11.1566
▁gang	-11.1566
▁para	-11.1568
▁yo	-11.157
▁divers	-11.1577
▁pace	-11.1585
▁constraint	-11.1596
▁bats	-11.1599
▁geographic	-11.1602
▁announc	-11.1611
▁tim	-11.1616
ami	-11.1623
▁prepare	-11.1624
iness	-11.1629
standing	-11.1631
kin	-11.1634
ko	-11.1635
▁exponential	-11.1642
▁bold	-11.1646
force	-11.1663
▁disabl	-11.1676
▁storytell	-11.1682
▁computation	-11.1683
▁compos	-11.1683
▁dar	-11.1693
▁balls	-11.1707
▁flavor	-11.1712
▁entrop	-11.1712
▁freak	-11.1712
▁gradual	-11.1712
▁ruin	-11.1712
▁bow	-11.1712
▁condom	-11.1712
▁deaf	-11.1713
▁peaceful	-11.1715
▁installation	-11.1715
stock	-11.1721
▁28	-11.1724
▁joint	-11.1729
▁enhance	-11.1736
▁locate	-11.1736
▁strand	-11.1739
▁te	-11.1742
▁investor	-11.1752
▁mall	-11.1754
▁sanit	-11.176
▁native	-11.1769
▁formula	-11.1774
▁projection	-11.1802
▁mount	-11.1806
▁pant	-11.1813
▁boundar	-11.1815
20	-11.1826
▁trap	-11.1826
▁pat	-11.1832
▁automat	-11.1842
▁graphic	-11.1847
▁dere	-11.1851
dg	-11.1853
▁anxiety	-11.1863
▁inherent	-11.1863
▁origami	-11.1863
▁pharmaceutical	-11.1863
▁unprecedented	-11.1863
▁hormone	-11.1863
▁twist	-11.1863
▁retina	-11.1863
▁extension	-11.1864
▁fortune	-11.1864
▁export	-11.1864
▁venture	-11.1864
ison	-11.1864
▁garage	-11.1864
▁combat	-11.1864
▁rivers	-11.1865
▁crew	-11.1866
▁punch	-11.1866
▁disconnect	-11.1867
▁donor	-11.1871
▁genetically	-11.1879
▁survivor	-11.1881
▁20,000	-11.1884
▁jar	-11.1909
▁evening	-11.1931
▁mixed	-11.1931
bc	-11.1937
ville	-11.1938
▁tar	-11.194
▁navigate	-11.1946
▁anatom	-11.1956
rus	-11.1961
hen	-11.1965
▁cod	-11.1968
level	-11.197
space	-11.197
look	-11.1975
▁virgin	-11.2007
nc	-11.2014
▁legislat	-11.2017
▁bizarre	-11.2017
▁burden	-11.2017
▁terrifying	-11.2017
▁arrow	-11.2017
▁trajector	-11.2017
▁currenc	-11.2017
▁pigeon	-11.2017
▁egyptian	-11.2018
▁stole	-11.2018
▁sink	-11.2019
▁marry	-11.2019
▁fragile	-11.2021
▁jaw	-11.2022
▁cats	-11.2027
▁mat	-11.2049
▁exhaust	-11.2068
▁coin	-11.2071
▁che	-11.2078
▁shopp	-11.2094
▁proportion	-11.2095
▁overwhelming	-11.21
▁programmer	-11.2105
▁linear	-11.2106
▁trends	-11.2115
play	-11.2123
soft	-11.2135
▁cur	-11.2137
▁33	-11.2142
▁silver	-11.2143
▁slides	-11.2147
▁fee	-11.2149
▁diagnos	-11.2155
ax	-11.2158
▁falls	-11.2161
▁acknowledge	-11.2162
made	-11.2165
▁attribute	-11.217
,500	-11.2172
▁confirm	-11.2173
▁empire	-11.2173
▁prosthetic	-11.2173
▁tragic	-11.2173
▁vacuum	-11.2173
▁luxur	-11.2173
▁sandwich	-11.2173
▁smith	-11.2173
▁trash	-11.2173
▁augment	-11.2173
▁bathroom	-11.2174
▁consist	-11.2174
▁hitting	-11.2178
▁spell	-11.2178
▁variable	-11.2178
▁comic	-11.2179
▁tiger	-11.218
all	-11.2182
▁intend	-11.2185
par	-11.219
▁mineral	-11.2194
▁patch	-11.2202
▁failing	-11.2202
▁cheer	-11.2205
aking	-11.222
gar	-11.2224
▁ratio	-11.2226
org	-11.2227
▁package	-11.2233
meter	-11.2251
▁format	-11.2251
▁via	-11.2253
▁pu	-11.2255
▁fo	-11.2267
▁2.	-11.2275
▁kit	-11.2277
▁laughing	-11.2292
▁reconstruct	-11.2328
▁custom	-11.233
nder	-11.2331
▁deforest	-11.2332
▁furniture	-11.2332
▁oxford	-11.2332
▁soviet	-11.2332
▁structural	-11.2332
▁automobile	-11.2332
▁brutal	-11.2332
▁bullet	-11.2332
▁'90	-11.2332
▁primate	-11.2332
▁sheep	-11.2333
▁auto	-11.2333
▁collaborative	-11.2333
▁baseball	-11.2333
▁spacecraft	-11.2333
▁index	-11.2334
▁brun	-11.2337
▁restore	-11.234
▁detector	-11.2346
▁upset	-11.2346
▁astronomer	-11.2361
▁determined	-11.2365
▁195	-11.2369
▁interior	-11.2376
▁contribut	-11.2382
▁hid	-11.239
▁tribe	-11.2398
▁analyz	-11.2399
▁fate	-11.241
jo	-11.2411
,	-11.2433
▁bath	-11.2436
▁personaliz	-11.2441
cro	-11.2443
▁glamo	-11.2447
engineer	-11.2451
book	-11.2457
▁sensory	-11.246
ino	-11.2465
▁10-	-11.2473
▁commission	-11.2478
▁victor	-11.2493
▁civic	-11.2493
▁participant	-11.2493
▁potato	-11.2493
▁shrink	-11.2493
▁ubiquit	-11.2493
▁vietnam	-11.2493
▁defeat	-11.2493
▁annual	-11.2493
▁bribe	-11.2493
▁viral	-11.2494
▁canopy	-11.2494
▁representative	-11.2495
▁compell	-11.2495
▁pause	-11.2495
▁gear	-11.2496
berg	-11.2496
▁translation	-11.2496
▁coca	-11.2497
▁agreement	-11.25
▁passive	-11.2502
▁stake	-11.2502
▁enterprise	-11.2504
▁descend	-11.2506
▁scal	-11.2507
▁subway	-11.2507
▁prince	-11.251
▁cu	-11.2519
▁hunter	-11.2522
▁urge	-11.2526
▁wir	-11.2526
▁fulfill	-11.2536
▁glad	-11.2539
▁personalit	-11.2551
▁pie	-11.2566
gram	-11.2571
▁sens	-11.2589
ota	-11.2598
▁profession	-11.2609
▁lin	-11.2619
▁pal	-11.2622
fall	-11.2627
▁refuse	-11.2638
ram	-11.2648
net	-11.2653
▁excellen	-11.2654
▁recommend	-11.2655
▁august	-11.2657
▁ceremon	-11.2657
▁intrigu	-11.2657
▁routine	-11.2657
▁theoretical	-11.2657
▁thrill	-11.2657
▁shelter	-11.2657
▁humanitarian	-11.2657
▁lord	-11.2657
▁mill	-11.2659
▁electrode	-11.2659
▁sensation	-11.266
▁4,000	-11.266
▁brick	-11.2661
▁calorie	-11.2661
▁blend	-11.2661
▁islamic	-11.2662
▁editor	-11.2665
▁upload	-11.2665
▁reflection	-11.2671
▁oxy	-11.2676
▁agricultural	-11.269
▁astonishing	-11.2692
▁hunt	-11.2695
▁ken	-11.2695
▁lamp	-11.27
▁intens	-11.2703
▁shit	-11.2705
▁cube	-11.271
ocin	-11.2723
▁gathering	-11.2728
▁upside	-11.2734
▁stands	-11.2738
▁transmit	-11.2762
▁explorer	-11.2769
cut	-11.2773
▁goat	-11.2775
▁qualit	-11.2775
▁eric	-11.2776
▁batter	-11.2777
organiz	-11.2785
▁prop	-11.2791
pit	-11.2792
▁owner	-11.2794
can	-11.28
▁exhibit	-11.282
▁argentin	-11.2824
▁default	-11.2824
▁frog	-11.2824
▁microphone	-11.2824
▁florid	-11.2824
▁tire	-11.2824
▁honey	-11.2825
▁mysterious	-11.2825
▁jack	-11.2825
▁generous	-11.2826
▁paralyz	-11.2826
▁ko	-11.2826
▁contribution	-11.2828
15	-11.283
▁mon	-11.283
▁homework	-11.283
train	-11.2839
▁pipe	-11.2844
▁calm	-11.2846
▁competitive	-11.2847
▁doors	-11.2849
▁hackers	-11.2852
▁scanner	-11.2853
▁zip	-11.2856
uit	-11.2868
inary	-11.2876
▁lone	-11.288
ear	-11.2889
▁farming	-11.2889
▁communicat	-11.2889
▁0.	-11.2892
▁mapping	-11.2912
▁fla	-11.2917
▁comet	-11.2924
▁continuous	-11.2927
▁hunting	-11.2928
plan	-11.2938
col	-11.2941
▁wa	-11.2947
▁coordinat	-11.2963
▁horizon	-11.2975
▁soap	-11.2976
▁plug	-11.2991
▁ideolog	-11.2992
▁blank	-11.2993
▁collision	-11.2993
▁discriminat	-11.2993
▁ethiopia	-11.2993
▁knife	-11.2993
▁tsunami	-11.2993
▁awkward	-11.2994
▁dawn	-11.2994
▁fence	-11.2994
▁wrist	-11.2994
▁cotton	-11.2994
▁febr	-11.2994
▁equit	-11.2994
▁torture	-11.2994
▁grasp	-11.2994
▁diagnosis	-11.2995
▁vibration	-11.2996
▁keyboard	-11.2996
▁weekend	-11.2998
▁nuts	-11.2998
▁gar	-11.2999
▁association	-11.3
▁burie	-11.3001
▁flute	-11.3001
▁winning	-11.3024
▁lego	-11.3025
▁glamor	-11.3043
▁bull	-11.3043
▁warning	-11.3062
▁appreciat	-11.3062
▁ham	-11.3066
▁ironic	-11.3076
▁occasion	-11.3088
▁lucki	-11.3093
▁bless	-11.3104
▁producer	-11.3109
▁hal	-11.3112
ze	-11.3112
▁za	-11.3113
▁typ	-11.3116
▁accus	-11.313
point	-11.3131
sahara	-11.3133
▁herita	-11.3134
free	-11.3137
fast	-11.3144
▁mt	-11.3151
▁grave	-11.3154
▁electro	-11.3154
▁makers	-11.3156
▁determin	-11.3158
▁fool	-11.3166
▁astronaut	-11.3166
▁curriculum	-11.3166
▁dilemma	-11.3166
▁matrix	-11.3166
▁resident	-11.3166
▁substance	-11.3166
▁triangle	-11.3166
▁thread	-11.3166
▁expectanc	-11.3166
▁supermarket	-11.3166
▁convey	-11.3166
▁uniform	-11.3167
▁intersection	-11.3167
▁woke	-11.3168
▁mood	-11.3168
▁compassionate	-11.3169
▁portion	-11.3173
▁2001	-11.3173
▁static	-11.3175
▁palestinian	-11.3179
▁manual	-11.3197
▁spoken	-11.3199
▁logical	-11.3204
▁homeless	-11.3205
▁incident	-11.3218
rlin	-11.3222
▁endless	-11.3225
▁delivery	-11.3234
cher	-11.3243
▁float	-11.3243
▁wing	-11.3245
▁ki	-11.3246
▁por	-11.3247
▁specialize	-11.3248
▁newton	-11.3251
▁asian	-11.3263
lad	-11.3269
▁charl	-11.3281
▁cri	-11.3292
▁spec	-11.3297
place	-11.33
olds	-11.3304
▁sexy	-11.331
assembl	-11.3312
zero	-11.3315
▁reporter	-11.3321
dia	-11.3323
▁paradox	-11.3325
▁medi	-11.3327
▁humanit	-11.333
▁hydro	-11.3341
▁genuine	-11.3341
▁grateful	-11.3341
▁tattoo	-11.3341
▁inherit	-11.3341
▁transaction	-11.3341
▁fault	-11.3341
▁gandhi	-11.3342
▁spanish	-11.3342
▁josh	-11.3342
▁wedding	-11.3343
▁delight	-11.3343
▁kidney	-11.3346
▁pathway	-11.3355
▁realm	-11.3356
▁historic	-11.3361
pox	-11.3361
▁innocent	-11.3365
▁dam	-11.3371
loved	-11.3385
▁aspiration	-11.339
▁burned	-11.3406
hc	-11.3408
rick	-11.3412
▁archive	-11.3419
▁boil	-11.342
take	-11.3424
▁diver	-11.3425
iro	-11.3432
▁accelerat	-11.3432
ator	-11.3433
▁tendenc	-11.3451
▁span	-11.3454
▁independen	-11.346
▁rub	-11.3465
▁mega	-11.3465
nn	-11.3471
▁wrap	-11.3486
▁disagree	-11.3493
▁dial	-11.3494
▁architectur	-11.3497
two	-11.3501
mart	-11.3509
▁sc	-11.3516
▁quest	-11.3518
▁festival	-11.352
▁parliament	-11.352
▁stomach	-11.352
▁taliban	-11.352
▁veteran	-11.352
▁align	-11.352
▁foster	-11.352
▁minorit	-11.352
▁jeff	-11.352
▁spill	-11.3521
▁unconscious	-11.3521
▁glow	-11.3521
▁neck	-11.3521
▁confine	-11.3521
▁contradiction	-11.3521
▁altitude	-11.3522
▁concentration	-11.3522
▁interpretation	-11.3523
dra	-11.3527
ix	-11.3527
▁wheat	-11.3531
▁tent	-11.3538
▁dominat	-11.3558
cla	-11.3559
▁caves	-11.3564
▁experimental	-11.3567
▁celebrat	-11.3568
▁hearts	-11.3569
▁rope	-11.3571
tun	-11.3591
▁explode	-11.3595
nia	-11.3598
arian	-11.3606
▁manipulate	-11.3606
▁glue	-11.3608
▁accelerate	-11.3616
gh	-11.3618
▁jumped	-11.3628
▁tribes	-11.3628
▁shine	-11.3631
▁maker	-11.3631
ulate	-11.3637
▁motivate	-11.3643
▁ethic	-11.3647
▁strategic	-11.3653
▁clon	-11.3655
oven	-11.3657
▁fra	-11.366
▁henr	-11.3661
▁documentar	-11.3661
▁beam	-11.3664
▁wrapp	-11.3669
▁assum	-11.3673
▁disc	-11.3673
▁tick	-11.3675
▁previously	-11.3675
▁singer	-11.3681
▁geograph	-11.3687
▁ze	-11.3688
▁1.	-11.3692
▁distinct	-11.3696
▁compromise	-11.3702
▁constitution	-11.3702
▁enlighten	-11.3702
▁occupy	-11.3702
▁pandemic	-11.3702
▁register	-11.3702
▁relax	-11.3702
▁territor	-11.3702
▁dutch	-11.3702
▁gorge	-11.3702
▁contrar	-11.3702
▁barrel	-11.3702
▁turkey	-11.3702
orient	-11.3702
▁libert	-11.3703
▁retirement	-11.3704
▁chile	-11.3704
▁chef	-11.3704
▁cake	-11.3705
▁vary	-11.3706
▁beer	-11.3706
▁airline	-11.371
▁entry	-11.3713
▁ego	-11.372
▁def	-11.372
ome	-11.3727
▁suggestion	-11.3728
▁mri	-11.3728
▁wider	-11.3732
▁distribute	-11.3735
▁captur	-11.3742
▁bars	-11.3743
mar	-11.3753
▁insist	-11.3764
▁offering	-11.3766
▁logg	-11.3766
▁ignor	-11.3779
hur	-11.3792
▁uncertaint	-11.3803
▁ga	-11.3806
pro	-11.3817
eaten	-11.3818
uction	-11.3826
lson	-11.3836
▁poly	-11.3852
grow	-11.3869
▁cal	-11.3871
lly	-11.3877
▁philanthrop	-11.3881
▁ku	-11.3883
▁crystal	-11.3886
▁bangladesh	-11.3887
▁crawl	-11.3887
▁encouraging	-11.3887
▁immigrant	-11.3887
▁avatar	-11.3887
▁gravitational	-11.3887
▁cliff	-11.3887
▁aggressive	-11.3887
▁koran	-11.3887
▁coke	-11.3887
▁fox	-11.3888
▁resolve	-11.3888
▁slim	-11.3888
▁ongoing	-11.3889
▁unlock	-11.3891
▁impression	-11.3894
▁manner	-11.3895
rid	-11.3898
▁monitoring	-11.3899
▁elegant	-11.3901
▁enabl	-11.3903
▁grandparent	-11.3905
▁dressed	-11.3907
▁horizontal	-11.3908
▁classe	-11.3909
▁1,	-11.3915
▁distinguish	-11.392
▁serving	-11.3922
▁ape	-11.3923
▁transmitt	-11.3925
▁server	-11.3926
▁dumb	-11.3927
▁95	-11.3927
ria	-11.3937
estate	-11.3939
ode	-11.3951
▁fanc	-11.3951
▁bucks	-11.3955
chu	-11.3972
▁reliabl	-11.398
ush	-11.3982
▁romantic	-11.3984
▁formal	-11.399
▁chas	-11.3994
▁mik	-11.4008
▁bust	-11.4016
▁fil	-11.402
▁egg	-11.404
rapped	-11.4056
four	-11.4063
▁teenage	-11.4064
▁sport	-11.4069
▁lit	-11.4071
▁retire	-11.4074
dominant	-11.4075
▁chronic	-11.4076
▁administration	-11.4076
▁captain	-11.4076
▁leonard	-11.4076
▁minimum	-11.4076
▁monsoon	-11.4076
▁neanderthal	-11.4076
▁precious	-11.4076
▁sponsor	-11.4076
▁composition	-11.4076
▁spontaneous	-11.4076
▁carpet	-11.4076
▁compress	-11.4076
▁magnificent	-11.4076
▁michel	-11.4076
▁leaf	-11.4076
▁mainstream	-11.4076
▁bedroom	-11.4077
▁duck	-11.4078
▁civilian	-11.4078
▁2020	-11.4079
▁investigation	-11.408
▁harness	-11.408
▁addiction	-11.4081
▁geometr	-11.4082
▁monte	-11.4086
blew	-11.4089
▁metric	-11.409
▁merg	-11.4091
▁tricks	-11.4093
▁mama	-11.4094
not	-11.4095
:	-11.4102
▁helpful	-11.4106
▁matt	-11.4109
ttle	-11.4123
aba	-11.4123
bro	-11.4125
▁fusion	-11.4127
▁tur	-11.413
▁activate	-11.4136
▁jane	-11.4137
▁planetary	-11.4141
▁statistical	-11.4143
▁beating	-11.4165
▁overwhelm	-11.4166
▁degrad	-11.4177
▁85	-11.4222
▁graphics	-11.4224
cost	-11.4228
▁embrac	-11.4248
▁thrive	-11.4252
▁supplie	-11.4255
▁hung	-11.4257
world	-11.4258
▁tony	-11.4263
▁approximate	-11.4268
▁inclusive	-11.4268
▁prescription	-11.4268
▁protocell	-11.4268
▁scaffold	-11.4268
▁suspend	-11.4268
▁wheelchair	-11.4268
▁zealand	-11.4268
▁hybrid	-11.4268
▁intimate	-11.4268
▁stasi	-11.4268
▁summit	-11.4268
▁warrior	-11.4268
▁crater	-11.4268
▁encode	-11.4268
▁moore	-11.4269
▁marketplace	-11.427
kyo	-11.4271
▁unfold	-11.4272
▁redwood	-11.4272
▁drag	-11.4273
▁frustration	-11.4274
▁appearance	-11.4274
▁logo	-11.4275
▁thus	-11.4276
▁strain	-11.4278
ki	-11.4279
▁blindness	-11.4279
▁selfish	-11.4281
▁drought	-11.4281
▁detection	-11.4283
▁30,000	-11.4284
▁upward	-11.4286
▁jh	-11.4293
▁referr	-11.4294
▁lowest	-11.4294
rial	-11.4295
eb	-11.4299
dom	-11.4305
▁wires	-11.431
▁computational	-11.4311
▁hir	-11.4316
▁flo	-11.4318
▁cage	-11.4319
▁assist	-11.4319
▁bite	-11.4323
▁tongue	-11.4324
▁lip	-11.4332
▁hardest	-11.4333
▁virtue	-11.4336
▁sunday	-11.4343
sight	-11.4345
air	-11.4349
▁badly	-11.4361
▁edi	-11.4369
▁mud	-11.4371
tive	-11.4397
▁starv	-11.4399
▁commit	-11.4401
stage	-11.4405
▁landing	-11.4414
▁impressi	-11.4417
▁harmon	-11.4425
▁convention	-11.4443
▁swing	-11.445
eye	-11.4453
▁disrupt	-11.4456
known	-11.4457
▁disappoint	-11.4462
▁kin	-11.4464
▁drift	-11.4464
▁enzyme	-11.4464
▁manuscript	-11.4464
▁mutual	-11.4464
▁principal	-11.4464
▁shanghai	-11.4464
▁tanzania	-11.4464
▁deliberate	-11.4464
▁antenna	-11.4464
▁insane	-11.4464
▁steer	-11.4464
▁drunk	-11.4464
▁reproduce	-11.4464
▁infectious	-11.4465
▁pursuit	-11.4465
▁spray	-11.4465
▁ipod	-11.4466
▁blink	-11.4466
▁migration	-11.4466
▁canvas	-11.4467
▁import	-11.4468
▁minus	-11.4469
▁artwork	-11.4469
▁frontier	-11.4469
▁hawk	-11.4473
▁workplace	-11.4475
▁connectiv	-11.4478
horn	-11.4482
▁korean	-11.4486
titu	-11.4495
vity	-11.4509
▁sketch	-11.4509
ama	-11.451
▁proven	-11.4511
▁realistic	-11.4511
ept	-11.4512
▁kev	-11.4517
▁whistle	-11.4526
top	-11.4544
▁visualize	-11.4552
hal	-11.4552
▁atomic	-11.456
bye	-11.4569
aving	-11.4578
▁socially	-11.458
▁cul	-11.4602
▁dec	-11.4611
law	-11.4634
ied	-11.465
▁eliminate	-11.4651
▁ambitio	-11.4652
▁vari	-11.4657
some	-11.4662
▁punish	-11.4663
▁quantit	-11.4664
▁despair	-11.4664
▁detroit	-11.4664
▁diameter	-11.4664
▁episode	-11.4664
▁parachute	-11.4664
▁parkinson	-11.4664
▁pixel	-11.4664
▁protocol	-11.4664
▁striking	-11.4664
▁syndrome	-11.4664
▁tedtalk	-11.4664
▁transistor	-11.4664
▁chimp	-11.4664
▁depict	-11.4664
▁chunk	-11.4664
▁troop	-11.4664
▁calculus	-11.4664
▁forecast	-11.4664
▁monster	-11.4664
▁backyard	-11.4664
▁oppress	-11.4664
▁desktop	-11.4664
▁aristotle	-11.4664
▁introduction	-11.4664
▁pride	-11.4665
▁diagnostic	-11.4665
▁jewel	-11.4666
drive	-11.4666
▁texture	-11.4666
▁geek	-11.4666
▁29	-11.4666
▁chamber	-11.4668
▁grabb	-11.4668
▁brad	-11.4669
▁phenomenal	-11.4671
▁corrupt	-11.4671
▁pathogen	-11.4673
▁alex	-11.4676
▁operator	-11.4676
▁requirement	-11.4677
▁naive	-11.4681
▁tale	-11.4684
▁arise	-11.4685
▁200,000	-11.4685
▁millimeter	-11.4687
▁carolin	-11.4688
fo	-11.4688
▁reinforce	-11.469
▁worrying	-11.4696
ward	-11.4702
▁resilienc	-11.4708
▁mini	-11.4722
vian	-11.4723
▁tagg	-11.4724
▁formation	-11.4731
ini	-11.4734
▁pregnanc	-11.4755
▁sin	-11.4761
ju	-11.4763
▁mapp	-11.4777
▁mari	-11.478
▁authorit	-11.4822
▁joe	-11.4824
▁unhapp	-11.4825
▁academ	-11.4839
▁guid	-11.4843
▁phenomena	-11.4861
▁exam	-11.4864
violet	-11.4868
▁harbor	-11.4868
▁lobby	-11.4868
▁segment	-11.4868
▁contaminat	-11.4868
▁exclusive	-11.4868
▁loving	-11.4868
▁surf	-11.4868
▁flick	-11.4868
▁contest	-11.4868
▁lester	-11.4868
▁cruel	-11.4868
▁nonviolen	-11.4868
width	-11.4869
▁prostate	-11.4869
shirt	-11.4869
▁sidewalk	-11.4869
▁wolf	-11.487
minute	-11.487
▁attractive	-11.4871
ect	-11.4872
▁flaw	-11.4873
ado	-11.4873
▁visualization	-11.4873
▁erect	-11.4874
▁outbreak	-11.4878
▁belt	-11.4882
▁boot	-11.4883
▁nerd	-11.4886
▁update	-11.4891
▁bowl	-11.4891
aday	-11.4891
alo	-11.4897
▁acquire	-11.4898
▁prior	-11.4903
▁specialist	-11.4904
ock	-11.4904
▁si	-11.4906
▁mild	-11.4906
▁prayer	-11.4918
▁stabilit	-11.4918
▁verb	-11.4919
▁rena	-11.4923
▁gri	-11.4924
ella	-11.4925
▁jona	-11.493
hr	-11.4942
▁optical	-11.4951
▁anticipate	-11.4954
lah	-11.4963
▁800	-11.4963
▁eve	-11.4973
▁chemist	-11.4983
5,000	-11.4985
▁ignoran	-11.4987
▁arc	-11.4989
▁rip	-11.499
ual	-11.5001
▁chi	-11.5004
▁purchase	-11.5004
▁fer	-11.5006
▁gentle	-11.5007
▁christ	-11.5014
▁eu	-11.5019
▁ink	-11.5035
▁cd	-11.5036
▁hol	-11.5039
ological	-11.5041
▁settl	-11.5049
▁rank	-11.5055
▁staring	-11.5058
mbo	-11.5059
omb	-11.5062
▁fa	-11.5067
▁heavi	-11.507
▁declar	-11.5075
▁republic	-11.5075
▁whisper	-11.5076
▁membrane	-11.5076
▁pedestrian	-11.5076
▁singapore	-11.5076
▁cigarette	-11.5076
▁retreat	-11.5076
▁loose	-11.5076
▁proceed	-11.5077
▁sufficient	-11.5077
▁hypothesis	-11.5077
▁reli	-11.5077
▁brian	-11.508
▁dragg	-11.5081
▁chase	-11.5082
human	-11.5086
▁greenland	-11.5087
▁40,000	-11.5088
▁passage	-11.5088
ali	-11.5089
▁downtown	-11.5089
▁shore	-11.5093
clock	-11.5093
▁gase	-11.5094
▁buck	-11.5097
▁55	-11.5101
▁steven	-11.5103
▁playful	-11.5106
▁deepest	-11.5111
▁pok	-11.5113
▁neutral	-11.5114
▁diagnose	-11.5114
▁intensive	-11.5115
▁smil	-11.5118
▁aunt	-11.5119
▁pursue	-11.5122
nny	-11.5124
▁sequenc	-11.5135
▁camps	-11.5142
▁liberat	-11.5146
makers	-11.5152
frontal	-11.5155
▁branche	-11.5168
▁deposit	-11.5169
ata	-11.5174
lia	-11.5175
▁terra	-11.5176
▁plank	-11.5177
▁tone	-11.5178
▁useless	-11.5184
▁seattl	-11.5187
▁container	-11.5196
▁shin	-11.5201
▁popp	-11.5206
ction	-11.5219
regulat	-11.5222
▁tooth	-11.5244
▁developer	-11.5265
▁log	-11.5265
▁42	-11.5285
▁skelet	-11.5285
▁accura	-11.5288
▁leather	-11.5289
▁unemploy	-11.5289
▁bronx	-11.5289
▁configuration	-11.5289
▁division	-11.5289
▁electromagnet	-11.5289
▁genomic	-11.5289
▁illustration	-11.5289
▁suppress	-11.5289
▁endanger	-11.5289
▁basketball	-11.5289
▁temple	-11.5289
▁delay	-11.5289
▁swiss	-11.5289
▁idiot	-11.5289
▁drain	-11.5289
▁bonobo	-11.5289
▁johnson	-11.529
▁volcano	-11.529
▁hallucination	-11.529
▁harmful	-11.5291
▁fertilizer	-11.5294
▁recall	-11.5294
▁miserable	-11.5297
▁adaptation	-11.5298
▁grace	-11.53
▁trailer	-11.5302
three	-11.5303
▁debri	-11.5305
▁dat	-11.531
▁aggregate	-11.5312
▁filmmaker	-11.5316
▁bombs	-11.5319
▁payment	-11.5319
▁decid	-11.532
▁nigerian	-11.5323
grade	-11.5325
aly	-11.5329
▁impress	-11.5333
▁emergence	-11.5358
▁collaborate	-11.5362
igh	-11.5371
▁bann	-11.5375
▁cor	-11.5384
▁compet	-11.5385
▁critic	-11.5389
▁triple	-11.5401
▁ward	-11.5415
ulation	-11.5422
▁shower	-11.5453
fire	-11.5468
met	-11.5469
▁shy	-11.5477
▁foi	-11.5481
▁simulate	-11.549
▁ci	-11.5492
▁ecolog	-11.5501
▁eradicat	-11.5504
▁assign	-11.5505
▁swallow	-11.5507
▁amateur	-11.5507
▁fifty	-11.5507
▁hemisphere	-11.5507
▁maximum	-11.5507
▁satisfy	-11.5507
▁substantial	-11.5507
▁supreme	-11.5507
▁stamp	-11.5507
▁cellphone	-11.5507
▁insulin	-11.5507
▁centimeter	-11.5507
▁royal	-11.5507
▁alpha	-11.5507
▁exceed	-11.5507
▁tomato	-11.5507
▁indoor	-11.5507
▁germ	-11.5507
▁executive	-11.5507
▁pizz	-11.5507
▁iceberg	-11.5508
▁workshop	-11.5508
▁republican	-11.5508
▁girlfriend	-11.5508
▁legend	-11.5509
▁panic	-11.5511
▁utilit	-11.5513
▁meta	-11.5515
▁fur	-11.5515
▁rebel	-11.5515
▁mandel	-11.5516
quality	-11.5517
▁fatal	-11.5524
face	-11.5533
kill	-11.5536
▁yoursel	-11.5537
▁mum	-11.554
▁shoe	-11.5542
▁ram	-11.5544
▁je	-11.5554
▁que	-11.5555
▁mic	-11.556
▁15-	-11.5565
port	-11.5573
▁voter	-11.5575
▁arter	-11.5579
▁scare	-11.5596
▁evolv	-11.5606
▁lotter	-11.5613
▁shak	-11.5619
▁concentrate	-11.5623
▁lawn	-11.564
▁optic	-11.5645
▁conceptual	-11.5662
▁diploma	-11.5667
▁belly	-11.567
▁kite	-11.5672
▁fertil	-11.5673
cha	-11.568
her	-11.5696
▁requir	-11.57
▁gree	-11.5714
▁syria	-11.5716
▁jean	-11.5723
▁manifest	-11.5726
▁instinct	-11.5728
qaeda	-11.5729
▁bamboo	-11.5729
▁choir	-11.5729
▁devote	-11.5729
▁divorce	-11.5729
▁injustice	-11.5729
▁obtain	-11.5729
▁peculiar	-11.5729
▁purple	-11.5729
▁reputation	-11.5729
▁sibling	-11.5729
▁threshold	-11.5729
▁watson	-11.5729
witzer	-11.5729
▁cosmo	-11.5729
▁beij	-11.5729
▁november	-11.5729
▁kilogram	-11.5729
▁proposition	-11.5729
▁emphasize	-11.5729
▁preference	-11.5729
▁pirate	-11.5729
▁alexand	-11.5729
▁delicio	-11.5731
▁refrigerator	-11.5731
▁rethink	-11.5733
view	-11.5734
ula	-11.5735
▁keen	-11.5736
▁quo	-11.5738
▁bleed	-11.5741
▁2002	-11.5743
▁lg	-11.5743
▁beaten	-11.5745
▁sake	-11.5746
▁trivial	-11.5751
▁hans	-11.5751
ency	-11.5752
▁jud	-11.5753
▁sneaker	-11.5755
▁broader	-11.5758
▁incentive	-11.5763
sense	-11.5766
▁alum	-11.5774
▁soup	-11.5777
robi	-11.578
▁zo	-11.5781
58	-11.5788
▁sew	-11.5798
new	-11.5799
▁propos	-11.5801
▁sale	-11.5803
pr	-11.5822
▁separat	-11.5831
▁shap	-11.5834
▁tourist	-11.5837
▁rings	-11.5856
use	-11.5858
▁sar	-11.5858
▁lt	-11.5883
▁350	-11.5884
▁accent	-11.591
cuba	-11.591
hop	-11.5912
rah	-11.5924
▁dri	-11.5927
gged	-11.5951
▁hawaii	-11.5954
own	-11.5955
▁abundance	-11.5956
▁apollo	-11.5956
▁approve	-11.5956
▁canadian	-11.5956
▁creep	-11.5956
▁glimpse	-11.5956
▁pencil	-11.5956
▁parasite	-11.5956
▁warehouse	-11.5956
▁neuroscientist	-11.5956
▁chuck	-11.5956
▁multiply	-11.5956
▁guitar	-11.5956
▁sperm	-11.5956
wrestl	-11.5956
▁masse	-11.5956
▁lifespan	-11.5956
▁maldiv	-11.5957
▁punishment	-11.5958
▁crab	-11.5959
▁proposal	-11.5961
▁secretary	-11.5962
▁friendship	-11.5965
▁deck	-11.5967
▁1900	-11.597
▁governor	-11.5971
▁practic	-11.5978
▁jose	-11.5981
▁tide	-11.5982
erial	-11.5983
interest	-11.5983
heart	-11.5984
acco	-11.5984
ball	-11.5985
spring	-11.5989
▁pun	-11.599
▁relation	-11.5997
▁realization	-11.5999
roll	-11.6008
▁innovate	-11.6013
shot	-11.6014
▁sixth	-11.6014
win	-11.6015
▁44	-11.6016
sky	-11.6019
inum	-11.6021
▁owe	-11.6022
▁boundary	-11.6031
▁albert	-11.604
▁scans	-11.605
▁continuously	-11.6051
ngest	-11.6051
generation	-11.6052
▁vice	-11.6068
▁ethnic	-11.6069
▁sang	-11.6073
▁lar	-11.6083
five	-11.6086
▁gram	-11.6097
ius	-11.6112
bri	-11.6113
war	-11.6114
▁gate	-11.6115
▁regulate	-11.6117
▁assemble	-11.6119
hong	-11.6122
▁hug	-11.6127
ania	-11.6128
▁cooperate	-11.6134
▁yu	-11.6135
▁marc	-11.6138
▁democrac	-11.614
▁din	-11.6152
person	-11.6155
▁pound	-11.6156
▁qua	-11.616
▁precis	-11.6167
ntact	-11.617
gie	-11.6182
▁distort	-11.6184
cause	-11.6185
ounce	-11.6186
▁hierarch	-11.6186
▁artifact	-11.6189
▁genocide	-11.6189
▁grocer	-11.6189
▁horror	-11.6189
▁receptor	-11.6189
▁shrimp	-11.6189
▁scheme	-11.6189
▁gross	-11.6189
▁valid	-11.6189
▁indigen	-11.6189
▁mosque	-11.6189
▁stumbl	-11.6189
▁biosphere	-11.6189
▁infra	-11.6189
▁tribal	-11.6189
▁banana	-11.6189
▁regenerate	-11.6189
▁tapir	-11.6189
▁disney	-11.6189
▁redesign	-11.6189
▁congesti	-11.619
▁2030	-11.6191
▁iranian	-11.6191
▁graduat	-11.6191
▁synapse	-11.6192
▁translator	-11.6192
▁alert	-11.6194
▁deriv	-11.6194
▁chew	-11.6194
▁olive	-11.6195
▁mola	-11.6195
▁nat	-11.6196
▁blade	-11.6198
▁radi	-11.6199
▁campus	-11.62
zo	-11.62
▁controversial	-11.6201
▁rust	-11.6203
▁fg	-11.6211
▁apri	-11.6211
▁charter	-11.6218
osity	-11.6218
together	-11.6221
▁grip	-11.6222
▁dependenc	-11.6224
▁tile	-11.6235
▁storyteller	-11.6237
▁spinn	-11.6242
▁lap	-11.6256
urg	-11.6256
▁admir	-11.6258
▁embarrassing	-11.6263
▁bud	-11.6264
mile	-11.6302
mbi	-11.6309
▁readers	-11.6314
▁render	-11.6327
racing	-11.6328
▁entit	-11.6347
▁ob	-11.635
oline	-11.6362
▁advis	-11.6363
band	-11.6388
▁copie	-11.6402
▁robb	-11.6404
juan	-11.6411
bacterial	-11.6411
▁millenni	-11.6415
ima	-11.6415
▁jur	-11.6425
▁bioluminescen	-11.6427
▁devastating	-11.6427
▁prospect	-11.6427
▁remix	-11.6427
▁thirty	-11.6427
▁vagina	-11.6427
▁venus	-11.6427
▁brooklyn	-11.6427
▁nightmare	-11.6427
▁friction	-11.6427
▁android	-11.6427
▁flourish	-11.6427
▁priest	-11.6427
▁encyclopedia	-11.6427
▁scrap	-11.6427
▁fluctuation	-11.6428
▁myceli	-11.6428
▁destination	-11.6431
▁denial	-11.6432
jazz	-11.6432
▁insert	-11.6433
▁rubber	-11.6434
▁193	-11.6438
▁memorial	-11.6439
▁modest	-11.6439
stein	-11.6442
▁blast	-11.6443
▁mesh	-11.6449
▁banker	-11.645
▁refus	-11.6455
▁transferr	-11.6463
worth	-11.6464
income	-11.6464
▁envelope	-11.6464
screen	-11.6466
run	-11.6474
symmetrical	-11.6475
▁rott	-11.6476
speed	-11.6479
ipping	-11.6487
ggle	-11.6494
▁convenient	-11.6495
▁beep	-11.6507
▁1.5	-11.6508
▁democratiz	-11.6517
▁vulnerabilit	-11.6519
▁riot	-11.6533
▁humble	-11.6543
ature	-11.6589
▁rig	-11.6589
▁hut	-11.6589
ologist	-11.659
▁20-	-11.6602
▁scot	-11.6606
▁impos	-11.6608
▁accountabilit	-11.6613
rank	-11.662
lima	-11.6628
▁vo	-11.6631
▁deni	-11.6638
bm	-11.6646
▁convict	-11.6666
▁schizophreni	-11.6668
lihood	-11.6668
▁philip	-11.6669
▁consult	-11.667
▁absence	-11.6671
▁blob	-11.6671
▁bloom	-11.6671
▁diarrhea	-11.6671
▁holiday	-11.6671
▁stadium	-11.6671
▁zimbabwe	-11.6671
▁immortal	-11.6671
▁rehabilitat	-11.6671
▁vivid	-11.6671
▁steam	-11.6671
▁turtle	-11.6671
▁buzz	-11.6671
▁defining	-11.6671
▁criteri	-11.6671
▁juice	-11.6671
▁trustworth	-11.6672
▁flesh	-11.6672
▁connectome	-11.6672
▁arrangement	-11.6672
▁kong	-11.6672
▁dropping	-11.6672
▁settlement	-11.6672
▁valve	-11.6673
▁translat	-11.6673
▁couch	-11.6674
▁lago	-11.6674
▁separation	-11.6675
▁exot	-11.6676
▁hint	-11.6676
▁coverage	-11.6683
▁baker	-11.6683
▁wool	-11.6686
▁assure	-11.6688
▁illuminat	-11.6689
▁bacteri	-11.6689
▁rear	-11.6691
▁fuse	-11.67
▁generic	-11.6701
writ	-11.6702
evel	-11.6702
illa	-11.6704
related	-11.6704
angelo	-11.6709
▁bali	-11.6709
rhythm	-11.6714
▁nutrition	-11.6718
▁assistant	-11.6722
▁nsa	-11.673
▁mono	-11.6736
corps	-11.674
▁harr	-11.6748
press	-11.6749
ev	-11.6753
-1	-11.6767
▁flipp	-11.677
▁uh	-11.6772
▁crap	-11.6773
▁cows	-11.6775
▁spine	-11.6776
ibility	-11.6786
▁refine	-11.6787
onic	-11.6787
far	-11.6798
▁trac	-11.6804
bal	-11.6809
▁shocking	-11.6824
▁demonstrat	-11.6825
▁scaling	-11.6827
inch	-11.6831
▁kir	-11.6832
99	-11.684
▁wipe	-11.6847
▁classical	-11.6848
▁stair	-11.6858
▁gig	-11.6871
▁atmospher	-11.6876
eval	-11.6881
▁eco	-11.6886
tta	-11.6891
▁forgive	-11.6899
▁climber	-11.6912
▁elevat	-11.6913
▁enthusias	-11.6919
▁investigate	-11.692
▁stereo	-11.6921
▁acoustic	-11.6921
▁circular	-11.6921
▁conceive	-11.6921
▁hurricane	-11.6921
▁intimacy	-11.6921
▁jordan	-11.6921
▁league	-11.6921
▁nitrogen	-11.6921
▁resurrect	-11.6921
▁sierra	-11.6921
▁indonesia	-11.6921
▁polite	-11.6921
▁faint	-11.6921
▁libya	-11.6921
▁famine	-11.6921
▁ventilat	-11.6921
▁strict	-11.6921
▁spatial	-11.6921
▁exposure	-11.6921
▁annoy	-11.6921
▁dough	-11.6921
▁kilo	-11.6921
▁pipeline	-11.6921
ectar	-11.6922
lanta	-11.6922
▁stephen	-11.6923
▁dune	-11.6923
▁negotiation	-11.6923
▁selective	-11.6924
▁turk	-11.6924
lice	-11.6926
▁thai	-11.6928
▁penis	-11.6928
▁isolation	-11.693
▁iceland	-11.6931
▁laden	-11.6932
▁liter	-11.6935
▁reactor	-11.6935
▁basement	-11.6937
▁interconnected	-11.6939
▁zoo	-11.6948
▁momentum	-11.6957
▁hopeless	-11.6958
urgenc	-11.6959
wide	-11.6965
▁coordinate	-11.6966
pan	-11.6978
▁viewer	-11.6984
▁gala	-11.6988
▁junk	-11.6988
▁greet	-11.6991
▁stimul	-11.6993
▁journalis	-11.6995
▁heroin	-11.7038
▁30-	-11.7039
eyed	-11.7048
▁luc	-11.7069
ala	-11.7073
▁rever	-11.708
conic	-11.7084
tha	-11.7086
14	-11.7092
oh	-11.71
▁manufacturer	-11.7107
nel	-11.7111
▁resilien	-11.712
▁examine	-11.7121
generat	-11.7125
▁disabilit	-11.7128
▁astronom	-11.7128
iful	-11.7129
▁semi	-11.7131
▁mob	-11.7131
▁performer	-11.7133
▁carl	-11.7134
▁dai	-11.7136
▁accumulate	-11.7136
▁investigat	-11.7139
▁revolutionar	-11.714
eur	-11.7142
▁taxe	-11.7143
▁vibrat	-11.7161
rich	-11.7161
clu	-11.7167
▁odor	-11.717
▁margin	-11.7177
▁stagger	-11.7177
▁bhutan	-11.7177
▁clinton	-11.7177
▁consensus	-11.7177
▁deficit	-11.7177
▁endeavor	-11.7177
▁explicit	-11.7177
▁favela	-11.7177
▁fuzz	-11.7177
▁impulse	-11.7177
▁locomot	-11.7177
▁marrow	-11.7177
▁reclaim	-11.7177
▁surgical	-11.7177
▁symphon	-11.7177
▁tunisia	-11.7177
▁unfair	-11.7177
▁velocit	-11.7177
▁vocabular	-11.7177
▁helmet	-11.7177
▁incarcerat	-11.7177
▁bitcoin	-11.7177
▁beetle	-11.7177
▁norden	-11.7177
▁lamb	-11.7177
▁stereotype	-11.7177
▁ministr	-11.7177
▁nasty	-11.7177
▁entrance	-11.7177
▁scholarship	-11.7178
▁terminal	-11.7178
▁beatbox	-11.7178
▁toxin	-11.7178
▁wip	-11.7178
▁retail	-11.7179
▁admitted	-11.7179
▁1930	-11.7181
▁spade	-11.7182
▁rna	-11.7182
▁santa	-11.7182
▁donation	-11.7186
▁therapist	-11.7189
viation	-11.7191
▁armor	-11.7192
▁berk	-11.7195
dad	-11.7203
mark	-11.7203
▁von	-11.7205
vy	-11.7208
ouch	-11.7216
▁listener	-11.7224
proof	-11.7234
field	-11.7235
corn	-11.7243
▁noble	-11.7256
▁spare	-11.7274
.5	-11.7279
ult	-11.7285
▁animate	-11.7291
▁blown	-11.7302
▁tubes	-11.7319
▁processor	-11.7321
▁doom	-11.7323
acy	-11.7329
▁anticipat	-11.7331
ola	-11.7336
▁digitiz	-11.7336
▁stare	-11.734
gue	-11.7342
mine	-11.7348
tric	-11.7356
rom	-11.7361
0-	-11.7361
bone	-11.7364
cola	-11.7374
▁cooper	-11.7375
▁nav	-11.7375
▁constrain	-11.738
▁presum	-11.738
▁microscop	-11.7382
▁symbolic	-11.7386
▁migrate	-11.7392
amma	-11.7404
creat	-11.7413
▁activat	-11.7428
▁warn	-11.7435
▁restrict	-11.7436
▁transit	-11.7439
▁drama	-11.7439
▁gaz	-11.7439
▁counsel	-11.744
▁abundant	-11.744
▁catholic	-11.744
▁correlation	-11.744
▁elaborate	-11.744
▁janitor	-11.744
▁jungle	-11.744
▁jupiter	-11.744
▁monument	-11.744
▁petition	-11.744
▁prostitut	-11.744
▁spiral	-11.744
▁premise	-11.744
▁schedule	-11.744
▁modifie	-11.744
promising	-11.744
▁funeral	-11.744
▁crude	-11.744
▁spouse	-11.744
▁swarm	-11.744
▁gluco	-11.7441
▁watt	-11.7441
▁blueprint	-11.7441
▁gamma	-11.7442
▁costume	-11.7443
▁courageous	-11.7443
▁microbi	-11.7444
▁max	-11.7444
▁distinction	-11.7446
▁canyon	-11.7449
pago	-11.7451
▁nail	-11.7452
▁disk	-11.7455
▁ence	-11.7455
▁warp	-11.746
▁celebrity	-11.7461
▁prevention	-11.7465
ssini	-11.7467
▁fever	-11.7469
▁acre	-11.747
▁oven	-11.7473
▁settle	-11.748
▁mul	-11.7484
▁justify	-11.749
▁yeast	-11.7494
▁observer	-11.7498
▁closet	-11.75
friend	-11.7501
▁impose	-11.7502
securit	-11.7504
stream	-11.7505
month	-11.7505
▁examin	-11.7506
▁pric	-11.7527
▁temporar	-11.7529
uke	-11.753
drop	-11.7533
type	-11.7539
▁swed	-11.7541
▁integr	-11.7544
bul	-11.7548
titude	-11.7559
▁fri	-11.7565
ene	-11.7573
▁painter	-11.7573
tangible	-11.7578
asha	-11.7621
▁enforce	-11.7643
lage	-11.7647
▁identit	-11.7662
▁nucle	-11.769
solv	-11.7693
▁gee	-11.7695
ration	-11.7699
▁divine	-11.7699
▁violat	-11.7706
▁filling	-11.771
▁inhabit	-11.771
▁champion	-11.771
▁anniversar	-11.771
▁blockchain	-11.771
▁conquer	-11.771
▁depriv	-11.771
▁elizabeth	-11.771
▁epiphan	-11.771
▁irrational	-11.771
▁leopard	-11.771
▁mammoth	-11.771
▁revelation	-11.771
▁soccer	-11.771
▁tibet	-11.771
▁craig	-11.771
▁lump	-11.7711
▁cabinet	-11.7711
▁falcon	-11.7711
▁alliance	-11.7711
▁johnny	-11.7711
▁rigid	-11.7711
▁diplomat	-11.7711
▁melod	-11.7711
▁cooperative	-11.7713
▁elevator	-11.7714
▁harsh	-11.7714
▁mexican	-11.7716
▁stimulation	-11.7716
▁guest	-11.7716
▁decent	-11.7718
▁founder	-11.772
istine	-11.7721
▁lethal	-11.7722
▁sweep	-11.7724
▁syrian	-11.7726
▁heel	-11.7728
▁historian	-11.773
▁dominate	-11.7731
▁nike	-11.7731
▁summarize	-11.7738
ibbe	-11.7742
▁differentiate	-11.7743
oid	-11.7745
▁regenerati	-11.7745
▁frequently	-11.7748
▁relativ	-11.7748
▁province	-11.7749
▁rod	-11.7756
▁earning	-11.7758
atory	-11.7764
▁entitle	-11.7766
40	-11.7767
▁negotiate	-11.7768
▁fleet	-11.7768
▁thankful	-11.7769
style	-11.7775
▁upright	-11.7776
profit	-11.7781
agan	-11.7786
stair	-11.7786
hole	-11.7789
leg	-11.7791
controll	-11.78
▁phila	-11.7802
▁brush	-11.7813
raising	-11.7823
cell	-11.7827
▁owners	-11.7844
nice	-11.7859
▁announce	-11.786
▁explod	-11.7872
▁mytholog	-11.7872
▁endur	-11.7874
▁reinvent	-11.7885
page	-11.7885
▁wander	-11.7885
▁dome	-11.7888
hill	-11.7902
▁rag	-11.7914
▁pursu	-11.7927
▁rabbi	-11.7927
▁squeeze	-11.7927
▁lover	-11.7932
▁screening	-11.7939
▁perceiv	-11.7942
▁expose	-11.7947
▁counted	-11.7948
▁transcend	-11.7966
offend	-11.797
▁trail	-11.7971
▁sculpt	-11.7984
▁intrinsic	-11.7988
▁accompani	-11.7988
▁benjam	-11.7988
▁capsule	-11.7988
▁cholera	-11.7988
▁competitor	-11.7988
▁dopamine	-11.7988
▁fractal	-11.7988
▁ghost	-11.7988
▁incomplete	-11.7988
▁jeopard	-11.7988
▁pesticide	-11.7988
▁phoenix	-11.7988
▁reproduction	-11.7988
▁shatter	-11.7988
▁sulfide	-11.7988
▁statue	-11.7988
▁shepherd	-11.7988
▁album	-11.7988
▁dvd	-11.7988
▁nepal	-11.7988
▁fetus	-11.7988
▁saint	-11.7988
▁opposition	-11.7988
▁extensive	-11.7988
▁squid	-11.7988
▁niece	-11.7988
▁authoritarian	-11.7988
▁minimal	-11.7989
▁roos	-11.7989
▁committee	-11.799
▁tempt	-11.799
▁cafe	-11.799
▁cement	-11.799
▁innovator	-11.7991
▁manifestation	-11.7991
skirt	-11.7991
▁macro	-11.7993
▁commandment	-11.7994
▁milo	-11.7995
▁celebration	-11.7995
▁progressive	-11.7998
▁obsession	-11.7999
▁spite	-11.8001
▁somalia	-11.8001
▁pond	-11.8002
▁overlook	-11.8006
▁eliminat	-11.8007
▁scholars	-11.8021
▁progression	-11.8028
▁amaze	-11.8031
read	-11.8033
lash	-11.8048
▁1.2	-11.8053
▁firing	-11.8054
racy	-11.8054
▁grim	-11.8056
nforcement	-11.8058
effective	-11.8068
link	-11.8077
▁dp	-11.8079
▁informal	-11.8081
▁nois	-11.8088
▁pac	-11.8092
▁flap	-11.8096
▁mil	-11.8098
▁fried	-11.8101
cop	-11.8104
▁unite	-11.8106
▁ke	-11.8107
▁gener	-11.8116
▁displace	-11.8116
lapse	-11.8123
ending	-11.8128
▁lee	-11.8146
▁ark	-11.8152
▁taxi	-11.8152
▁northeast	-11.8161
liberation	-11.8179
▁exceptional	-11.8183
ong	-11.8187
▁plea	-11.8205
▁hoped	-11.8208
▁racis	-11.8217
▁emitt	-11.822
▁echo	-11.8221
eley	-11.8235
▁skeptic	-11.8255
▁cycl	-11.8263
▁packag	-11.8264
▁yemen	-11.8266
▁repli	-11.8267
▁physiolog	-11.8267
▁neo	-11.827
▁inflat	-11.8271
▁neglect	-11.8274
▁absurd	-11.8274
▁adolescent	-11.8274
▁alaska	-11.8274
▁austria	-11.8274
▁contemplat	-11.8274
▁corridor	-11.8274
▁eternal	-11.8274
▁expense	-11.8274
▁fracture	-11.8274
▁maneuver	-11.8274
▁metabolic	-11.8274
▁metropolitan	-11.8274
▁sediment	-11.8274
▁confess	-11.8274
▁oyster	-11.8274
▁siberia	-11.8274
▁sovereign	-11.8274
▁taboo	-11.8274
▁obsole	-11.8274
▁uninten	-11.8274
▁mumbai	-11.8274
invasive	-11.8274
▁trunk	-11.8274
▁hammer	-11.8274
▁outdoor	-11.8274
▁enrich	-11.8274
▁spike	-11.8275
▁textile	-11.8276
▁cardiac	-11.8276
▁euro	-11.8276
scope	-11.8276
▁1,500	-11.8277
▁lobe	-11.8277
▁48	-11.8278
▁dare	-11.8278
▁duty	-11.8279
▁insult	-11.828
openha	-11.8281
▁invitation	-11.8282
▁transformati	-11.8282
▁replacement	-11.8283
▁titanic	-11.8283
▁25,000	-11.8284
▁rail	-11.8285
▁jf	-11.8287
▁integration	-11.8287
▁flee	-11.8291
▁ambition	-11.8293
▁skeptical	-11.8293
▁sylvi	-11.8294
▁asthma	-11.8295
▁prototyp	-11.8296
▁divergen	-11.8296
▁mindful	-11.8296
▁thriv	-11.8298
▁larva	-11.8298
▁provider	-11.8308
▁tactic	-11.8312
▁sometime	-11.8316
▁behold	-11.8317
▁flame	-11.8319
▁nai	-11.8325
▁bolt	-11.8331
▁freeze	-11.8332
▁pete	-11.8335
▁publication	-11.8336
▁tan	-11.835
▁ross	-11.836
▁redefine	-11.8362
spread	-11.8362
second	-11.8362
million	-11.8362
flow	-11.8363
produc	-11.8369
▁scarce	-11.8371
▁brake	-11.8375
▁pale	-11.8378
aka	-11.8382
▁candy	-11.8383
▁31	-11.8387
burg	-11.8387
ux	-11.839
blowing	-11.8396
▁emma	-11.8398
▁receiver	-11.8406
▁prey	-11.8409
▁fighter	-11.8418
cast	-11.8435
risk	-11.8447
▁tablet	-11.8447
cat	-11.8448
▁curl	-11.8456
▁phil	-11.8474
▁regional	-11.8475
▁sticker	-11.8476
▁frustrating	-11.8482
▁significan	-11.8508
▁char	-11.8511
▁sara	-11.8521
▁freez	-11.8534
wind	-11.8542
▁southwest	-11.8543
▁rand	-11.8556
▁gent	-11.8559
eak	-11.8563
▁outrage	-11.8567
▁hypothes	-11.8567
▁unleash	-11.8568
delphi	-11.8568
▁adolescence	-11.8568
▁calculating	-11.8568
▁calendar	-11.8568
▁commoditi	-11.8568
▁envision	-11.8568
▁namibia	-11.8568
▁occupation	-11.8568
▁propagand	-11.8568
▁satisfie	-11.8568
▁specimen	-11.8568
▁submersible	-11.8568
▁suspicious	-11.8568
▁triumph	-11.8568
▁violin	-11.8568
▁doubling	-11.8568
▁exquisite	-11.8568
▁kosov	-11.8568
▁slogan	-11.8568
▁vegetati	-11.8568
▁liberia	-11.8568
▁pleasant	-11.8568
▁sudan	-11.8568
▁buddhis	-11.8568
▁staircase	-11.8568
▁algae	-11.8568
▁hollow	-11.8568
▁butterfl	-11.8568
▁auditorium	-11.8568
▁vaccinate	-11.8569
▁praise	-11.8569
▁nonprofit	-11.8569
▁headache	-11.8569
▁tedster	-11.8569
▁recession	-11.8569
▁acute	-11.8569
▁towel	-11.857
compatib	-11.857
▁flock	-11.8571
▁edward	-11.8571
▁geological	-11.8572
▁romance	-11.8572
▁pluto	-11.8572
▁anthropologist	-11.8572
▁fda	-11.8573
▁exit	-11.8574
▁passe	-11.8574
▁empowerment	-11.8576
▁donate	-11.8577
▁toast	-11.8579
.3	-11.858
venge	-11.8582
kar	-11.8582
▁interrupt	-11.859
▁jc	-11.8592
maker	-11.8596
▁peel	-11.8603
▁chess	-11.8625
▁rotat	-11.8625
▁sahara	-11.8626
▁moz	-11.8637
▁bitter	-11.8637
▁uk	-11.8644
▁visitor	-11.8647
▁carve	-11.8653
▁adequate	-11.866
shift	-11.8665
▁biase	-11.8669
step	-11.8675
▁module	-11.8681
path	-11.8686
ease	-11.8692
gli	-11.8695
▁concentrat	-11.8706
rose	-11.8707
conserv	-11.8715
▁longest	-11.8719
▁captiv	-11.8724
▁prim	-11.8725
body	-11.8729
30	-11.8734
▁ridge	-11.874
▁forum	-11.8753
reach	-11.8756
▁folk	-11.8759
▁declin	-11.8768
▁salar	-11.878
aker	-11.8791
tine	-11.8798
borne	-11.8801
▁execute	-11.8815
key	-11.882
▁stimulate	-11.8822
▁cope	-11.8826
▁spy	-11.8827
cho	-11.8852
▁persuade	-11.8854
▁rang	-11.8855
▁pee	-11.8858
▁pollut	-11.8868
rizon	-11.8871
▁bounce	-11.8871
▁basket	-11.8871
▁dismiss	-11.8871
▁leban	-11.8871
vascular	-11.8871
▁ambulance	-11.8871
▁cockroach	-11.8871
▁ethanol	-11.8871
▁fantasy	-11.8871
▁fingertip	-11.8871
▁kepler	-11.8871
▁metabolism	-11.8871
▁postcard	-11.8871
▁stratospher	-11.8871
▁saturday	-11.8871
▁swamp	-11.8871
▁collar	-11.8871
▁helium	-11.8871
▁cinema	-11.8871
▁feather	-11.8871
▁linux	-11.8871
▁racial	-11.8871
▁carrot	-11.8871
▁pearl	-11.8871
▁hostile	-11.8872
▁tidy	-11.8872
▁lawsuit	-11.8872
▁shade	-11.8872
▁nathan	-11.8872
▁cease	-11.8873
▁prevalence	-11.8873
▁gigant	-11.8874
▁flush	-11.8874
▁persist	-11.8874
▁8,000	-11.8875
▁grandma	-11.8876
▁restriction	-11.8876
▁roman	-11.8876
▁apologize	-11.8877
▁adaptive	-11.8877
▁elementary	-11.8877
▁swap	-11.888
▁hindu	-11.8882
▁hallway	-11.8883
▁browser	-11.8883
▁34	-11.8885
▁juggl	-11.8888
▁nuclei	-11.8893
▁unifie	-11.8895
▁estimat	-11.8897
▁eba	-11.8905
▁optimize	-11.8911
▁arena	-11.8912
▁muh	-11.8918
▁overlap	-11.8919
▁carne	-11.8925
uel	-11.8929
▁characterize	-11.8934
arm	-11.8934
▁rolled	-11.8939
▁bol	-11.8948
▁capitalist	-11.8949
▁kenn	-11.8956
▁peru	-11.8959
pound	-11.8976
perform	-11.8977
broad	-11.8977
glass	-11.8977
specific	-11.8978
material	-11.8978
▁donat	-11.8983
▁digest	-11.8995
▁roller	-11.9001
▁digg	-11.9004
▁mm	-11.9004
▁hatch	-11.9004
tif	-11.9007
▁reader	-11.9008
▁ador	-11.9013
▁lander	-11.9014
▁vest	-11.9014
▁gui	-11.9017
▁manipulat	-11.9029
▁amaz	-11.9031
die	-11.9034
▁kal	-11.9039
▁arabia	-11.9043
▁cue	-11.9046
sav	-11.9047
▁boiling	-11.905
▁blessing	-11.9056
▁assistan	-11.9064
castle	-11.9072
ila	-11.9073
▁manufacture	-11.9088
▁trad	-11.9089
▁fungi	-11.91
nfl	-11.9101
▁admire	-11.9105
▁130	-11.9115
▁longe	-11.9118
▁solo	-11.9118
▁skip	-11.9119
plat	-11.9131
coli	-11.9143
▁reuse	-11.9152
▁blogg	-11.9154
apped	-11.9157
ku	-11.916
▁rica	-11.9161
orbital	-11.917
▁awake	-11.917
add	-11.9175
▁voyage	-11.9176
▁circulat	-11.9179
▁stigma	-11.918
▁excess	-11.9183
▁advent	-11.9183
▁extrovert	-11.9184
▁avenue	-11.9184
▁benign	-11.9184
▁christopher	-11.9184
▁cybercriminal	-11.9184
▁elbow	-11.9184
▁fluorescent	-11.9184
▁hamburger	-11.9184
▁hypothetical	-11.9184
▁imperative	-11.9184
▁incremental	-11.9184
▁irrelevan	-11.9184
▁perceptual	-11.9184
▁shakespeare	-11.9184
▁syringe	-11.9184
▁meadow	-11.9184
▁steep	-11.9184
▁cream	-11.9184
▁cocktail	-11.9184
▁puppet	-11.9184
▁bonus	-11.9184
▁bosnia	-11.9184
▁tolerance	-11.9184
▁embodie	-11.9184
▁daniel	-11.9184
▁bypass	-11.9184
▁masterpiece	-11.9184
▁slope	-11.9184
▁confusion	-11.9184
▁supercomputer	-11.9184
▁fraud	-11.9184
▁bombsight	-11.9184
▁obligation	-11.9184
▁wolve	-11.9185
▁headquarter	-11.9185
▁guinea	-11.9185
▁hence	-11.9185
▁guardian	-11.9186
▁mash	-11.9186
▁fuck	-11.9186
▁gallon	-11.9187
▁1.3	-11.9187
▁potter	-11.9187
▁boost	-11.9187
▁versa	-11.9188
▁prosecutor	-11.9188
▁minor	-11.9189
▁conviction	-11.9189
▁dragon	-11.919
▁plac	-11.9191
▁proton	-11.9193
▁philosophical	-11.9197
▁jones	-11.9197
▁cartoonist	-11.9203
▁virgini	-11.9205
▁remotely	-11.9205
▁hobby	-11.9205
▁bark	-11.9207
▁patholog	-11.9215
▁antibod	-11.9217
▁dadd	-11.9221
▁lew	-11.9235
▁43	-11.9236
▁iraqi	-11.9237
▁booth	-11.9238
▁lama	-11.9241
▁pier	-11.9245
▁midst	-11.9248
▁compute	-11.9271
print	-11.9289
word	-11.9291
school	-11.93
culture	-11.9301
percent	-11.9302
▁mag	-11.9302
tail	-11.9304
▁gel	-11.9314
▁biologically	-11.9317
shape	-11.9318
▁milky	-11.9323
18	-11.9326
wear	-11.9334
ett	-11.9342
▁sue	-11.9345
▁heck	-11.9351
▁wan	-11.9371
▁recycle	-11.9378
chan	-11.9396
finite	-11.9398
▁meditat	-11.9398
▁embarrass	-11.9401
▁gla	-11.9419
▁vocal	-11.9419
▁hay	-11.9427
mount	-11.9434
ook	-11.945
▁columbia	-11.9456
▁laborator	-11.9458
uri	-11.946
▁whip	-11.9483
matic	-11.949
▁psychiatr	-11.9502
▁cosmolog	-11.9503
▁cleaner	-11.9506
▁controvers	-11.9506
▁crocodile	-11.9506
▁introvert	-11.9506
▁surrender	-11.9506
▁wizard	-11.9506
▁alphabet	-11.9506
▁inhibit	-11.9506
▁jamaica	-11.9506
▁louis	-11.9506
▁subsequent	-11.9506
▁ancestr	-11.9506
▁rectangle	-11.9506
▁snapshot	-11.9506
▁dispute	-11.9506
▁prophet	-11.9506
▁escalat	-11.9506
▁volcani	-11.9506
centric	-11.9506
▁defect	-11.9506
▁inspect	-11.9506
▁singular	-11.9507
▁logistic	-11.9507
▁hmm	-11.9507
▁dissolv	-11.9507
▁pollutant	-11.9507
▁portray	-11.9507
aga	-11.9507
▁crank	-11.9508
▁vanish	-11.9508
▁gait	-11.9508
▁urgent	-11.9508
sylv	-11.9509
▁paradi	-11.9509
▁thermo	-11.951
▁indication	-11.951
▁millennia	-11.9511
▁inflation	-11.9511
▁ideological	-11.9511
therland	-11.9512
▁candle	-11.9512
▁indicator	-11.9512
▁immerse	-11.9512
▁weakness	-11.9513
▁nanotechnolog	-11.9514
▁fame	-11.9515
▁tumbl	-11.9515
▁flexibilit	-11.9517
alai	-11.9519
▁traffick	-11.9522
▁abstraction	-11.9522
▁atheist	-11.9523
ference	-11.9524
orway	-11.9536
▁emi	-11.954
▁princess	-11.9545
▁underestimate	-11.9554
▁quad	-11.9559
▁australian	-11.9562
▁190	-11.9563
▁140	-11.9563
▁fib	-11.9566
▁kenyan	-11.9567
▁visionar	-11.9567
▁laur	-11.9572
▁mario	-11.9573
▁damag	-11.9575
▁52	-11.9577
▁kim	-11.9584
▁eighth	-11.9584
▁companion	-11.9586
▁polariz	-11.9601
▁bak	-11.9604
▁fade	-11.9609
▁helpless	-11.9611
▁unsee	-11.9614
▁operational	-11.9619
keep	-11.9633
▁opt	-11.9639
▁deny	-11.9639
cin	-11.9646
▁rendering	-11.9648
▁bench	-11.9664
▁12-	-11.967
▁reasonabl	-11.9677
▁hom	-11.9679
▁humbl	-11.9684
wall	-11.9692
▁38	-11.9694
▁stat	-11.9698
▁sensibl	-11.9711
▁anna	-11.9716
▁menu	-11.9717
▁slip	-11.972
25	-11.9745
▁planner	-11.9756
apping	-11.976
▁sb	-11.9782
▁erase	-11.9786
unk	-11.9788
▁beck	-11.9793
▁mobilize	-11.9795
▁maria	-11.9797
aho	-11.9812
▁hoo	-11.9816
▁lime	-11.9829
▁autonom	-11.9838
▁lever	-11.9838
▁synthesi	-11.9838
▁catastrophe	-11.984
▁cylinder	-11.984
▁disadvantage	-11.984
▁embryo	-11.984
▁equilibr	-11.984
▁gadget	-11.984
▁guerrilla	-11.984
▁michigan	-11.984
▁oklahoma	-11.984
▁pantheon	-11.984
▁savanna	-11.984
▁scatter	-11.984
▁thrust	-11.984
plasma	-11.984
▁visceral	-11.984
▁essay	-11.984
▁salmon	-11.984
▁dentist	-11.984
▁stain	-11.984
▁coheren	-11.984
▁multinational	-11.984
▁parameter	-11.984
▁grammar	-11.984
▁checklist	-11.984
▁devise	-11.984
▁legitimate	-11.984
▁mutilat	-11.984
▁mustache	-11.9841
00,000	-11.9841
▁disrupti	-11.9841
▁pillar	-11.9842
▁claw	-11.9842
▁superpower	-11.9842
▁missile	-11.9842
▁billboard	-11.9843
▁brazilian	-11.9844
▁ipad	-11.9844
▁accomplishment	-11.9845
▁brit	-11.9845
▁maximize	-11.9846
▁beef	-11.9847
▁pigment	-11.9848
▁correlate	-11.9849
▁shelve	-11.9851
▁conductor	-11.9853
▁gius	-11.9861
▁yell	-11.9863
▁acknowledg	-11.9863
osh	-11.9867
foam	-11.9868
ii	-11.9871
▁commerc	-11.9872
▁temporal	-11.9872
▁glove	-11.9878
▁technologist	-11.988
▁gaze	-11.9884
,200	-11.9888
▁amuse	-11.9888
▁ramp	-11.989
▁rabbit	-11.9914
94	-11.992
▁crashe	-11.9925
▁memoriz	-11.9944
▁4.	-11.9944
▁promot	-11.9955
▁unst	-11.9957
▁teache	-11.9962
▁intervene	-11.9964
2.5	-11.9971
low	-11.9973
ogen	-11.9975
front	-11.9975
city	-11.9975
walk	-11.9976
resolution	-11.9977
▁191	-11.998
iger	-11.9982
track	-11.9983
▁collide	-11.9984
▁lik	-11.9998
▁aero	-12.0004
hold	-12.0005
▁democrat	-12.0039
▁carti	-12.0041
▁digit	-12.0044
▁miner	-12.0057
minded	-12.0065
eum	-12.007
▁24-	-12.0074
▁cc	-12.0075
▁intentional	-12.0108
▁synchroniz	-12.0121
▁subsid	-12.0128
▁acquir	-12.0134
▁responsibilit	-12.0136
▁lighter	-12.0137
▁wandering	-12.0137
▁gam	-12.014
▁jess	-12.0143
▁barbar	-12.0153
▁swo	-12.0154
▁geometric	-12.0172
ubert	-12.0175
▁suburb	-12.0183
▁plumb	-12.0184
▁cathedral	-12.0184
▁chemotherap	-12.0184
▁contagio	-12.0184
▁curtain	-12.0184
▁evaluate	-12.0184
▁graffiti	-12.0184
▁himalaya	-12.0184
▁mammograph	-12.0184
▁migrant	-12.0184
▁reproductive	-12.0184
▁respirator	-12.0184
▁worship	-12.0184
▁intricate	-12.0184
▁retain	-12.0184
▁anxious	-12.0184
▁fierce	-12.0184
▁cerebr	-12.0184
uddin	-12.0184
▁utopia	-12.0184
▁audaci	-12.0184
▁neurogenesis	-12.0184
▁scroll	-12.0185
▁bucket	-12.0185
▁ladder	-12.0185
▁pancrea	-12.0185
▁mixture	-12.0186
▁beneficia	-12.0186
▁guideline	-12.0186
▁grape	-12.0186
▁margar	-12.0186
▁cabin	-12.0188
▁improvise	-12.0188
▁mw	-12.0188
▁minimize	-12.0189
eith	-12.0197
▁evan	-12.0198
▁vibrate	-12.0201
▁ninety	-12.0201
▁tedx	-12.0202
▁pharmac	-12.0212
iva	-12.0214
▁900	-12.0217
▁calv	-12.0226
▁powder	-12.0233
inister	-12.0233
▁shav	-12.0238
▁reply	-12.0249
▁gal	-12.0251
▁kha	-12.0263
last	-12.0274
▁globaliz	-12.0275
▁autist	-12.0284
▁photon	-12.029
▁stan	-12.0305
zz	-12.0313
▁bruc	-12.0318
▁sms	-12.0319
▁esp	-12.0327
found	-12.0331
▁learner	-12.0332
energy	-12.0336
mail	-12.0336
▁exponentially	-12.035
ament	-12.0351
sharing	-12.0354
▁intangible	-12.0357
▁undergo	-12.0377
wig	-12.039
giv	-12.0391
wash	-12.0396
▁collaborat	-12.0405
▁socio	-12.041
▁beard	-12.0413
▁organizer	-12.0428
▁invade	-12.0438
▁incorporate	-12.044
▁rage	-12.0442
dict	-12.045
lept	-12.0454
oil	-12.0462
gate	-12.0463
▁accidental	-12.0482
▁stimulat	-12.0489
▁arrange	-12.0489
▁stu	-12.0504
▁dispers	-12.0506
▁clap	-12.0515
▁approache	-12.0519
▁hacker	-12.0523
▁chick	-12.054
deli	-12.054
▁impair	-12.054
▁orphan	-12.054
▁censor	-12.0541
▁ferr	-12.0541
▁exhilarat	-12.0541
▁smuggl	-12.0541
▁ambassador	-12.0541
▁arbitrar	-12.0541
▁chaotic	-12.0541
▁congratulat	-12.0541
▁convincing	-12.0541
▁fountain	-12.0541
▁humiliat	-12.0541
▁marathon	-12.0541
▁neurological	-12.0541
▁obscure	-12.0541
▁plague	-12.0541
▁prevail	-12.0541
▁repetiti	-12.0541
▁sensitivit	-12.0541
▁stabilize	-12.0541
▁surplus	-12.0541
▁tuberculosis	-12.0541
▁unnecessar	-12.0541
▁venezuela	-12.0541
▁certificate	-12.0541
▁genital	-12.0541
▁marshmallow	-12.0541
▁modify	-12.0541
▁whitopia	-12.0541
▁modification	-12.0541
▁ignit	-12.0542
▁smash	-12.0542
▁bulk	-12.0542
▁radar	-12.0542
▁blanket	-12.0542
▁differ	-12.0542
▁neocort	-12.0542
▁coincidence	-12.0542
utu	-12.0542
▁reassur	-12.0543
▁recreate	-12.0543
▁communist	-12.0543
▁preach	-12.0543
▁innate	-12.0543
litary	-12.0543
▁brainstorm	-12.0544
▁gym	-12.0544
▁astronomical	-12.0544
▁grassland	-12.0545
▁wallet	-12.0545
▁crispr	-12.0545
▁walter	-12.0546
osphere	-12.0546
▁tilt	-12.0546
▁manipulation	-12.0546
▁entrepreneuri	-12.0551
▁fog	-12.0552
▁infinit	-12.0555
▁dug	-12.0556
▁generator	-12.0558
▁spaceship	-12.0558
▁measl	-12.0559
▁strengthen	-12.056
▁compil	-12.056
▁plott	-12.0562
▁troll	-12.0563
gne	-12.0565
▁dealer	-12.0566
▁dual	-12.0567
banish	-12.057
efficient	-12.057
ecd	-12.0571
▁cookie	-12.0571
▁vein	-12.0573
▁tenth	-12.0574
▁desir	-12.0587
▁wil	-12.0588
▁54	-12.0595
▁skie	-12.0601
▁seventh	-12.0602
hili	-12.0603
▁outlet	-12.061
▁indicat	-12.0622
▁adversit	-12.0624
▁halve	-12.0624
ennis	-12.0627
haul	-12.0635
▁bent	-12.0642
jill	-12.0643
▁invad	-12.0648
▁interviewer	-12.0649
▁blurr	-12.065
▁vol	-12.0663
▁indirect	-12.0669
manda	-12.067
▁cia	-12.0676
odd	-12.0678
hma	-12.0687
ridge	-12.0687
▁controller	-12.0694
▁epic	-12.0696
ark	-12.07
▁morph	-12.0702
weight	-12.0705
▁seasonal	-12.0705
order	-12.0705
government	-12.0706
child	-12.0713
cover	-12.0719
mination	-12.0731
sustainabl	-12.0732
▁lure	-12.0734
grad	-12.0736
▁rubb	-12.0741
▁bomber	-12.0741
tention	-12.0743
▁pore	-12.0747
lix	-12.0748
▁comp	-12.0786
mino	-12.0788
explored	-12.0789
▁timing	-12.0797
▁incidental	-12.0801
▁charg	-12.0813
ira	-12.0821
▁salv	-12.0822
▁negotiat	-12.0829
▁fl	-12.0853
▁bac	-12.0865
▁scholar	-12.0867
▁resemble	-12.0872
▁stewar	-12.0884
▁corp	-12.0891
▁southeast	-12.0897
▁advoca	-12.0904
▁numer	-12.0904
▁dispos	-12.0906
▁marvel	-12.091
mmunity	-12.0911
▁archae	-12.0912
▁decentraliz	-12.0912
▁assault	-12.0912
▁compliment	-12.0912
▁copernic	-12.0912
▁cultivate	-12.0912
▁devastate	-12.0912
▁glory	-12.0912
▁jealous	-12.0912
▁lesbian	-12.0912
▁octopus	-12.0912
▁pittsburg	-12.0912
▁pivot	-12.0912
▁prejudice	-12.0912
▁shield	-12.0912
▁shuffle	-12.0912
▁technician	-12.0912
▁undergraduate	-12.0912
▁vitamin	-12.0912
▁vulture	-12.0912
voluntary	-12.0912
▁existential	-12.0912
▁georgia	-12.0912
▁resonate	-12.0912
▁superhero	-12.0912
▁superior	-12.0912
▁regain	-12.0912
▁sentiment	-12.0912
▁classmate	-12.0912
▁cognition	-12.0912
▁haunt	-12.0912
▁secular	-12.0912
▁tinker	-12.0912
▁disparit	-12.0912
▁polymer	-12.0912
▁abnormal	-12.0912
▁cochlea	-12.0912
▁problematic	-12.0912
▁quantitative	-12.0912
▁europa	-12.0912
▁discard	-12.0913
▁rival	-12.0913
▁pension	-12.0913
▁boson	-12.0913
▁lesion	-12.0913
▁shallow	-12.0913
▁marvelous	-12.0913
▁telecom	-12.0913
▁timber	-12.0914
▁dude	-12.0914
▁execution	-12.0914
▁tasmanian	-12.0915
▁skype	-12.0915
▁temptation	-12.0915
▁eros	-12.0915
▁veil	-12.0915
▁railway	-12.0916
▁moham	-12.0916
▁psychiatrist	-12.0917
▁conspirac	-12.0917
▁hover	-12.0918
▁monk	-12.0918
▁iteration	-12.0918
▁novelty	-12.0918
▁deployment	-12.0918
▁waterfall	-12.0921
▁grind	-12.0921
▁sword	-12.0922
▁injection	-12.0923
▁400,000	-12.0925
▁puff	-12.0927
▁monday	-12.0927
▁attraction	-12.0932
▁gland	-12.0934
▁daylight	-12.0937
▁assess	-12.0938
▁correction	-12.0943
▁coup	-12.0943
elli	-12.0947
▁tuck	-12.0955
direct	-12.0957
▁upgrade	-12.0957
▁stunning	-12.0965
▁developmental	-12.0973
▁undermin	-12.0975
▁migrat	-12.0976
▁certifi	-12.0989
▁commander	-12.1001
▁dm	-12.1002
▁ambigu	-12.1004
▁drowning	-12.1008
▁pav	-12.1014
▁carrier	-12.1019
▁void	-12.1024
▁chatt	-12.1027
▁facilitate	-12.1039
▁reminder	-12.1039
▁ballet	-12.104
▁nurtur	-12.1042
▁purchas	-12.1044
▁mau	-12.1047
▁gyr	-12.1048
▁laz	-12.1066
▁cooler	-12.1083
craft	-12.1084
▁seize	-12.1086
▁similarit	-12.1087
▁paraly	-12.1088
plus	-12.109
positive	-12.109
sleep	-12.109
group	-12.1091
social	-12.1091
▁synthesize	-12.1112
▁emit	-12.1114
▁rode	-12.1127
izz	-12.1135
▁cub	-12.1169
ister	-12.1177
ibati	-12.1186
▁dishe	-12.1194
ctor	-12.12
▁customiz	-12.1205
▁hind	-12.1224
lux	-12.1225
▁feminis	-12.1228
▁submit	-12.1235
▁mp	-12.1245
mond	-12.1248
▁pic	-12.1254
rca	-12.1266
put	-12.1274
▁subjectiv	-12.1278
▁prosecut	-12.1291
▁anthropolog	-12.1293
ibera	-12.1296
▁condemn	-12.1296
▁embark	-12.1296
▁intimidat	-12.1296
disciplinar	-12.1296
evident	-12.1296
munition	-12.1296
▁cambodia	-12.1296
▁confusing	-12.1296
▁diminish	-12.1296
▁dwarf	-12.1296
▁excerpt	-12.1296
▁immigration	-12.1296
▁laundr	-12.1296
▁lithium	-12.1296
▁mammogram	-12.1296
▁millisecond	-12.1296
▁monarch	-12.1296
▁orangutan	-12.1296
▁prohibit	-12.1296
▁rainbow	-12.1296
▁sermon	-12.1296
▁substitute	-12.1296
▁testimon	-12.1296
▁thunder	-12.1296
▁unacceptabl	-12.1296
▁unimaginabl	-12.1296
▁ushahidi	-12.1296
▁wavelength	-12.1296
▁caregiver	-12.1296
▁colombia	-12.1296
▁complication	-12.1296
▁equator	-12.1296
▁invasion	-12.1296
▁submarine	-12.1296
▁advertisement	-12.1296
▁irrigat	-12.1296
▁microwave	-12.1296
▁susceptib	-12.1296
▁strive	-12.1297
▁enslav	-12.1297
▁wreck	-12.1297
▁epilep	-12.1297
▁filament	-12.1297
▁eager	-12.1297
▁ballot	-12.1297
▁curator	-12.1297
▁jacket	-12.1297
▁consent	-12.1297
▁burial	-12.1297
▁stiff	-12.1297
▁portug	-12.1297
▁packet	-12.1297
▁tutor	-12.1297
▁darpa	-12.1298
▁payload	-12.1298
▁bono	-12.1298
▁danny	-12.1298
▁assessment	-12.1299
▁compris	-12.1299
▁waist	-12.1299
▁viewpoint	-12.13
▁russe	-12.13
▁eradicate	-12.13
▁reconnect	-12.13
▁inmate	-12.13
▁infer	-12.1301
▁disposal	-12.1302
dental	-12.1302
▁wax	-12.1303
▁payoff	-12.1304
▁excellence	-12.1305
▁expressive	-12.1305
▁calci	-12.1306
▁overload	-12.1306
▁swear	-12.1307
▁analytical	-12.1312
▁meaningless	-12.1313
▁poop	-12.1315
▁heroic	-12.1316
▁simulat	-12.1319
▁biotechnolog	-12.1323
▁petri	-12.1323
▁placebo	-12.133
▁fairness	-12.133
▁puncture	-12.1334
▁treasure	-12.1344
▁lang	-12.1345
▁pc	-12.1348
▁accumulat	-12.1354
▁duration	-12.1359
▁submitt	-12.137
ruct	-12.1373
▁qualifie	-12.1376
▁bern	-12.1376
▁disgusting	-12.1385
lude	-12.1385
▁semina	-12.139
▁prioritize	-12.139
▁boo	-12.1394
▁generalize	-12.1396
▁grad	-12.1397
▁wilder	-12.14
▁refin	-12.1406
▁sec	-12.1409
▁surge	-12.1414
brew	-12.1425
oma	-12.1426
▁chap	-12.143
▁inefficient	-12.1439
illin	-12.1442
itting	-12.1445
competent	-12.1452
▁fung	-12.1452
load	-12.1453
▁kri	-12.1456
born	-12.146
▁jay	-12.1469
break	-12.1474
▁copp	-12.1484
gio	-12.1485
▁chat	-12.1486
▁julia	-12.1487
▁axe	-12.1489
communication	-12.149
massive	-12.1491
week	-12.1491
educat	-12.15
▁anesthesi	-12.1502
▁2,	-12.1506
▁frankl	-12.1506
resistan	-12.1507
▁collid	-12.1525
▁barn	-12.1526
▁induce	-12.1543
lace	-12.1545
▁believer	-12.1569
▁drown	-12.1594
onica	-12.1596
flu	-12.1598
▁cape	-12.1605
▁touris	-12.1611
▁geographical	-12.162
▁pra	-12.1624
▁lense	-12.1626
▁activis	-12.1636
▁northwest	-12.1647
▁sneak	-12.1647
case	-12.1648
▁stir	-12.1651
▁pollinat	-12.1655
▁summar	-12.1657
emo	-12.1675
▁sauce	-12.1685
▁converg	-12.1687
ette	-12.1688
scape	-12.1688
▁compass	-12.1692
vinci	-12.1694
▁emphasi	-12.1696
▁auditor	-12.1696
▁sympath	-12.1696
▁abortion	-12.1696
▁chord	-12.1696
▁destructive	-12.1696
▁exclude	-12.1696
▁feminin	-12.1696
▁hominid	-12.1696
▁instantaneous	-12.1696
▁mermaid	-12.1696
▁nanoparticle	-12.1696
▁occupie	-12.1696
▁oregon	-12.1696
▁paragraph	-12.1696
▁pervasive	-12.1696
▁pheromone	-12.1696
▁redundan	-12.1696
▁resonance	-12.1696
▁taxpayer	-12.1696
▁thorough	-12.1696
▁vapor	-12.1696
▁delicate	-12.1696
▁implicit	-12.1696
▁mortgage	-12.1696
▁persuasi	-12.1696
▁sterile	-12.1696
▁draft	-12.1696
▁linguist	-12.1696
▁resort	-12.1696
▁simon	-12.1697
▁matern	-12.1697
▁preced	-12.1697
▁nuance	-12.1697
▁superstar	-12.1697
▁ruling	-12.1697
▁orchid	-12.1697
▁sync	-12.1697
▁buddha	-12.1697
▁battlefield	-12.1697
▁emergen	-12.1697
nourish	-12.1697
▁illiterate	-12.1697
▁facult	-12.1697
▁aquatic	-12.1697
advert	-12.1697
▁hatred	-12.1697
sterda	-12.1698
▁counterpart	-12.1698
▁potent	-12.1698
▁goose	-12.1698
▁victorian	-12.1698
▁criticism	-12.1698
▁enthusiastic	-12.1699
▁trek	-12.1699
▁feat	-12.1699
▁2013	-12.1699
▁stall	-12.1699
▁nazi	-12.1699
▁posture	-12.1699
▁philippi	-12.1699
abbage	-12.1699
▁token	-12.17
▁darwinian	-12.17
▁alternat	-12.17
▁beast	-12.1701
▁ozone	-12.1701
▁plugg	-12.1702
gowan	-12.1703
▁98	-12.1703
▁firefl	-12.1703
▁mach	-12.1703
▁mock	-12.1705
▁merit	-12.1706
▁resin	-12.1706
▁reconstruction	-12.1707
lateral	-12.1709
▁juni	-12.171
▁parade	-12.1711
nanometer	-12.1711
▁cock	-12.1712
rief	-12.1713
▁bald	-12.1713
▁dick	-12.1714
▁bj	-12.1722
▁norman	-12.1723
▁intent	-12.1724
transcenden	-12.1728
icious	-12.175
bran	-12.1751
golia	-12.1751
▁hazard	-12.1753
▁clapp	-12.1754
sourc	-12.1755
▁jr	-12.1764
▁experimentation	-12.1764
▁plato	-12.1768
▁mahat	-12.1778
mah	-12.1781
▁insur	-12.1781
▁influenc	-12.1785
▁porn	-12.1786
change	-12.1788
▁complet	-12.1789
▁traumatic	-12.1791
▁herbi	-12.1793
▁gall	-12.1794
barack	-12.1796
▁stripp	-12.181
▁rep	-12.1815
▁eden	-12.1821
92	-12.1829
▁sri	-12.1834
▁fled	-12.1836
▁criticiz	-12.184
▁gambl	-12.1845
genesis	-12.1847
▁reinventing	-12.1849
▁ingenu	-12.1869
wandering	-12.1904
sensitive	-12.1906
fashion	-12.1907
economic	-12.1907
virus	-12.1909
boat	-12.1911
▁basin	-12.1911
linear	-12.1914
▁copi	-12.1928
divid	-12.1932
plex	-12.1949
▁cou	-12.1982
▁intel	-12.1983
▁whit	-12.1987
awi	-12.1995
▁psyche	-12.1996
terra	-12.2004
▁dip	-12.2007
▁180	-12.2009
▁bil	-12.2017
▁sketche	-12.202
enable	-12.2027
▁unpredictabl	-12.2036
▁doodl	-12.204
▁initiat	-12.2049
▁verbal	-12.2062
lerant	-12.2073
▁ox	-12.2076
▁mandate	-12.2098
▁straw	-12.2107
▁exaggerat	-12.2109
▁biodegrad	-12.2113
▁bureau	-12.2113
▁circum	-12.2113
▁resign	-12.2113
▁accommodate	-12.2113
▁beekeeper	-12.2113
▁cafeteria	-12.2113
▁catastrophic	-12.2113
▁commodity	-12.2113
▁evaluation	-12.2113
▁jacque	-12.2113
▁juvenile	-12.2113
▁lettuce	-12.2113
▁metronome	-12.2113
▁migraine	-12.2113
▁montana	-12.2113
▁pixar	-12.2113
▁premature	-12.2113
▁provision	-12.2113
▁relevanc	-12.2113
▁remittance	-12.2113
▁responsive	-12.2113
▁template	-12.2113
▁throat	-12.2113
▁venue	-12.2113
▁dallas	-12.2113
▁sleeve	-12.2113
▁zambia	-12.2113
▁mutant	-12.2113
▁hectare	-12.2113
▁elastic	-12.2113
▁polish	-12.2113
▁energetic	-12.2113
▁serge	-12.2113
▁choreograph	-12.2113
▁orientation	-12.2113
▁ultrasound	-12.2113
▁crust	-12.2113
▁disseminat	-12.2113
▁splash	-12.2114
active	-12.2114
▁jefferson	-12.2114
▁obey	-12.2114
▁preschool	-12.2114
▁kidnappe	-12.2114
▁cmu	-12.2114
▁glorious	-12.2114
▁decode	-12.2115
▁knot	-12.2115
▁humid	-12.2115
▁buffet	-12.2116
▁verge	-12.2116
▁oak	-12.2117
▁roger	-12.2117
▁simplify	-12.2118
▁violation	-12.212
▁livelihood	-12.2121
▁balti	-12.2121
▁ardu	-12.2124
▁massac	-12.2124
cumen	-12.2125
▁reviv	-12.2125
▁robin	-12.2129
▁satisfaction	-12.2132
▁epi	-12.2133
▁sq	-12.2135
▁propeller	-12.2135
▁worldview	-12.2141
▁harle	-12.2145
fat	-12.2148
▁forbidd	-12.2169
▁mobiliz	-12.2169
▁miser	-12.2177
▁theft	-12.2181
nburg	-12.2187
▁bioma	-12.219
chen	-12.2193
▁curv	-12.2194
▁composer	-12.2194
▁distracted	-12.2195
▁fundrais	-12.2196
nmark	-12.2198
▁freeway	-12.2199
▁vega	-12.2201
jan	-12.2201
rane	-12.2219
▁fundamentalist	-12.2222
fred	-12.2235
▁penetrate	-12.224
▁balanc	-12.2253
▁tender	-12.2254
position	-12.2255
▁ranger	-12.2271
▁reus	-12.2272
tification	-12.2274
rop	-12.2277
▁articulate	-12.229
ough	-12.2296
▁uncertain	-12.2308
▁permit	-12.2322
▁glu	-12.2332
moth	-12.234
piece	-12.2342
market	-12.2342
—	-12.2342
great	-12.2342
color	-12.235
food	-12.2363
▁industrialize	-12.2366
▁decorat	-12.237
built	-12.239
▁nurture	-12.2397
ansa	-12.2406
▁carol	-12.2411
pont	-12.2424
teem	-12.2426
cles	-12.2436
home	-12.244
▁tackl	-12.244
chester	-12.2443
▁casual	-12.2453
▁originate	-12.2462
▁traveler	-12.2472
▁fir	-12.2478
▁colo	-12.2478
huse	-12.2487
▁patien	-12.2488
▁criticize	-12.2496
▁sho	-12.2502
hell	-12.2504
▁refrigerat	-12.2544
▁multipli	-12.2546
hic	-12.2546
fensive	-12.2547
▁aqua	-12.2547
counterintuitive	-12.2548
▁algebra	-12.2548
▁anecdote	-12.2548
▁approval	-12.2548
▁bumblebee	-12.2548
▁catalyst	-12.2548
▁cosmetic	-12.2548
▁doctrine	-12.2548
▁excavat	-12.2548
▁frugal	-12.2548
▁grassroots	-12.2548
▁improbabl	-12.2548
▁nanopatch	-12.2548
▁plunge	-12.2548
▁sapien	-12.2548
▁shredd	-12.2548
▁sulfur	-12.2548
▁swirl	-12.2548
▁sydney	-12.2548
▁tectonic	-12.2548
▁unequal	-12.2548
▁asphalt	-12.2548
▁irregular	-12.2548
▁squeak	-12.2548
▁unaware	-12.2548
▁chalk	-12.2548
▁gorilla	-12.2548
▁spawn	-12.2548
▁premier	-12.2548
▁collage	-12.2548
▁coworker	-12.2548
▁confer	-12.2548
▁wetsuit	-12.2548
▁propagat	-12.2548
▁homosexual	-12.2548
▁deteriorat	-12.2548
▁harass	-12.2548
saw	-12.2548
▁multitask	-12.2548
▁motorcycle	-12.2548
▁anchor	-12.2548
▁vector	-12.2548
▁cheek	-12.2548
▁biomaterial	-12.2549
▁comedian	-12.2549
▁dictate	-12.2549
▁consultant	-12.2549
▁regulator	-12.2549
▁cough	-12.2549
▁offshor	-12.255
▁klei	-12.2553
▁barber	-12.2553
▁delete	-12.2554
19	-12.2555
▁persever	-12.2555
▁scout	-12.2557
▁acceleration	-12.2559
▁accelerator	-12.256
▁alaba	-12.2565
▁hap	-12.2566
▁unthink	-12.2566
mple	-12.2567
▁500,000	-12.2569
▁catalog	-12.2571
▁shir	-12.2573
▁contractor	-12.2574
▁mantra	-12.2575
▁supplier	-12.2579
▁shortage	-12.258
▁radiat	-12.2582
round	-12.259
▁outward	-12.2592
▁persistent	-12.2595
▁hull	-12.2598
▁blogger	-12.2605
▁partially	-12.261
▁poetic	-12.2614
▁shal	-12.2617
agile	-12.2619
▁irre	-12.2641
▁casualt	-12.2645
▁shiny	-12.2652
▁immersi	-12.2653
▁loyalt	-12.2664
▁mature	-12.2669
▁virtu	-12.2695
▁moderate	-12.2697
uza	-12.2707
▁boomer	-12.2713
▁dave	-12.2714
▁causal	-12.2717
▁radioactiv	-12.273
▁continual	-12.273
induc	-12.2759
▁backup	-12.2763
▁participator	-12.278
▁pessimist	-12.2784
osis	-12.2784
elect	-12.2788
nutrition	-12.2794
degree	-12.2796
fund	-12.2797
diac	-12.28
master	-12.2805
brain	-12.2817
mbe	-12.2821
▁visualiz	-12.2824
peer	-12.2855
mega	-12.2861
▁behav	-12.2867
exist	-12.2885
▁prescribe	-12.2896
▁disgust	-12.2899
▁imitate	-12.2933
ophis	-12.2934
ption	-12.2948
paid	-12.295
▁capacit	-12.2954
▁whil	-12.296
▁brows	-12.2968
▁hyp	-12.2972
95	-12.2974
▁strap	-12.2975
proving	-12.299
▁dictator	-12.3002
▁affirm	-12.3002
▁apparatus	-12.3002
▁appliance	-12.3002
▁archimed	-12.3002
▁armstrong	-12.3002
▁asylum	-12.3002
▁barbershop	-12.3002
▁biblical	-12.3002
▁brigade	-12.3002
▁calculator	-12.3002
▁census	-12.3002
▁delusion	-12.3002
▁distress	-12.3002
▁eagle	-12.3002
▁eleven	-12.3002
▁empirical	-12.3002
▁everglade	-12.3002
▁improvisation	-12.3002
▁inexpensive	-12.3002
▁infidel	-12.3002
▁interrogat	-12.3002
▁intestine	-12.3002
▁odysse	-12.3002
▁peanut	-12.3002
▁picasso	-12.3002
▁plaque	-12.3002
▁pneumo	-12.3002
▁qatar	-12.3002
▁recipient	-12.3002
▁reckless	-12.3002
▁recreation	-12.3002
▁recurr	-12.3002
▁rhetoric	-12.3002
▁taiwan	-12.3002
▁tamiflu	-12.3002
▁teszler	-12.3002
▁tribute	-12.3002
▁turbine	-12.3002
▁unfamiliar	-12.3002
▁altruis	-12.3002
▁intercept	-12.3002
▁optimal	-12.3002
▁palestine	-12.3002
▁turbulen	-12.3002
▁adjacen	-12.3002
▁cereal	-12.3002
▁ukrain	-12.3002
▁honeybee	-12.3003
▁martian	-12.3003
▁embass	-12.3003
▁underpin	-12.3003
▁influenza	-12.3003
▁warrant	-12.3003
▁aquariu	-12.3003
▁hunch	-12.3003
▁sponge	-12.3003
▁speculate	-12.3003
▁biofuel	-12.3003
▁composite	-12.3003
▁admission	-12.3003
▁ivory	-12.3003
▁crown	-12.3003
fetch	-12.3003
▁notebook	-12.3004
▁vicious	-12.3004
▁cubic	-12.3004
▁ripped	-12.3004
▁orphanage	-12.3004
▁biotech	-12.3004
▁mason	-12.3004
▁heartbreak	-12.3004
▁chok	-12.3004
▁1.4	-12.3005
▁marble	-12.3005
▁horrific	-12.3005
▁instinctive	-12.3005
▁rect	-12.3005
▁embarrassment	-12.3005
▁informant	-12.3006
▁announcement	-12.3006
▁shortcut	-12.3006
▁navigation	-12.3007
withstand	-12.3007
▁peek	-12.3007
▁lemon	-12.3007
▁cobra	-12.3008
▁slate	-12.3008
▁electora	-12.3008
▁bounc	-12.3009
▁geologist	-12.3009
▁constructive	-12.3009
▁bait	-12.301
▁comprehensive	-12.3011
▁powerpoint	-12.3011
▁mimick	-12.3011
▁physiological	-12.3013
▁medal	-12.3014
▁newborn	-12.3014
acci	-12.3015
▁sprint	-12.3015
onze	-12.3017
▁contributor	-12.3019
hou	-12.302
▁jenn	-12.3022
▁portal	-12.3023
▁playground	-12.3023
▁lind	-12.3024
wana	-12.3026
▁paro	-12.3031
story	-12.3031
▁dj	-12.3034
▁penal	-12.3035
▁runner	-12.3037
riff	-12.3037
▁lava	-12.3038
▁anomal	-12.3038
code	-12.3045
▁chill	-12.3045
▁differential	-12.3061
▁tab	-12.3069
▁metaphorical	-12.3073
elling	-12.3082
▁synchron	-12.3087
ular	-12.3088
▁budd	-12.3095
▁collector	-12.3106
▁messag	-12.3123
▁ruler	-12.3126
▁mistaken	-12.3128
carriage	-12.3145
occ	-12.3154
▁unto	-12.3169
▁replica	-12.317
▁valu	-12.3176
▁employer	-12.3179
▁mott	-12.318
▁vase	-12.3181
▁env	-12.3214
▁navigat	-12.3214
ago	-12.3219
ela	-12.3224
▁53	-12.3229
niz	-12.3249
terior	-12.3251
bound	-12.3269
animate	-12.327
bucks	-12.3271
secure	-12.3272
polar	-12.3272
pool	-12.3275
anne	-12.3292
section	-12.3298
▁glori	-12.3302
▁interfere	-12.3304
▁leo	-12.3308
▁whistl	-12.3328
▁matche	-12.3336
▁poo	-12.3369
▁astonish	-12.3376
rung	-12.3382
▁symboliz	-12.3386
utilize	-12.3388
literate	-12.3394
▁kb	-12.3397
▁jon	-12.3429
▁cab	-12.3434
▁forbid	-12.3435
▁hump	-12.3437
▁commute	-12.3439
rap	-12.3446
math	-12.3447
dec	-12.3471
▁contradict	-12.3474
fahren	-12.3479
gnostic	-12.3479
▁attorney	-12.3479
▁bureaucrac	-12.3479
▁carcinogen	-12.3479
▁coalition	-12.3479
▁conscience	-12.3479
▁convenience	-12.3479
▁crochet	-12.3479
▁explosive	-12.3479
▁extremism	-12.3479
▁extremist	-12.3479
▁giraffe	-12.3479
▁hummingbird	-12.3479
▁hurdle	-12.3479
▁identification	-12.3479
▁kindergarten	-12.3479
▁lawrence	-12.3479
▁mcdonald	-12.3479
▁murray	-12.3479
▁netflix	-12.3479
▁opponent	-12.3479
▁patriarch	-12.3479
▁patriot	-12.3479
▁photosynthesi	-12.3479
▁plume	-12.3479
▁reconciliation	-12.3479
▁reflex	-12.3479
▁reservoir	-12.3479
▁ribbon	-12.3479
▁ripple	-12.3479
▁servant	-12.3479
▁skyscraper	-12.3479
▁sprawl	-12.3479
▁superconductor	-12.3479
▁vegetarian	-12.3479
▁whistleblower	-12.3479
▁detach	-12.3479
▁embryonic	-12.3479
▁petrol	-12.3479
▁stagna	-12.3479
▁tyrann	-12.3479
▁brute	-12.3479
▁headphone	-12.3479
▁mundan	-12.3479
▁sniff	-12.3479
▁toddler	-12.3479
▁untouch	-12.3479
▁knob	-12.3479
▁ingenious	-12.3479
▁queue	-12.3479
▁roommate	-12.3479
▁summon	-12.3479
▁hydrocarbon	-12.3479
▁trump	-12.3479
▁goddess	-12.3479
▁ideo	-12.3479
▁pornograph	-12.3479
▁replicator	-12.3479
▁francis	-12.3479
▁cemeter	-12.3479
▁dictatorship	-12.3479
▁worn	-12.3479
frost	-12.3479
▁tapestr	-12.3479
▁holistic	-12.3479
▁bmw	-12.3479
▁brook	-12.3479
▁subset	-12.348
▁algeria	-12.348
▁delegat	-12.348
▁automo	-12.348
▁variant	-12.348
▁unnatural	-12.348
▁allocate	-12.3481
▁suburban	-12.3481
▁ambien	-12.3481
▁outrageous	-12.3481
▁loom	-12.3481
▁delta	-12.3482
▁romo	-12.3482
▁possession	-12.3483
crony	-12.3483
▁lightweight	-12.3483
▁circulation	-12.3485
▁simplistic	-12.3486
▁twentie	-12.3487
disproportionate	-12.3487
▁lick	-12.3489
▁pollinator	-12.3489
▁confrontation	-12.3491
▁convergen	-12.3491
▁1940	-12.3493
▁dash	-12.3493
▁senat	-12.3494
replicating	-12.3495
▁julie	-12.3495
▁tether	-12.3496
▁slamm	-12.3496
▁millennial	-12.3496
▁rib	-12.3497
▁slot	-12.3498
▁misuse	-12.3498
▁visi	-12.3499
▁cameron	-12.3502
▁clau	-12.3503
▁susan	-12.3503
▁educator	-12.3503
zoning	-12.3504
▁slipper	-12.3505
▁bead	-12.3505
▁infuse	-12.351
▁terminat	-12.3513
▁stewards	-12.3515
▁vend	-12.3521
vor	-12.3523
▁populat	-12.3524
▁pollinate	-12.3528
graphic	-12.353
▁undo	-12.3534
▁consideration	-12.3535
▁highland	-12.3539
▁inclin	-12.3547
▁initiate	-12.3552
▁emission	-12.3559
▁loser	-12.3561
▁downside	-12.3563
bodie	-12.3567
▁deflect	-12.3571
▁intern	-12.3573
▁backward	-12.3575
▁uprising	-12.3578
list	-12.3579
sanitary	-12.3581
▁racist	-12.3583
▁perfection	-12.3587
nean	-12.36
rdon	-12.3603
▁spam	-12.3607
▁riches	-12.3615
▁marsha	-12.3618
▁cone	-12.3619
▁gum	-12.362
angle	-12.3624
eez	-12.3633
▁mug	-12.3635
▁fertilize	-12.3636
▁revolutionize	-12.3637
lian	-12.3638
▁reprogram	-12.3648
▁inspirational	-12.3711
emia	-12.3715
knit	-12.3737
▁julian	-12.3742
▁displac	-12.3751
▁serial	-12.3765
conduct	-12.3772
mobile	-12.3772
function	-12.3773
white	-12.3773
people	-12.3773
model	-12.3775
▁spor	-12.3777
taller	-12.378
▁evaporate	-12.3784
heid	-12.3795
▁pub	-12.3805
angular	-12.3828
▁divin	-12.3829
▁emulat	-12.3829
▁450	-12.3829
▁nag	-12.3832
▁rescu	-12.3839
safe	-12.3848
▁flex	-12.3853
▁snap	-12.3862
▁abusi	-12.3864
evo	-12.3884
▁110	-12.3899
▁frequent	-12.3909
finish	-12.3915
ouri	-12.3919
iel	-12.3927
▁mast	-12.3936
▁perpetu	-12.394
gatherer	-12.3941
emost	-12.3942
abo	-12.3946
hai	-12.3952
▁propell	-12.3954
▁partial	-12.3957
▁vene	-12.397
▁possess	-12.3974
▁fluctu	-12.3976
▁misunderst	-12.3978
▁embed	-12.3978
▁intellect	-12.3979
▁deconstruct	-12.3979
▁gossip	-12.3979
▁carpenter	-12.3979
▁clitoris	-12.3979
▁communal	-12.3979
▁cyborg	-12.3979
▁discomfort	-12.3979
▁disparate	-12.3979
▁heartbeat	-12.3979
▁homicide	-12.3979
▁laureate	-12.3979
▁necessit	-12.3979
▁prestig	-12.3979
▁primordial	-12.3979
▁repertoire	-12.3979
▁rigorous	-12.3979
▁sputnik	-12.3979
▁twelve	-12.3979
▁unpleasant	-12.3979
▁distill	-12.3979
▁incubator	-12.3979
▁orleans	-12.3979
▁socket	-12.3979
▁solemn	-12.3979
borough	-12.3979
▁darfur	-12.3979
▁lgbt	-12.3979
▁subtract	-12.3979
▁vacant	-12.3979
▁buffalo	-12.3979
▁lanka	-12.3979
▁hippie	-12.3979
▁paranoi	-12.3979
▁absent	-12.3979
▁scandal	-12.3979
▁scour	-12.3979
▁stink	-12.3979
▁psychopath	-12.3979
▁clich	-12.3979
▁galile	-12.3979
▁subconscious	-12.3979
partisan	-12.3979
▁mainframe	-12.3979
▁aspire	-12.3979
▁interference	-12.3979
▁thigh	-12.3979
▁fingerprint	-12.398
▁imaginative	-12.398
▁rediscover	-12.398
▁feasib	-12.398
▁traumatiz	-12.398
▁interval	-12.398
▁restoration	-12.398
▁tolerate	-12.3981
▁1,1	-12.3981
▁saturat	-12.3981
▁boyfriend	-12.3981
▁instructor	-12.3981
▁bombard	-12.3982
▁dysfunctional	-12.3982
▁dwell	-12.3982
▁monet	-12.3982
minent	-12.3982
▁exile	-12.3983
▁breakdown	-12.3983
▁sufi	-12.3984
▁vendor	-12.3984
▁kitten	-12.3984
▁disagreement	-12.3984
▁joyful	-12.3985
▁degradation	-12.3985
▁panick	-12.3986
▁recommendation	-12.3986
▁rotation	-12.3986
▁magician	-12.3988
▁siege	-12.3988
▁respectful	-12.3989
▁prox	-12.399
agra	-12.3991
guel	-12.3993
▁puppy	-12.4003
berry	-12.4007
▁mba	-12.4009
▁reside	-12.401
▁indus	-12.4012
▁gill	-12.402
▁peril	-12.4021
genic	-12.4021
▁thou	-12.4032
▁bots	-12.4032
credit	-12.4033
onald	-12.404
chille	-12.4051
▁imitat	-12.4051
▁rally	-12.4053
▁adviser	-12.406
▁bugg	-12.4062
▁ple	-12.407
▁burm	-12.4074
▁hike	-12.4086
aque	-12.4092
▁bren	-12.41
▁spit	-12.4102
▁murderer	-12.4103
ippi	-12.4104
ogue	-12.4106
▁escap	-12.4122
91	-12.4125
▁colonize	-12.4135
▁weave	-12.4136
bao	-12.4153
▁starch	-12.4165
▁swee	-12.4174
▁slipp	-12.4174
▁oz	-12.418
volt	-12.4194
fell	-12.4197
erusal	-12.4225
▁kni	-12.4232
▁fibro	-12.4235
▁125	-12.4248
▁gha	-12.4248
▁mir	-12.4253
hrir	-12.4258
quat	-12.427
▁cardio	-12.4277
▁hive	-12.4288
appy	-12.4292
symmetr	-12.4297
violen	-12.4298
script	-12.4298
worm	-12.4298
appropriate	-12.4298
africa	-12.4299
▁nico	-12.4299
limited	-12.4299
driving	-12.4299
protect	-12.4299
species	-12.4299
first	-12.4299
clean	-12.4301
national	-12.4303
cycle	-12.4303
ike	-12.4307
text	-12.4308
▁protester	-12.4313
▁pickle	-12.4333
▁redefin	-12.4344
toleran	-12.4358
pong	-12.4364
▁communi	-12.4372
▁dorm	-12.4379
gras	-12.4409
ntu	-12.4417
▁publisher	-12.442
▁optimiz	-12.4435
▁41	-12.4436
▁ambiguit	-12.4437
▁psych	-12.4452
lisa	-12.4455
▁fad	-12.4463
▁scarc	-12.4474
▁mortal	-12.45
scribe	-12.4502
▁techno	-12.4503
▁slap	-12.4503
▁curse	-12.4504
▁rhino	-12.4505
▁bargain	-12.4505
▁pepper	-12.4505
▁precipitat	-12.4505
▁transgender	-12.4505
▁trawl	-12.4505
▁acquisition	-12.4505
▁arithmetic	-12.4505
▁centrifuge	-12.4505
▁ceramic	-12.4505
▁chariot	-12.4505
▁constitute	-12.4505
▁diffuse	-12.4505
▁dreyfus	-12.4505
▁ecsta	-12.4505
▁effic	-12.4505
▁eyebrow	-12.4505
▁gecko	-12.4505
▁gloom	-12.4505
▁gradient	-12.4505
▁hippocamp	-12.4505
▁hygien	-12.4505
▁jennifer	-12.4505
▁kickstart	-12.4505
▁messenger	-12.4505
▁microrna	-12.4505
▁privatiz	-12.4505
▁qualify	-12.4505
▁sanctuar	-12.4505
▁seizure	-12.4505
▁amendment	-12.4505
▁discrete	-12.4505
▁levitat	-12.4505
▁nichol	-12.4505
▁plural	-12.4505
▁reptile	-12.4505
electrifie	-12.4505
▁audition	-12.4505
▁courtyard	-12.4505
▁landfill	-12.4505
▁retriev	-12.4505
▁seatbelt	-12.4505
ahedron	-12.4505
▁balcon	-12.4505
▁abraham	-12.4505
▁cymatic	-12.4505
▁octav	-12.4505
▁barbie	-12.4505
▁blunt	-12.4505
▁propulsi	-12.4505
▁unveil	-12.4505
▁hurry	-12.4505
▁inquiry	-12.4505
▁seamless	-12.4505
▁billionaire	-12.4505
▁complian	-12.4505
▁byproduct	-12.4505
▁coincide	-12.4505
▁omni	-12.4505
▁urine	-12.4505
▁offense	-12.4505
▁cern	-12.4505
▁charming	-12.4505
▁suitcase	-12.4505
▁attain	-12.4505
▁championship	-12.4506
▁modular	-12.4506
▁tembere	-12.4506
▁resume	-12.4506
▁mediocr	-12.4506
▁enroll	-12.4506
▁magnify	-12.4506
▁rooftop	-12.4506
▁photoshop	-12.4506
▁campfire	-12.4506
▁relocate	-12.4506
▁nomad	-12.4506
▁wilson	-12.4506
▁reception	-12.4506
▁chore	-12.4506
▁mahmo	-12.4506
▁verify	-12.4506
▁irish	-12.4507
▁forehead	-12.4507
▁pedal	-12.4507
▁vienn	-12.4507
▁flour	-12.4507
▁cubicle	-12.4508
▁motive	-12.4508
▁shove	-12.4508
▁distinctive	-12.4508
▁forager	-12.4508
▁reshape	-12.4509
▁simulator	-12.4509
▁portland	-12.4509
▁classifi	-12.4509
▁uncover	-12.4509
▁senator	-12.4509
▁89	-12.451
▁handwrit	-12.4511
▁garment	-12.4512
▁beheading	-12.4512
▁gaga	-12.4513
▁underlie	-12.4515
▁quiz	-12.4516
▁reluctant	-12.4517
▁fitting	-12.4517
▁unify	-12.4518
▁galo	-12.4518
▁superintelligen	-12.4519
▁wetland	-12.452
▁reconcile	-12.4521
▁judg	-12.4521
▁memorabl	-12.4521
▁solidari	-12.4522
▁coil	-12.4526
▁atlas	-12.4527
▁megacit	-12.4527
▁toaster	-12.4528
▁uber	-12.4532
▁energiz	-12.4534
▁extraction	-12.4536
colonial	-12.454
▁condens	-12.4544
spot	-12.4546
▁ovari	-12.4546
▁seventy	-12.4547
▁daf	-12.4553
▁trickle	-12.4554
▁fal	-12.4555
▁preventable	-12.4567
▁sixty	-12.4569
▁announcer	-12.4574
88	-12.4576
anny	-12.4598
structure	-12.4599
▁sewer	-12.46
dale	-12.4606
eater	-12.4607
▁plantation	-12.4611
urdy	-12.462
▁pisa	-12.462
▁biomedic	-12.4624
▁geolog	-12.4627
▁bik	-12.4628
▁snapp	-12.463
rock	-12.464
▁apolog	-12.4641
▁broc	-12.4641
enberg	-12.4643
▁tickle	-12.4646
▁westerner	-12.4666
▁clarif	-12.4672
▁medica	-12.4674
rsw	-12.4684
▁discour	-12.4697
opter	-12.4701
▁defi	-12.4705
▁nurs	-12.4708
ffer	-12.4745
▁mediate	-12.4753
▁slid	-12.4761
▁proportional	-12.4777
axis	-12.4824
▁pon	-12.4825
uous	-12.4831
mission	-12.4844
brush	-12.4851
fifth	-12.4853
▁compensat	-12.4854
terroris	-12.4854
belief	-12.4854
healthy	-12.4854
chemical	-12.4854
large	-12.4855
performance	-12.4856
seven	-12.4862
plank	-12.4862
plain	-12.4867
▁crowdsourc	-12.487
plication	-12.4872
▁functionalit	-12.4896
▁sank	-12.491
lbert	-12.4918
action	-12.4925
ggy	-12.4931
▁plausib	-12.494
▁vr	-12.4948
▁distract	-12.4948
credible	-12.4953
▁sip	-12.4962
stick	-12.4969
nki	-12.498
pher	-12.4981
spectr	-12.4987
▁brillian	-12.5
▁reimagine	-12.5027
▁numb	-12.5038
▁crumbl	-12.5053
▁influen	-12.5054
▁peripher	-12.5055
▁prevalen	-12.5057
bertie	-12.5057
sufficien	-12.5059
▁amplify	-12.5061
▁astrolabe	-12.5061
▁aurora	-12.5061
▁cheetah	-12.5061
▁diabetic	-12.5061
▁dilut	-12.5061
▁expenditure	-12.5061
▁extrapolat	-12.5061
▁hondura	-12.5061
▁insecticide	-12.5061
▁katrina	-12.5061
▁mangrove	-12.5061
▁menstruati	-12.5061
▁metaboliz	-12.5061
▁miraculous	-12.5061
▁morocc	-12.5061
▁pavilion	-12.5061
▁pentagon	-12.5061
▁pluripotent	-12.5061
▁puzzling	-12.5061
▁quark	-12.5061
▁rehearsal	-12.5061
▁rupee	-12.5061
▁supernova	-12.5061
▁supplement	-12.5061
▁tadpole	-12.5061
▁vibrant	-12.5061
▁wednesday	-12.5061
▁whiske	-12.5061
▁yogurt	-12.5061
▁inferior	-12.5061
▁rejuvenat	-12.5061
▁stockpile	-12.5061
▁dizzy	-12.5061
▁intertwin	-12.5061
▁perfume	-12.5061
▁notorious	-12.5061
▁vaccination	-12.5061
▁indulge	-12.5061
▁nudge	-12.5061
dispens	-12.5061
▁nickname	-12.5061
▁sushi	-12.5061
▁charisma	-12.5061
▁oscar	-12.5061
▁cursor	-12.5061
▁sabbatical	-12.5061
▁palace	-12.5061
▁embody	-12.5061
▁enlist	-12.5061
▁vague	-12.5061
▁rumor	-12.5061
▁jackson	-12.5061
▁dividend	-12.5061
▁holoc	-12.5061
vantage	-12.5061
elusive	-12.5061
▁fond	-12.5062
▁renew	-12.5062
▁autops	-12.5062
▁latitude	-12.5062
▁mutate	-12.5062
▁grove	-12.5062
▁paleontologist	-12.5062
▁blackberry	-12.5062
guay	-12.5063
▁rodent	-12.5063
▁clash	-12.5063
▁milestone	-12.5063
▁rebound	-12.5063
▁droplet	-12.5064
ouver	-12.5064
▁distraction	-12.5065
▁roam	-12.5065
▁rug	-12.5065
▁fax	-12.5066
▁abyss	-12.5066
▁forgiveness	-12.5066
ache	-12.5066
▁1920	-12.5066
▁disappointment	-12.5066
▁skydiv	-12.5067
▁84	-12.5067
▁dislike	-12.5067
▁ecologist	-12.5067
▁gateway	-12.5068
▁oceanograph	-12.5069
▁1982	-12.5069
▁stockhol	-12.507
▁activation	-12.507
junction	-12.507
▁fatty	-12.507
▁imam	-12.5071
▁clark	-12.5072
▁relational	-12.5073
▁attachment	-12.5073
zhen	-12.5074
▁stent	-12.5074
▁narrat	-12.5075
▁ubu	-12.5078
▁disruption	-12.508
▁browse	-12.508
▁islamist	-12.5081
▁barry	-12.5082
▁advancement	-12.5083
due	-12.5083
▁massage	-12.5087
▁hp	-12.5095
▁swell	-12.5103
▁husk	-12.5103
▁mmm	-12.5104
shaw	-12.5106
▁hail	-12.5107
rdin	-12.511
▁mao	-12.5112
▁commissioner	-12.5115
viv	-12.5122
▁dull	-12.5122
bule	-12.5123
▁hw	-12.5124
▁instrumental	-12.5126
aust	-12.5135
pack	-12.5137
becca	-12.5145
feld	-12.5148
▁doodle	-12.516
▁nih	-12.5162
▁leverag	-12.5173
▁carbonate	-12.5182
▁lend	-12.5188
▁discourag	-12.5197
▁golfer	-12.52
▁methodolog	-12.5212
▁diplomatic	-12.5219
loid	-12.5241
▁pest	-12.5246
▁withdraw	-12.5261
imag	-12.5263
▁financ	-12.5265
▁unwa	-12.527
idden	-12.5273
▁persisten	-12.5279
▁evaporat	-12.5282
▁bir	-12.5291
consum	-12.5301
▁hostilit	-12.5309
most	-12.5334
ronto	-12.5334
cocc	-12.5367
▁comb	-12.539
▁5.	-12.5412
▁styl	-12.5415
after	-12.5432
▁tub	-12.5434
present	-12.544
determin	-12.5441
eight	-12.5442
correct	-12.5442
typical	-12.5442
organic	-12.5443
carbon	-12.5443
turn	-12.5443
machine	-12.5443
ocean	-12.5443
process	-12.5443
shine	-12.5444
growth	-12.5451
▁mello	-12.5451
fuel	-12.5452
quarter	-12.5466
▁penetrat	-12.5471
▁blur	-12.5478
writer	-12.5494
▁missi	-12.5501
▁remark	-12.5506
▁periodic	-12.5529
mira	-12.553
hik	-12.5534
▁stripe	-12.5534
spiring	-12.5547
▁accr	-12.5612
▁patric	-12.562
▁filmmak	-12.5622
▁imperfect	-12.5644
▁speculati	-12.5645
aggressi	-12.5648
▁lexico	-12.5649
▁horrify	-12.5649
▁bulldoz	-12.5649
▁refresh	-12.5649
▁segregat	-12.5649
▁uplift	-12.5649
▁abolish	-12.5649
▁appetite	-12.5649
▁athletic	-12.5649
▁bailout	-12.5649
▁boulder	-12.5649
▁bundle	-12.5649
▁burglar	-12.5649
▁cruise	-12.5649
▁cumulative	-12.5649
▁daydream	-12.5649
▁detergent	-12.5649
▁devastation	-12.5649
▁ecuador	-12.5649
▁exoplanet	-12.5649
▁guatemala	-12.5649
▁papaya	-12.5649
▁plaster	-12.5649
▁practitioner	-12.5649
▁precursor	-12.5649
▁psychotherap	-12.5649
▁railroad	-12.5649
▁reconfigur	-12.5649
▁retrospect	-12.5649
▁semester	-12.5649
▁seroton	-12.5649
▁shrunk	-12.5649
▁suspens	-12.5649
▁thursday	-12.5649
▁transcript	-12.5649
▁valentine	-12.5649
▁arrogan	-12.5649
▁astounding	-12.5649
▁churn	-12.5649
▁dementia	-12.5649
▁imprison	-12.5649
▁persecut	-12.5649
▁probation	-12.5649
▁prompt	-12.5649
▁provoke	-12.5649
▁sargass	-12.5649
▁staple	-12.5649
▁virulen	-12.5649
▁artisan	-12.5649
▁hispanic	-12.5649
▁irritat	-12.5649
▁snail	-12.5649
▁windmill	-12.5649
▁orchard	-12.5649
▁daunt	-12.5649
▁reign	-12.5649
▁repuls	-12.5649
▁tweak	-12.5649
▁cherish	-12.5649
▁mound	-12.5649
▁savage	-12.5649
▁douglas	-12.5649
▁evoke	-12.5649
▁snack	-12.5649
▁prosthes	-12.5649
▁ellip	-12.5649
▁champa	-12.5649
▁disclosure	-12.5649
▁grizzl	-12.5649
▁relay	-12.5649
:30	-12.5649
▁radiologist	-12.5649
▁dissent	-12.5649
▁rosling	-12.5649
▁hocke	-12.5649
▁alexandria	-12.5649
▁censorship	-12.5649
▁99.9	-12.5649
umann	-12.5649
▁crease	-12.565
▁anthon	-12.565
▁devou	-12.565
▁salad	-12.565
▁nanoscale	-12.565
▁residential	-12.565
▁spear	-12.565
▁fantasi	-12.565
▁shoreline	-12.565
▁panama	-12.565
▁perpetrator	-12.5651
▁excessive	-12.5651
▁facade	-12.5651
▁sunset	-12.5651
▁graceful	-12.5651
▁bloodstream	-12.5651
▁pacemaker	-12.5651
▁bride	-12.5652
▁passport	-12.5652
▁reverberat	-12.5653
▁speculation	-12.5653
▁torch	-12.5654
▁coward	-12.5655
hran	-12.5655
▁curb	-12.5655
▁promotion	-12.5656
▁strawberr	-12.5657
▁chant	-12.5657
▁decoration	-12.5657
▁testify	-12.5658
rajan	-12.5659
▁9,000	-12.566
▁crisp	-12.5661
▁cortic	-12.5662
phyl	-12.5663
▁numerical	-12.5663
▁flatten	-12.5663
shire	-12.5663
▁birch	-12.5664
▁loneli	-12.5666
▁assert	-12.5666
▁centi	-12.5668
▁tailor	-12.5671
▁descen	-12.5674
▁directive	-12.5675
▁khan	-12.5676
▁idol	-12.5677
▁shovel	-12.5679
▁arrival	-12.5684
▁malignan	-12.5688
percussion	-12.5689
▁preacher	-12.569
zk	-12.5691
▁fearless	-12.5701
▁oas	-12.5706
▁dropout	-12.5707
▁welcom	-12.5728
▁hugg	-12.5735
▁vine	-12.5741
▁relat	-12.5745
▁execut	-12.5755
▁harrie	-12.5756
▁accentu	-12.5773
helve	-12.5818
,3	-12.5825
natal	-12.5832
▁82	-12.5845
▁reverb	-12.5851
▁invisib	-12.5864
▁braver	-12.5866
▁subsidiz	-12.5871
▁antiqu	-12.5876
▁synthesiz	-12.5904
aki	-12.5927
rset	-12.5928
post	-12.5931
respective	-12.595
iff	-12.5961
▁trini	-12.6004
▁urbaniz	-12.6037
▁gand	-12.6057
▁temporari	-12.6062
tooth	-12.6066
industrial	-12.6067
sound	-12.6068
birth	-12.6068
grand	-12.6068
condition	-12.6068
grain	-12.6068
focus	-12.6068
evolv	-12.6068
mouth	-12.6069
blood	-12.6071
party	-12.6071
storm	-12.6071
speak	-12.6072
letter	-12.6075
organization	-12.6077
▁mcca	-12.6079
fitted	-12.6088
throw	-12.6088
personal	-12.6088
range	-12.6093
▁fabricate	-12.6111
▁rattl	-12.6123
▁reflectiv	-12.6124
cca	-12.6125
▁categorize	-12.6125
▁decompos	-12.6128
▁modul	-12.6129
▁dogma	-12.6141
▁chop	-12.6161
▁cite	-12.6171
▁rov	-12.6195
▁midwest	-12.6207
▁celebrit	-12.6225
ivo	-12.6232
▁miniatur	-12.6242
▁juli	-12.6249
▁analytic	-12.6249
name	-12.6253
▁desperat	-12.6253
▁slam	-12.6255
meer	-12.6266
▁erupt	-12.6269
▁appoint	-12.6272
▁shack	-12.6274
▁temperat	-12.6274
▁autobiograph	-12.6274
▁disintegrat	-12.6274
▁unravel	-12.6274
fifteen	-12.6274
jazeera	-12.6274
▁administrative	-12.6274
▁aerodynamic	-12.6274
▁antidepressant	-12.6274
▁arthriti	-12.6274
▁bankrupt	-12.6274
▁constellation	-12.6274
▁decisive	-12.6274
▁disguise	-12.6274
▁gospel	-12.6274
▁hijack	-12.6274
▁kuwait	-12.6274
▁leisure	-12.6274
▁malaysia	-12.6274
▁microorganism	-12.6274
▁misconception	-12.6274
▁mitochondria	-12.6274
▁moisture	-12.6274
▁neurologist	-12.6274
▁neutrino	-12.6274
▁nikola	-12.6274
▁outweigh	-12.6274
▁paycheck	-12.6274
▁plummet	-12.6274
▁portfolio	-12.6274
▁pragmatic	-12.6274
▁semantic	-12.6274
▁sequester	-12.6274
▁sociologist	-12.6274
▁sophistication	-12.6274
▁sprinkle	-12.6274
▁stubborn	-12.6274
▁suspicion	-12.6274
▁synonym	-12.6274
▁thermostat	-12.6274
▁thirst	-12.6274
▁wrinkle	-12.6274
▁airbag	-12.6274
▁braille	-12.6274
▁brochure	-12.6274
▁bruise	-12.6274
▁immoral	-12.6274
▁indefinite	-12.6274
▁mitigate	-12.6274
▁napkin	-12.6274
▁pandora	-12.6274
▁vigil	-12.6274
▁clerk	-12.6274
▁cowboy	-12.6274
▁handbag	-12.6274
▁nominate	-12.6274
▁schwarz	-12.6274
▁scoop	-12.6274
▁tuition	-12.6274
▁orgasm	-12.6274
▁freud	-12.6274
▁maslow	-12.6274
▁shaman	-12.6274
▁webcam	-12.6274
▁detain	-12.6274
culus	-12.6274
▁dazzl	-12.6274
▁shuttle	-12.6274
▁stalin	-12.6274
▁endemic	-12.6274
▁benchmark	-12.6274
▁lexicograph	-12.6274
▁trumpet	-12.6274
▁bookstore	-12.6274
▁decay	-12.6274
▁amplifie	-12.6274
▁duct	-12.6274
▁craftsman	-12.6274
archie	-12.6274
▁beaver	-12.6274
▁unchar	-12.6274
▁clunk	-12.6274
▁sciss	-12.6274
ocular	-12.6274
▁oops	-12.6274
▁sentien	-12.6274
▁cohesi	-12.6274
▁monstro	-12.6274
▁kelly	-12.6274
▁mailbox	-12.6275
▁wiki	-12.6275
▁progeri	-12.6275
▁niche	-12.6275
▁1908	-12.6275
▁fridge	-12.6275
▁inhabitant	-12.6275
▁reliev	-12.6275
▁dragline	-12.6276
▁aisle	-12.6276
▁boeing	-12.6276
▁predominant	-12.6276
▁foolish	-12.6276
▁remedi	-12.6277
▁blair	-12.6277
▁wobbl	-12.6277
▁implie	-12.6277
▁repressi	-12.6277
▁unpack	-12.6277
▁impairment	-12.6277
▁classify	-12.6278
▁pigmentation	-12.6278
▁imperfection	-12.6278
ludge	-12.6279
▁clinician	-12.628
▁kamen	-12.6281
▁knitt	-12.6281
▁firework	-12.6281
▁roar	-12.6281
trude	-12.6283
▁backpack	-12.6284
▁baha	-12.6285
▁distortion	-12.6286
▁buffer	-12.6287
ocation	-12.6288
▁competenc	-12.6288
▁thickness	-12.6288
▁humanoid	-12.6288
atomic	-12.6292
▁downward	-12.6296
▁ponder	-12.6297
zra	-12.6298
▁converse	-12.63
agnes	-12.63
▁ashle	-12.63
▁awaken	-12.6301
▁jp	-12.6309
▁moderat	-12.6312
fabricat	-12.6317
▁cb	-12.6331
▁coch	-12.6332
▁clam	-12.6333
eller	-12.6334
▁paradoxical	-12.6335
▁geneticist	-12.6344
▁advisor	-12.6346
eastern	-12.6348
▁dumm	-12.6357
▁investigati	-12.6357
heim	-12.6362
▁arrang	-12.6364
▁preferr	-12.6369
▁wav	-12.637
▁fist	-12.6373
argon	-12.6383
▁transmitter	-12.639
▁chopp	-12.6392
▁spectra	-12.6401
▁curate	-12.6407
▁yak	-12.6411
▁credi	-12.6438
▁wiggl	-12.6449
▁incorporat	-12.6457
entity	-12.6463
neil	-12.6466
vanc	-12.6477
▁culminat	-12.6491
▁algorithmic	-12.6492
▁gasp	-12.6493
maryland	-12.6501
ipped	-12.654
hitler	-12.6562
▁collaps	-12.6593
▁ethnicit	-12.6609
▁gravel	-12.6653
▁paw	-12.6662
▁tease	-12.667
anti	-12.6694
▁wha	-12.6715
design	-12.6732
computer	-12.6734
infect	-12.6734
sexual	-12.6734
voice	-12.6734
definition	-12.6734
famous	-12.6734
different	-12.6735
thousand	-12.6735
your	-12.6736
task	-12.6737
nya	-12.6743
loop	-12.6744
adequate	-12.6758
▁commentar	-12.6758
ficial	-12.676
bureaucratic	-12.6774
rital	-12.6782
▁nurser	-12.6808
▁mb	-12.6827
proc	-12.6841
▁coma	-12.6843
▁tacti	-12.6852
haired	-12.6866
aggregat	-12.6867
▁multiplicati	-12.6874
▁franc	-12.6884
itan	-12.6889
exercis	-12.6915
▁convers	-12.6916
▁disast	-12.692
▁deplet	-12.6936
variabl	-12.6936
▁anonym	-12.6939
nclusion	-12.6939
▁magnifi	-12.694
▁handcuff	-12.694
▁barbecue	-12.694
▁biomimic	-12.694
▁chernobyl	-12.694
▁coconut	-12.694
▁crucifi	-12.694
▁desalinat	-12.694
▁discharge	-12.694
▁discount	-12.694
▁emperor	-12.694
▁fragrance	-12.694
▁hologram	-12.694
▁holographic	-12.694
▁locus	-12.694
▁matthew	-12.694
▁mitchell	-12.694
▁nephew	-12.694
▁pajama	-12.694
▁pendulum	-12.694
▁pianist	-12.694
▁pinnacle	-12.694
▁preoccup	-12.694
▁quantify	-12.694
▁reintroduc	-12.694
▁relentless	-12.694
▁ridicule	-12.694
▁rifle	-12.694
▁scrutin	-12.694
▁senegal	-12.694
▁soybean	-12.694
▁spectacle	-12.694
▁spreadsheet	-12.694
▁squirrel	-12.694
▁squish	-12.694
multipotentialit	-12.694
trophy	-12.694
▁archetyp	-12.694
▁breeze	-12.694
▁colonoscop	-12.694
▁defecat	-12.694
▁encompass	-12.694
▁leapfrog	-12.694
▁repositor	-12.694
▁taxonom	-12.694
▁widow	-12.694
▁yahoo	-12.694
clamation	-12.694
▁erotic	-12.694
▁prairie	-12.694
▁prehistor	-12.694
▁prophec	-12.694
▁sneez	-12.694
▁betrayal	-12.694
hhhh	-12.694
▁caution	-12.694
▁incision	-12.694
▁maurit	-12.694
▁sprout	-12.694
▁enigma	-12.694
▁dimitr	-12.694
▁spoon	-12.694
▁alchem	-12.694
▁ballast	-12.6941
▁frantic	-12.6941
▁barric	-12.6941
▁duplicate	-12.6941
▁antiretroviral	-12.6941
▁morgan	-12.6941
▁humpback	-12.6941
anguish	-12.6941
▁chainsaw	-12.6941
▁ascend	-12.6941
▁litigat	-12.6941
▁pinpoint	-12.6941
▁prominent	-12.6941
▁subscribe	-12.6941
▁dreadful	-12.6941
▁furious	-12.6941
▁facilitator	-12.6941
▁monopol	-12.6941
▁vertebrate	-12.6942
▁contingen	-12.6942
▁musk	-12.6942
▁dread	-12.6942
▁donald	-12.6942
▁haze	-12.6942
▁neurosurgeon	-12.6942
▁maze	-12.6942
▁rude	-12.6942
▁stride	-12.6942
▁reframe	-12.6943
▁recit	-12.6943
▁coerci	-12.6943
brahim	-12.6943
▁blindfold	-12.6943
▁deput	-12.6943
annie	-12.6943
▁comparative	-12.6943
▁exert	-12.6943
▁eyeball	-12.6943
▁shackle	-12.6943
▁prolong	-12.6943
▁soundscape	-12.6943
▁sunny	-12.6944
▁lyric	-12.6944
▁seren	-12.6944
chlor	-12.6944
▁saul	-12.6944
hex	-12.6944
▁conform	-12.6945
▁litter	-12.6945
▁landmine	-12.6945
▁eruption	-12.6945
▁solu	-12.6945
▁hawaiian	-12.6945
▁peripheral	-12.6947
▁minne	-12.6947
▁1983	-12.6948
▁deform	-12.6948
▁turbo	-12.6948
▁grandpa	-12.6948
▁dataset	-12.6948
▁declaration	-12.6948
▁stroma	-12.6948
▁ddt	-12.6949
▁sculptor	-12.695
▁cosmologist	-12.695
▁faithful	-12.695
▁dung	-12.695
▁raft	-12.6951
▁cyclist	-12.6951
▁knight	-12.6951
▁cryptograph	-12.6952
▁hostage	-12.6952
▁flatter	-12.6952
▁elevation	-12.6952
▁24,000	-12.6952
▁93	-12.6953
▁offset	-12.6954
▁termite	-12.6955
▁uran	-12.6955
▁applica	-12.6956
▁deadline	-12.6956
▁voyager	-12.6957
▁tangle	-12.6958
▁yemeni	-12.6959
▁siren	-12.6961
▁weaken	-12.6961
vich	-12.6964
▁volatile	-12.6964
▁simplifie	-12.6965
teau	-12.6965
polis	-12.6966
▁resourceful	-12.6968
▁bleach	-12.6969
▁lb	-12.697
▁poacher	-12.6971
▁perpetual	-12.6992
▁lifesav	-12.6996
▁commut	-12.6996
▁pakistani	-12.6998
▁batch	-12.7
▁measurabl	-12.7003
luke	-12.7019
▁empathize	-12.702
▁inertia	-12.7021
course	-12.7023
▁ensur	-12.7042
▁pois	-12.7062
▁utiliz	-12.707
▁masa	-12.7071
▁miniaturiz	-12.7088
habi	-12.7092
▁nutritional	-12.7134
marin	-12.7142
riel	-12.7216
▁ranch	-12.7226
void	-12.7245
▁strapp	-12.7274
location	-12.7323
▁archiv	-12.7336
spiration	-12.7359
▁considerabl	-12.7374
▁deceiv	-12.7382
▁interdependen	-12.7409
heard	-12.7415
ozoi	-12.7415
digit	-12.7446
convenient	-12.7446
blown	-12.7447
verbal	-12.7447
global	-12.7449
billion	-12.7449
spoke	-12.745
living	-12.7459
pour	-12.7462
▁matur	-12.7467
imi	-12.7482
▁interdependenc	-12.7496
catch	-12.75
scence	-12.7502
activat	-12.7508
▁palli	-12.7509
flection	-12.7513
immer	-12.7516
enhanc	-12.7538
▁outfit	-12.7542
▁stunn	-12.7552
netra	-12.7553
▁innocen	-12.7558
▁spher	-12.7558
urance	-12.7559
▁chape	-12.7575
▁hobb	-12.7608
▁diverge	-12.7614
▁swin	-12.7624
▁columb	-12.7632
▁instruct	-12.7647
▁glide	-12.7648
▁intersect	-12.7651
▁horrifi	-12.7651
▁symbio	-12.7653
▁sabbat	-12.7654
▁gravitat	-12.7655
▁eject	-12.7655
▁annihilat	-12.7655
▁decipher	-12.7655
▁diffusion	-12.7655
▁evacuat	-12.7655
▁exxon	-12.7655
▁hyperbolic	-12.7655
▁scribbl	-12.7655
▁surpass	-12.7655
extraterrestrial	-12.7655
neurotransmitter	-12.7655
▁adhesive	-12.7655
▁amoeba	-12.7655
▁amputation	-12.7655
▁apprentice	-12.7655
▁bueno	-12.7655
▁detriment	-12.7655
▁drastic	-12.7655
▁exclusion	-12.7655
▁granddaughter	-12.7655
▁hydrant	-12.7655
▁isotope	-12.7655
▁jirga	-12.7655
▁johannes	-12.7655
▁kilowatt	-12.7655
▁latrine	-12.7655
▁lightbulb	-12.7655
▁logarithm	-12.7655
▁mismatch	-12.7655
▁mockingbird	-12.7655
▁monaster	-12.7655
▁monologue	-12.7655
▁neutron	-12.7655
▁norwegian	-12.7655
▁nugget	-12.7655
▁ominous	-12.7655
▁perimeter	-12.7655
▁precaution	-12.7655
▁protagonist	-12.7655
▁proteomic	-12.7655
▁redistribut	-12.7655
▁registr	-12.7655
▁rudder	-12.7655
▁salamander	-12.7655
▁seductive	-12.7655
▁simpson	-12.7655
▁spectroscop	-12.7655
▁terabyte	-12.7655
▁treadmill	-12.7655
▁trespass	-12.7655
▁troubling	-12.7655
▁truffle	-12.7655
▁vodka	-12.7655
▁apocalyp	-12.7655
▁cassette	-12.7655
▁cocoon	-12.7655
▁crippl	-12.7655
▁eloquent	-12.7655
▁kidnapping	-12.7655
▁monolith	-12.7655
▁reunite	-12.7655
▁scrub	-12.7655
▁teapot	-12.7655
▁brink	-12.7655
▁hardwir	-12.7655
▁modalit	-12.7655
▁enact	-12.7655
▁rachel	-12.7655
▁compact	-12.7655
▁gloss	-12.7655
▁inequit	-12.7655
▁profan	-12.7655
▁teammate	-12.7655
▁fanatic	-12.7655
▁lynch	-12.7655
▁glance	-12.7655
▁rearrange	-12.7655
▁buoy	-12.7655
▁grappl	-12.7655
▁strangl	-12.7655
▁latter	-12.7655
▁nancy	-12.7655
▁floren	-12.7655
scient	-12.7655
▁impatient	-12.7655
▁mistrust	-12.7655
▁dubai	-12.7655
▁overdose	-12.7655
▁trance	-12.7655
▁atrocit	-12.7655
▁internship	-12.7655
▁viking	-12.7655
▁expir	-12.7655
▁misunderstand	-12.7655
▁spoil	-12.7656
▁marginaliz	-12.7656
▁bryan	-12.7656
▁framing	-12.7656
▁gunshot	-12.7656
▁grandmaster	-12.7656
▁aspen	-12.7656
▁thula	-12.7656
▁gehr	-12.7656
▁owl	-12.7656
▁burger	-12.7656
▁symbiotic	-12.7656
▁editorial	-12.7656
solicit	-12.7656
▁mountaintop	-12.7656
▁submission	-12.7657
▁opium	-12.7657
▁quota	-12.7657
▁biograph	-12.7657
▁contextual	-12.7657
▁ahmed	-12.7658
▁nicole	-12.7658
▁typeface	-12.7658
▁demons	-12.7658
▁fellowship	-12.7658
▁revolt	-12.7658
hmer	-12.7658
▁delightful	-12.7658
▁siftable	-12.7658
▁heather	-12.7659
▁habituat	-12.7659
▁madam	-12.766
▁trickster	-12.766
▁tradeoff	-12.766
▁naj	-12.766
▁disturbance	-12.766
▁fluent	-12.7661
▁imitation	-12.7661
▁burk	-12.7662
▁exaggeration	-12.7662
▁accumulation	-12.7663
▁83	-12.7663
uaz	-12.7663
▁repel	-12.7663
▁unrelated	-12.7664
▁stigmatiz	-12.7664
▁1988	-12.7664
▁kerr	-12.7664
▁shutter	-12.7664
▁yang	-12.7664
austin	-12.7664
▁inoculat	-12.7665
▁cele	-12.7665
▁flux	-12.7666
ikea	-12.7666
▁pinch	-12.7667
▁beginner	-12.7667
▁prism	-12.7668
▁griev	-12.7668
▁tenure	-12.7669
▁terrace	-12.7669
▁caption	-12.767
▁attribut	-12.7672
▁colonialis	-12.7673
▁asperg	-12.7674
hypertensi	-12.7674
▁generalization	-12.7675
▁topograph	-12.7675
▁saucer	-12.7675
▁empti	-12.7677
▁philanthropist	-12.7679
kahn	-12.7679
▁yearning	-12.7679
western	-12.7682
▁remak	-12.7685
▁anatomical	-12.769
▁persuad	-12.7695
▁synthesizer	-12.7702
▁sailor	-12.7704
mitten	-12.7714
▁capsiz	-12.7718
semit	-12.772
spora	-12.7725
▁barbaric	-12.7725
▁whipp	-12.7725
▁sequ	-12.7731
▁resembl	-12.7733
hotom	-12.7735
▁harp	-12.7764
aylo	-12.7774
iform	-12.7864
▁hamp	-12.7873
▁triangula	-12.7878
ummy	-12.7906
▁marina	-12.7916
▁styr	-12.7923
bearing	-12.7963
▁mori	-12.797
ggie	-12.7994
etti	-12.7996
▁mandat	-12.8016
fusion	-12.8017
harmonic	-12.8036
▁jug	-12.8068
▁malari	-12.8075
▁battl	-12.8076
▁fiddle	-12.8089
erence	-12.8103
▁decreas	-12.8107
▁digesti	-12.8127
building	-12.8138
author	-12.816
ngue	-12.8195
planetary	-12.8216
fulfill	-12.8217
frame	-12.8217
normal	-12.8218
square	-12.8218
pattern	-12.8218
women	-12.8218
girl	-12.8218
scientific	-12.8219
balance	-12.8221
pilot	-12.8221
value	-12.8221
▁rubbl	-12.823
▁siz	-12.823
▁morpholog	-12.8256
acular	-12.8257
nesthetic	-12.8257
▁clan	-12.8258
:1	-12.8263
▁auntie	-12.8296
▁manu	-12.8299
ometric	-12.8304
▁aspirin	-12.8341
▁patron	-12.8345
supervis	-12.8345
bai	-12.8352
iscons	-12.8353
▁elegan	-12.8367
▁proxim	-12.839
▁reset	-12.8391
▁buff	-12.8404
▁mathematica	-12.8416
vaccin	-12.8418
▁dysfunction	-12.8419
▁dissect	-12.842
▁cleve	-12.8421
▁roug	-12.8422
▁prolif	-12.8424
▁escort	-12.8424
▁repurpos	-12.8424
▁skyrocket	-12.8424
▁afflict	-12.8424
▁chimney	-12.8424
▁clutch	-12.8424
▁comprehend	-12.8424
▁constituenc	-12.8424
▁definitive	-12.8424
▁dyslexi	-12.8424
▁embodiment	-12.8424
▁fatigue	-12.8424
▁frown	-12.8424
▁hitchhik	-12.8424
▁hospice	-12.8424
▁intermediar	-12.8424
▁introspecti	-12.8424
▁kafka	-12.8424
▁kiosk	-12.8424
▁kurzweil	-12.8424
▁lolcat	-12.8424
▁majest	-12.8424
▁medicinal	-12.8424
▁mozambi	-12.8424
▁murmur	-12.8424
▁oblivio	-12.8424
▁orthopedic	-12.8424
▁overestimate	-12.8424
▁papua	-12.8424
▁paraphras	-12.8424
▁phosphor	-12.8424
▁phthalate	-12.8424
▁pistol	-12.8424
▁provocative	-12.8424
▁pulmo	-12.8424
▁quadruple	-12.8424
▁rehearse	-12.8424
▁schematic	-12.8424
▁spaghetti	-12.8424
▁squash	-12.8424
▁squirt	-12.8424
▁striving	-12.8424
▁synagogue	-12.8424
▁transgress	-12.8424
▁twitch	-12.8424
▁unwilling	-12.8424
▁vocational	-12.8424
▁windshield	-12.8424
conceivabl	-12.8424
▁conjure	-12.8424
▁epoch	-12.8424
▁gabriel	-12.8424
▁multimedia	-12.8424
▁procrastinat	-12.8424
▁rebellion	-12.8424
▁bunker	-12.8424
▁dexter	-12.8424
▁reckon	-12.8424
▁recline	-12.8424
▁solomon	-12.8424
▁steroid	-12.8424
▁stutter	-12.8424
▁permeate	-12.8424
▁cramm	-12.8424
▁evolutionarily	-12.8424
▁ravage	-12.8424
▁1,800	-12.8424
▁shareholder	-12.8424
▁forensic	-12.8424
▁paddle	-12.8424
▁unconditional	-12.8424
▁crutch	-12.8424
▁dwindl	-12.8424
▁evangelical	-12.8424
▁sledge	-12.8424
▁clogg	-12.8424
▁cpu	-12.8424
▁hustle	-12.8424
▁rhinovirus	-12.8424
▁fringe	-12.8424
cautious	-12.8424
▁cornell	-12.8424
▁cruz	-12.8424
▁videotape	-12.8424
▁archeolog	-12.8424
▁enclosure	-12.8424
▁eames	-12.8424
▁immunize	-12.8424
▁motel	-12.8424
▁pledge	-12.8424
▁tremor	-12.8424
▁mongolia	-12.8424
▁hanna	-12.8424
▁kettle	-12.8424
▁deception	-12.8424
▁joystick	-12.8424
▁utilitarian	-12.8424
▁dialect	-12.8424
▁sensual	-12.8424
▁pediatrician	-12.8425
▁tractor	-12.8425
▁ankle	-12.8425
▁paintbrush	-12.8425
▁blush	-12.8425
▁carving	-12.8425
▁joking	-12.8425
▁hotspot	-12.8425
▁angola	-12.8425
▁archer	-12.8425
▁proactive	-12.8425
▁scrapper	-12.8425
▁compulsive	-12.8425
▁peacekeep	-12.8425
▁eeg	-12.8425
▁scripture	-12.8426
▁hunk	-12.8426
▁assay	-12.8426
▁flashlight	-12.8426
▁hopkin	-12.8426
▁furby	-12.8426
▁ryan	-12.8426
▁hippo	-12.8426
▁plow	-12.8426
▁appointment	-12.8426
▁haircut	-12.8427
▁immu	-12.8427
▁crane	-12.8427
▁emanat	-12.8427
▁pcb	-12.8427
▁keyhole	-12.8427
▁proverb	-12.8427
▁nash	-12.8427
▁actress	-12.8428
▁geoff	-12.8428
▁equate	-12.8429
▁depletion	-12.8429
▁dissection	-12.8429
▁kendal	-12.843
▁memetic	-12.843
▁skycar	-12.843
▁cannon	-12.8431
▁ferment	-12.8432
▁glider	-12.8432
▁schizophrenic	-12.8434
▁guru	-12.8436
▁graze	-12.8437
▁invert	-12.8438
rudi	-12.8439
▁diar	-12.844
▁geopolitical	-12.8441
▁quarti	-12.8444
epsi	-12.845
▁tenaci	-12.8454
▁communicator	-12.846
▁standardize	-12.846
▁chemo	-12.8461
righteous	-12.8466
▁cyr	-12.8472
▁canoe	-12.8476
▁conservationist	-12.8486
enuous	-12.8487
▁telegraph	-12.8492
▁cynical	-12.8496
▁shadi	-12.8508
▁ruf	-12.8514
▁palpa	-12.8526
▁rumi	-12.8532
otto	-12.8535
kiva	-12.8574
▁stac	-12.8585
▁entr	-12.8592
▁dangl	-12.8595
▁squeez	-12.8599
▁acu	-12.8608
celsi	-12.862
▁bureaucrat	-12.862
biotic	-12.863
layer	-12.8639
geist	-12.8663
▁eugen	-12.8729
▁maha	-12.8746
auru	-12.8773
nnett	-12.878
▁pessimis	-12.8812
▁expo	-12.8824
▁gav	-12.8824
▁readi	-12.8828
istence	-12.8864
▁debat	-12.8882
▁unchang	-12.8953
▁scu	-12.8992
connected	-12.9023
natural	-12.9048
▁babe	-12.9049
▁junkie	-12.9049
portrait	-12.905
conventional	-12.905
evolution	-12.905
frequenc	-12.9051
through	-12.9051
bank	-12.9051
important	-12.9051
business	-12.9052
heav	-12.9052
woman	-12.906
▁rebuil	-12.9121
▁paleo	-12.9149
▁jami	-12.9154
▁accord	-12.9155
▁energ	-12.9163
▁internalize	-12.9198
▁brak	-12.9215
▁dynam	-12.9217
▁somali	-12.9218
▁liabilit	-12.9219
▁horribl	-12.9236
▁fragil	-12.9236
▁nutritio	-12.9244
▁unknow	-12.9247
▁hallucinat	-12.9253
anthrop	-12.9253
▁legitima	-12.9256
ecutive	-12.9257
▁tempo	-12.9257
▁commemorat	-12.9257
▁blossom	-12.9257
▁botanical	-12.9257
▁bullshit	-12.9257
▁calibrat	-12.9257
▁calligraph	-12.9257
▁dispatch	-12.9257
▁infiltrat	-12.9257
▁intractable	-12.9257
▁pluck	-12.9257
▁punctuat	-12.9257
▁regress	-12.9257
▁accelerometer	-12.9257
▁administrator	-12.9257
▁adrenalin	-12.9257
▁amygdala	-12.9257
▁approximation	-12.9257
▁bachelor	-12.9257
▁buckminster	-12.9257
▁complacen	-12.9257
▁constituent	-12.9257
▁discontinu	-12.9257
▁dominance	-12.9257
▁engulf	-12.9257
▁exoskeleton	-12.9257
▁faiza	-12.9257
▁furnace	-12.9257
▁futurist	-12.9257
▁gelatin	-12.9257
▁ghetto	-12.9257
▁heterosexual	-12.9257
▁illinois	-12.9257
▁immunization	-12.9257
▁juxtaposition	-12.9257
▁loudspeaker	-12.9257
▁masculin	-12.9257
▁metropolis	-12.9257
▁negro	-12.9257
▁opossum	-12.9257
▁pebble	-12.9257
▁phantom	-12.9257
▁pilgrimage	-12.9257
▁pleuro	-12.9257
▁questionnaire	-12.9257
▁reciprocal	-12.9257
▁recombin	-12.9257
▁remnant	-12.9257
▁reservation	-12.9257
▁sausage	-12.9257
▁scooter	-12.9257
▁scrambl	-12.9257
▁snippet	-12.9257
▁snowflake	-12.9257
▁spectator	-12.9257
▁stakeholder	-12.9257
▁substrate	-12.9257
▁synerg	-12.9257
▁transcribe	-12.9257
▁umbrella	-12.9257
▁unbearabl	-12.9257
▁undoubted	-12.9257
▁vibrio	-12.9257
▁vigorous	-12.9257
▁whims	-12.9257
▁whirl	-12.9257
▁wretche	-12.9257
▁xenophobi	-12.9257
▁1929	-12.9257
▁additive	-12.9257
▁animator	-12.9257
▁clump	-12.9257
▁fascis	-12.9257
▁fratern	-12.9257
▁hiroshi	-12.9257
▁nevada	-12.9257
▁remorse	-12.9257
▁attentive	-12.9257
▁milkweed	-12.9257
▁possum	-12.9257
▁glenn	-12.9257
▁tidied	-12.9257
▁eternit	-12.9257
▁pavement	-12.9257
▁stalk	-12.9257
▁deficien	-12.9257
▁aperture	-12.9257
▁capillar	-12.9257
▁leuk	-12.9257
▁scaveng	-12.9257
▁patern	-12.9257
▁stitch	-12.9257
▁diaper	-12.9257
▁throne	-12.9257
▁smack	-12.9257
▁sliver	-12.9257
▁engrav	-12.9258
▁imbalance	-12.9258
▁cedar	-12.9258
▁quotation	-12.9258
▁futil	-12.9258
▁silkworm	-12.9258
▁seduce	-12.9258
▁typograph	-12.9258
▁derivative	-12.9258
▁flake	-12.9258
▁precedent	-12.9258
▁revolv	-12.9258
▁qualitative	-12.9258
▁sequel	-12.9258
▁pudd	-12.9259
▁bionic	-12.9259
▁microsecond	-12.9259
▁fluke	-12.9259
▁sanction	-12.9259
▁doorstep	-12.9259
▁confound	-12.9259
▁proliferation	-12.9259
▁appall	-12.9259
▁cartograph	-12.926
▁slug	-12.926
▁revise	-12.926
▁convulsion	-12.926
▁interconnection	-12.926
▁defensive	-12.926
▁gluten	-12.9261
▁waitress	-12.9261
▁holland	-12.9261
▁apex	-12.9261
▁reassemble	-12.9262
assic	-12.9262
▁carpool	-12.9262
▁zeit	-12.9263
▁jabb	-12.9263
▁attendant	-12.9263
▁cofounde	-12.9265
olester	-12.9265
▁teme	-12.9266
▁hierarchical	-12.9266
ninsula	-12.9267
scow	-12.9271
▁fossilize	-12.9272
▁laparoscopic	-12.9275
▁flora	-12.9277
▁sdr	-12.9277
▁vici	-12.928
akash	-12.9282
▁endorse	-12.9289
▁muti	-12.9324
▁hyperactiv	-12.9336
icular	-12.9338
▁alienat	-12.9355
▁porch	-12.9404
addam	-12.9405
xie	-12.9419
▁synesthe	-12.9442
chai	-12.9445
empt	-12.947
▁exchang	-12.9473
▁grann	-12.9504
hindi	-12.9509
araj	-12.9593
▁decorati	-12.9602
husse	-12.9666
kipp	-12.9684
grader	-12.9691
rried	-12.9716
▁interpla	-12.9722
▁justifie	-12.9736
▁bubbl	-12.9756
morph	-12.9772
bmi	-12.9792
nyu	-12.983
▁idealis	-12.9842
▁parabol	-12.9895
dense	-12.9899
getting	-12.9903
▁innovat	-12.9921
▁centraliz	-12.9922
▁loyal	-12.9927
traumatic	-12.9956
conscious	-12.9956
prince	-12.9959
prepared	-12.996
cultural	-12.996
efficienc	-12.996
israel	-12.996
threaten	-12.996
negative	-12.996
prime	-12.996
broken	-12.996
meaning	-12.996
fight	-12.996
surface	-12.9961
distance	-12.9961
milk	-12.9979
▁excel	-12.9984
▁conduc	-12.9986
curable	-13.0041
▁treasur	-13.0052
▁cynic	-13.0081
▁beverl	-13.0083
guan	-13.0113
legg	-13.0121
▁suicid	-13.0123
define	-13.0141
▁comprehensi	-13.0149
▁pediatric	-13.0166
▁cyberattack	-13.0166
▁expend	-13.0166
▁inaugura	-13.0166
▁misinterpret	-13.0166
▁portuguese	-13.0166
▁reintegrat	-13.0166
▁revisit	-13.0166
▁succumb	-13.0166
▁allegiance	-13.0166
▁amputee	-13.0166
▁anecdotal	-13.0166
▁brussel	-13.0166
▁burrow	-13.0166
▁camouflage	-13.0166
▁cannibal	-13.0166
▁caterpillar	-13.0166
▁convolut	-13.0166
▁critique	-13.0166
▁cryptic	-13.0166
▁dissonance	-13.0166
▁dominican	-13.0166
▁encapsulate	-13.0166
▁expansive	-13.0166
▁firefighter	-13.0166
▁galactic	-13.0166
▁gapminder	-13.0166
▁hyena	-13.0166
▁megabyte	-13.0166
▁microprocessor	-13.0166
▁militari	-13.0166
▁pelvi	-13.0166
▁pharaoh	-13.0166
▁photoreceptor	-13.0166
▁piazza	-13.0166
▁quran	-13.0166
▁recharge	-13.0166
▁residual	-13.0166
▁soprano	-13.0166
▁spoof	-13.0166
▁stethoscope	-13.0166
▁superstring	-13.0166
▁surreal	-13.0166
▁testosterone	-13.0166
▁tornado	-13.0166
▁translucen	-13.0166
▁turnaround	-13.0166
▁uncommon	-13.0166
▁undesir	-13.0166
launder	-13.0166
▁cadaver	-13.0166
▁compartment	-13.0166
▁grenade	-13.0166
▁impoten	-13.0166
▁lurk	-13.0166
▁occurrence	-13.0166
▁quartz	-13.0166
▁recap	-13.0166
▁shaft	-13.0166
▁venom	-13.0166
▁catheter	-13.0166
▁relegate	-13.0166
▁tribun	-13.0166
azzo	-13.0166
▁shrine	-13.0166
▁3.2	-13.0166
▁cameroon	-13.0166
▁delicac	-13.0166
▁dismay	-13.0166
▁fischer	-13.0166
▁feast	-13.0166
▁hippocrat	-13.0166
▁mourn	-13.0166
▁yacht	-13.0166
▁carcass	-13.0166
▁debut	-13.0166
▁bestseller	-13.0167
▁bount	-13.0167
▁dehumaniz	-13.0167
▁archaeologist	-13.0167
hyder	-13.0167
▁lindberg	-13.0167
▁kurd	-13.0167
▁levin	-13.0167
▁streak	-13.0167
▁karl	-13.0167
▁enlarge	-13.0167
▁beacon	-13.0167
▁bliss	-13.0167
▁judicia	-13.0167
▁myriad	-13.0167
▁whack	-13.0167
▁bernard	-13.0167
▁reversal	-13.0167
▁karma	-13.0167
▁hallmark	-13.0167
▁leaflet	-13.0167
▁barcode	-13.0167
▁swoop	-13.0167
▁genealog	-13.0168
▁leib	-13.0168
▁safeguard	-13.0168
avior	-13.0168
▁typewriter	-13.0168
▁crook	-13.0168
hydrophobic	-13.0168
▁craving	-13.0168
▁impossibilit	-13.0169
▁dennis	-13.0169
▁abduct	-13.0169
www	-13.0169
▁agitat	-13.0169
▁sneakerhead	-13.017
▁pillow	-13.017
▁lumber	-13.017
▁salut	-13.017
▁impart	-13.017
▁erik	-13.017
▁crave	-13.017
▁stella	-13.0171
▁epidemiologist	-13.0171
▁stux	-13.0171
▁reced	-13.0171
▁jeni	-13.0172
▁font	-13.0174
▁galvani	-13.0175
▁zapp	-13.0185
▁streamlin	-13.0189
▁arno	-13.0199
▁quadra	-13.02
▁drape	-13.0205
▁kera	-13.0216
romeda	-13.0224
▁complementar	-13.0235
▁lenti	-13.0236
▁marcel	-13.0241
ollock	-13.025
erkat	-13.0257
▁ellen	-13.0261
donna	-13.0269
▁jogg	-13.0277
communica	-13.0285
▁advers	-13.037
▁municipal	-13.038
▁prescrib	-13.039
▁predat	-13.0472
▁counteract	-13.0485
▁interfer	-13.0515
compensate	-13.0521
▁sacrific	-13.0528
▁trench	-13.0529
rillo	-13.0573
drawn	-13.0599
transduc	-13.0631
simplification	-13.0641
▁consolidat	-13.067
▁fanci	-13.0721
▁sampl	-13.0722
▁sentenc	-13.0771
▁interven	-13.079
significant	-13.0826
control	-13.0902
handler	-13.0912
municipalit	-13.0936
guard	-13.0955
qualifie	-13.0957
discover	-13.0958
realistic	-13.0959
consistent	-13.0959
presence	-13.096
practical	-13.096
detect	-13.096
circle	-13.096
inspire	-13.096
similar	-13.096
visual	-13.096
record	-13.096
information	-13.0961
support	-13.0961
paint	-13.0961
left	-13.0962
quor	-13.0982
stopp	-13.0996
▁envelop	-13.1003
▁underestimat	-13.1016
▁lame	-13.1045
llusion	-13.105
▁pupp	-13.1118
ggling	-13.1145
▁experien	-13.116
▁sift	-13.1161
▁situat	-13.1163
▁recess	-13.1163
▁olymp	-13.1164
quake	-13.1165
incidence	-13.1165
▁illitera	-13.1165
mplicated	-13.1165
▁preconce	-13.1166
▁debilitat	-13.1166
▁uninhabit	-13.1166
▁unsuspect	-13.1166
▁clutter	-13.1166
▁decoupl	-13.1166
▁demolish	-13.1166
▁proclaim	-13.1166
conclusive	-13.1166
mphatic	-13.1166
▁accompany	-13.1166
▁actuator	-13.1166
▁albatross	-13.1166
▁boycott	-13.1166
▁carnival	-13.1166
▁cataract	-13.1166
▁chronological	-13.1166
▁circus	-13.1166
▁congregation	-13.1166
▁cricket	-13.1166
▁cryptocurrenc	-13.1166
▁cushion	-13.1166
▁decompi	-13.1166
▁demoralize	-13.1166
▁denisovan	-13.1166
▁denominator	-13.1166
▁devotion	-13.1166
▁dirigible	-13.1166
▁eclip	-13.1166
▁euclid	-13.1166
▁eyewitness	-13.1166
▁gaddafi	-13.1166
▁gatekeeper	-13.1166
▁gigabyte	-13.1166
▁hashtag	-13.1166
▁hazara	-13.1166
▁jurisdiction	-13.1166
▁lattice	-13.1166
▁magellan	-13.1166
▁microfluidic	-13.1166
▁minaret	-13.1166
▁monogam	-13.1166
▁muffin	-13.1166
▁oblige	-13.1166
▁peasant	-13.1166
▁pedagog	-13.1166
▁propriet	-13.1166
▁pupil	-13.1166
▁qualification	-13.1166
▁quirk	-13.1166
▁reappear	-13.1166
▁reconsider	-13.1166
▁recursive	-13.1166
▁reminisc	-13.1166
▁restraint	-13.1166
▁rhode	-13.1166
▁ruthless	-13.1166
▁sebastia	-13.1166
▁semiconductor	-13.1166
▁serpent	-13.1166
▁squatter	-13.1166
▁subtitle	-13.1166
▁toothpaste	-13.1166
▁twentysomething	-13.1166
▁unsurprising	-13.1166
▁volvo	-13.1166
▁wagner	-13.1166
bimetal	-13.1166
▁alleviate	-13.1166
▁bleep	-13.1166
▁contempt	-13.1166
▁correspondence	-13.1166
▁dessert	-13.1166
▁egalitarian	-13.1166
▁franchise	-13.1166
▁gourmet	-13.1166
▁inflammat	-13.1166
▁intermediate	-13.1166
▁nozzle	-13.1166
▁retaliat	-13.1166
▁sectarian	-13.1166
▁submerge	-13.1166
bourne	-13.1166
nnica	-13.1166
▁affectionate	-13.1166
▁aristocra	-13.1166
▁conceit	-13.1166
▁consorti	-13.1166
▁contour	-13.1166
▁destitut	-13.1166
▁pseudo	-13.1166
journ	-13.1166
▁elicit	-13.1166
▁disclose	-13.1166
▁homeowner	-13.1166
▁critter	-13.1166
▁infringe	-13.1166
▁astrophysic	-13.1166
▁brittle	-13.1166
▁infanc	-13.1166
▁crazi	-13.1166
▁discern	-13.1166
▁yank	-13.1166
▁honk	-13.1166
▁cobble	-13.1167
▁caricatur	-13.1167
murdo	-13.1167
▁departure	-13.1167
▁console	-13.1167
▁seaweed	-13.1167
▁transien	-13.1167
▁yep	-13.1167
▁disrespect	-13.1167
▁dickens	-13.1167
▁await	-13.1167
▁eighteen	-13.1167
▁multicultural	-13.1167
▁sympathetic	-13.1167
▁parody	-13.1167
▁watershed	-13.1167
▁shimmer	-13.1167
▁babylon	-13.1167
▁kelp	-13.1167
▁coarse	-13.1167
▁patroll	-13.1167
▁earring	-13.1167
▁vista	-13.1167
▁sutherland	-13.1167
▁leatherback	-13.1167
africanis	-13.1167
▁imprint	-13.1167
hound	-13.1168
▁belgi	-13.1168
▁spook	-13.1168
▁percolat	-13.1168
▁spice	-13.1168
▁klee	-13.1168
▁exhale	-13.1169
cartes	-13.1169
▁procreati	-13.1169
▁glaze	-13.1169
▁crystalliz	-13.117
▁aaron	-13.1171
▁twinkl	-13.1174
▁nude	-13.1177
▁rewir	-13.1178
▁academi	-13.1183
▁germinat	-13.1186
▁commonalit	-13.1188
▁mandar	-13.1192
▁demis	-13.1194
inosaur	-13.1206
▁conspir	-13.1206
▁adversar	-13.1229
rnest	-13.1233
champ	-13.1237
▁eeri	-13.1242
▁cigar	-13.1312
ensibl	-13.1313
irring	-13.134
2.4	-13.1353
amorphi	-13.1379
▁java	-13.1382
custome	-13.1384
▁aroma	-13.1392
mund	-13.1411
redeem	-13.1521
otho	-13.1524
▁malala	-13.1535
rmant	-13.1585
serving	-13.1594
afari	-13.1603
▁revolutioniz	-13.1636
▁romanticiz	-13.169
▁googl	-13.1789
▁articulat	-13.1806
grav	-13.1947
sustain	-13.1988
public	-13.2069
neutral	-13.207
intensive	-13.207
distinguish	-13.207
obsess	-13.207
strand	-13.207
guide	-13.2071
grandfather	-13.2071
patient	-13.2071
speech	-13.2071
nuclear	-13.2071
benefit	-13.2072
service	-13.2072
opening	-13.2072
shoulder	-13.2072
coast	-13.2075
▁provinc	-13.2139
winning	-13.2185
cussion	-13.2199
▁serendipit	-13.2209
▁poach	-13.2226
mpathetic	-13.2233
eiffe	-13.2238
rkel	-13.2239
▁bulg	-13.2252
know	-13.2258
ketch	-13.2271
▁trivia	-13.2273
▁restorati	-13.2275
▁depart	-13.2275
vironment	-13.2277
▁mislead	-13.2277
▁concord	-13.2277
▁destabiliz	-13.2277
▁engender	-13.2277
▁enshrin	-13.2277
▁squawk	-13.2277
)	-14.9252
?	-14.9253
♫	-14.9253
